{
  "version": "1.0",
  "truncation": null,
  "padding": null,
  "added_tokens": [
    {
      "id": 0,
      "content": "<s>",
      "single_word": false,
      "lstrip": false,
      "rstrip": false,
      "normalized": false,
      "special": true
    },
    {
      "id": 1,
      "content": "<pad>",
      "single_word": false,
      "lstrip": false,
      "rstrip": false,
      "normalized": false,
      "special": true
    },
    {
      "id": 2,
      "content": "</s>",
      "single_word": false,
      "lstrip": false,
      "rstrip": false,
      "normalized": false,
      "special": true
    },
    {
      "id": 3,
      "content": "<unk>",
      "single_word": false,
      "lstrip": false,
      "rstrip": false,
      "normalized": false,
      "special": true
    },
    {
      "id": 4,
      "content": "<mask>",
      "single_word": false,
      "lstrip": false,
      "rstrip": false,
      "normalized": false,
      "special": true
    }
  ],
  "normalizer": null,
  "pre_tokenizer": {
    "type": "ByteLevel",
    "add_prefix_space": true,
    "trim_offsets": true,
    "use_regex": true
  },
  "post_processor": null,
  "decoder": null,
  "model": {
    "type": "BPE",
    "dropout": null,
    "unk_token": null,
    "continuing_subword_prefix": null,
    "end_of_word_suffix": null,
    "fuse_unk": false,
    "byte_fallback": false,
    "vocab": {
      "<s>": 0,
      "<pad>": 1,
      "</s>": 2,
      "<unk>": 3,
      "<mask>": 4,
      "!": 5,
      "\"": 6,
      "#": 7,
      "$": 8,
      "%": 9,
      "&": 10,
      "*": 11,
      ",": 12,
      "-": 13,
      ".": 14,
      "/": 15,
      "0": 16,
      "1": 17,
      "2": 18,
      "3": 19,
      "4": 20,
      "5": 21,
      "6": 22,
      "7": 23,
      "8": 24,
      "9": 25,
      ":": 26,
      ";": 27,
      "<": 28,
      ">": 29,
      "?": 30,
      "@": 31,
      "A": 32,
      "B": 33,
      "C": 34,
      "D": 35,
      "E": 36,
      "F": 37,
      "G": 38,
      "H": 39,
      "I": 40,
      "J": 41,
      "K": 42,
      "L": 43,
      "M": 44,
      "N": 45,
      "O": 46,
      "P": 47,
      "Q": 48,
      "R": 49,
      "S": 50,
      "T": 51,
      "U": 52,
      "V": 53,
      "W": 54,
      "X": 55,
      "Y": 56,
      "Z": 57,
      "[": 58,
      "\\": 59,
      "]": 60,
      "^": 61,
      "_": 62,
      "`": 63,
      "a": 64,
      "b": 65,
      "c": 66,
      "d": 67,
      "e": 68,
      "f": 69,
      "g": 70,
      "h": 71,
      "i": 72,
      "j": 73,
      "k": 74,
      "l": 75,
      "m": 76,
      "n": 77,
      "o": 78,
      "p": 79,
      "q": 80,
      "r": 81,
      "s": 82,
      "t": 83,
      "u": 84,
      "v": 85,
      "w": 86,
      "x": 87,
      "y": 88,
      "z": 89,
      "{": 90,
      "}": 91,
      "~": 92,
      "¼": 93,
      "½": 94,
      "¿": 95,
      "Ã": 96,
      "ï": 97,
      "Ĉ": 98,
      "ě": 99,
      "Ġ": 100,
      "Ł": 101,
      "in": 102,
      "er": 103,
      "en": 104,
      "~~": 105,
      "ti": 106,
      "on": 107,
      "or": 108,
      "te": 109,
      "ar": 110,
      "tion": 111,
      "le": 112,
      "th": 113,
      "om": 114,
      "st": 115,
      "re": 116,
      "fi": 117,
      "~~~~": 118,
      "Ġi": 119,
      "at": 120,
      "ation": 121,
      "ce": 122,
      "Ġb": 123,
      "ol": 124,
      "al": 125,
      "ing": 126,
      "de": 127,
      "fa": 128,
      "ec": 129,
      "ter": 130,
      "an": 131,
      "Ġw": 132,
      "ch": 133,
      "Ġin": 134,
      "Ġt": 135,
      "Ch": 136,
      "ent": 137,
      "og": 138,
      "ut": 139,
      "ri": 140,
      "ted": 141,
      "Ġf": 142,
      "ain": 143,
      "Ġth": 144,
      "ed": 145,
      "ment": 146,
      "fier": 147,
      "Ġthe": 148,
      "ex": 149,
      "Ġto": 150,
      "den": 151,
      "Ġm": 152,
      "denti": 153,
      "AR": 154,
      "dentifier": 155,
      "Ġl": 156,
      "ains": 157,
      "il": 158,
      "Re": 159,
      "eck": 160,
      "Ġp": 161,
      "bin": 162,
      "ow": 163,
      "Check": 164,
      "um": 165,
      "di": 166,
      "Dc": 167,
      "En": 168,
      "In": 169,
      "riv": 170,
      "~~~~~~~~": 171,
      "olog": 172,
      "omolog": 173,
      "omologation": 174,
      "ara": 175,
      "lev": 176,
      "levan": 177,
      "driv": 178,
      "Ġre": 179,
      "driving": 180,
      "Ġbe": 181,
      "el": 182,
      "ĠS": 183,
      "co": 184,
      "Enum": 185,
      "ener": 186,
      "Ġex": 187,
      "mc": 188,
      "tec": 189,
      "Ġidentifier": 190,
      "64": 191,
      "Ġn": 192,
      "Ġpre": 193,
      "ss": 194,
      "eng": 195,
      "Ac": 196,
      "ength": 197,
      "dom": 198,
      "pl": 199,
      "ge": 200,
      "domains": 201,
      "tu": 202,
      "lu": 203,
      "fy": 204,
      "ata": 205,
      "Dcr": 206,
      "ĠP": 207,
      "out": 208,
      "Ġ-": 209,
      "Ġo": 210,
      "dify": 211,
      "zel": 212,
      "azel": 213,
      "ind": 214,
      "me": 215,
      "indow": 216,
      "indows": 217,
      "windows": 218,
      "Ġbazel": 219,
      "clu": 220,
      "Dmc": 221,
      "ue": 222,
      "levant": 223,
      "si": 224,
      "Ġc": 225,
      "pe": 226,
      "gener": 227,
      "Tq": 228,
      "age": 229,
      "Ġidentifiers": 230,
      "ith": 231,
      "Ġ6": 232,
      "Ġwith": 233,
      "bu": 234,
      "ic": 235,
      "ype": 236,
      "/_": 237,
      "De": 238,
      "Ġno": 239,
      "ul": 240,
      "fix": 241,
      "Ġlength": 242,
      "Ġprefix": 243,
      "Co": 244,
      "mp": 245,
      "Ġexp": 246,
      "din": 247,
      "ĠF": 248,
      "ĠV": 249,
      "Ġis": 250,
      "fast": 251,
      "ild": 252,
      "build": 253,
      "ger": 254,
      "fastbuild": 255,
      "rom": 256,
      "ordin": 257,
      "coordin": 258,
      "son": 259,
      "Ġfor": 260,
      "Ġde": 261,
      "ip": 262,
      "Ġ1": 263,
      "ess": 264,
      "plo": 265,
      "Ġof": 266,
      "ĠE": 267,
      "ult": 268,
      "Data": 269,
      "ploy": 270,
      "ployment": 271,
      "Log": 272,
      "Logger": 273,
      "Ġdomains": 274,
      "Ġs": 275,
      "deployment": 276,
      "ĠM": 277,
      "json": 278,
      "ĠW": 279,
      "Ġfrom": 280,
      "it": 281,
      "tected": 282,
      "UN": 283,
      "Type": 284,
      "ARN": 285,
      "Th": 286,
      "arame": 287,
      "ĠWARN": 288,
      "arameter": 289,
      "lement": 290,
      "essage": 291,
      "ĠCo": 292,
      "fault": 293,
      "iol": 294,
      "ĠCheck": 295,
      "ĠDe": 296,
      "ĠAc": 297,
      "Ġor": 298,
      "dm": 299,
      "ĠCodify": 300,
      "Ġh": 301,
      "ĠMessage": 302,
      "ĠElement": 303,
      "ĠDefault": 304,
      "Ġdetected": 305,
      "ĠDefaultLogger": 306,
      "UNC": 307,
      "iolation": 308,
      "ĠViolation": 309,
      "ĠAction": 310,
      "ĠFUNC": 311,
      "ĠElements": 312,
      "Qdm": 313,
      "Wc": 314,
      "us": 315,
      "Ġnot": 316,
      "Homologation": 317,
      "Hv": 318,
      "Ġrelevant": 319,
      "Ġhomologation": 320,
      "ĠTh": 321,
      "face": 322,
      "clude": 323,
      "Ġif": 324,
      "Ġch": 325,
      "Ġwh": 326,
      "generic": 327,
      "terface": 328,
      "ters": 329,
      "Ġ63": 330,
      "DataType": 331,
      "arac": 332,
      "Ġcharac": 333,
      "!!": 334,
      "EnumDataType": 335,
      "Ġcharacters": 336,
      "AT": 337,
      "ace": 338,
      "pp": 339,
      "DmcTq": 340,
      "im": 341,
      "et": 342,
      "Ġ*": 343,
      "un": 344,
      "gn": 345,
      "Cha": 346,
      "ms": 347,
      "tr": 348,
      "Ġcon": 349,
      "vi": 350,
      "10": 351,
      "ture": 352,
      "file": 353,
      "arch": 354,
      "archi": 355,
      "tecture": 356,
      "architecture": 357,
      "ver": 358,
      "Et": 359,
      "Ġar": 360,
      "ort": 361,
      "sp": 362,
      "ĠPAR": 363,
      "coordination": 364,
      "ali": 365,
      "St": 366,
      "32": 367,
      "Pt": 368,
      "pt": 369,
      "tual": 370,
      "dp": 371,
      "TI": 372,
      "ab": 373,
      "include": 374,
      "vir": 375,
      "ster": 376,
      "Ldp": 377,
      "includes": 378,
      "virtual": 379,
      "pped": 380,
      "stri": 381,
      "stripped": 382,
      "TE": 383,
      "ve": 384,
      "fer": 385,
      "HvCha": 386,
      "DcrIn": 387,
      "~~~~~~~~~~~~~~~~": 388,
      "se": 389,
      "ich": 390,
      "ces": 391,
      "sc": 392,
      "go": 393,
      "cluster": 394,
      "data": 395,
      "ected": 396,
      "Ġexpected": 397,
      "ad": 398,
      "Ġbut": 399,
      "codify": 400,
      "ence": 401,
      "atus": 402,
      "ference": 403,
      "ator": 404,
      "lea": 405,
      "Ġ[": 406,
      "Di": 407,
      "gnal": 408,
      "ust": 409,
      "Ġe": 410,
      "ll": 411,
      "ac": 412,
      "Ġreference": 413,
      "ong": 414,
      "Ġmo": 415,
      "hr": 416,
      "vl": 417,
      "DmcTqz": 418,
      "For": 419,
      "ym": 420,
      "ON": 421,
      "ty": 422,
      "Ġreferenced": 423,
      "Ġmust": 424,
      "till": 425,
      "ĠThe": 426,
      "fahr": 427,
      "Ġit": 428,
      "ĠSet": 429,
      "lo": 430,
      "fahren": 431,
      "Ġinterface": 432,
      "ging": 433,
      "Ġtr": 434,
      "arging": 435,
      "ole": 436,
      "Lim": 437,
      "Ġtrue": 438,
      "ForHomologation": 439,
      "ĠParameter": 440,
      "mpty": 441,
      "Relevan": 442,
      "Ġempty": 443,
      "Ġlea": 444,
      "Relevant": 445,
      "ceCheck": 446,
      "ĠisRelevant": 447,
      "HomologationRelevan": 448,
      "Ġwhole": 449,
      "Ġleave": 450,
      "ĠisRelevantForHomologation": 451,
      "HomologationRelevanceCheck": 452,
      "ork": 453,
      "ill": 454,
      "ame": 455,
      "Out": 456,
      "Avl": 457,
      "ated": 458,
      "Ġ7": 459,
      "coordinator": 460,
      "hort": 461,
      "Ġover": 462,
      "Ġat": 463,
      "Ġwill": 464,
      "TION": 465,
      "Ġname": 466,
      "Ġsym": 467,
      "Ġgener": 468,
      "orted": 469,
      "Ego": 470,
      "space": 471,
      "zed": 472,
      "Ġare": 473,
      "orkspace": 474,
      "files": 475,
      "Length": 476,
      "Ġcont": 477,
      "ose": 478,
      "Ġcontains": 479,
      "lab": 480,
      "sent": 481,
      "Ġ16": 482,
      "atlab": 483,
      "iter": 484,
      "iteral": 485,
      "Ġlong": 486,
      "Ġexce": 487,
      "Ġwhich": 488,
      "ecu": 489,
      "TEN": 490,
      "Ġtoo": 491,
      "Ġexceed": 492,
      "bol": 493,
      "Ġliteral": 494,
      "TENTION": 495,
      "Ġmost": 496,
      "Identifier": 497,
      "ĠShort": 498,
      "Ġsymbol": 499,
      "Ġgenerated": 500,
      "Ġworkspace": 501,
      "Ġstill": 502,
      "Ġpresent": 503,
      "Ġexported": 504,
      "ĠEnumDataType": 505,
      "Ġmatlab": 506,
      "EnumIdentifier": 507,
      "sized": 508,
      "ĠCodifyEnumDataType": 509,
      "ĠThose": 510,
      "!!!": 511,
      "ATTENTION": 512,
      "Ġoversized": 513,
      "LengthCheck": 514,
      "ĠShorten": 515,
      "EnumIdentifierLengthCheck": 516,
      "ro": 517,
      "clusters": 518,
      "PAR": 519,
      "Parameter": 520,
      "ĠCodifyParameter": 521,
      "ignal": 522,
      "gy": 523,
      "so": 524,
      "ĠIn": 525,
      "AD": 526,
      "interface": 527,
      "sh": 528,
      "Etf": 529,
      "WcEtf": 530,
      "Ptm": 531,
      "ower": 532,
      "IN": 533,
      "unc": 534,
      "Sf": 535,
      "alid": 536,
      "unction": 537,
      "stan": 538,
      "DcrAvl": 539,
      "exec": 540,
      "ur": 541,
      "Em": 542,
      "energy": 543,
      "Qu": 544,
      "alue": 545,
      "qu": 546,
      "ĠSignal": 547,
      "yM": 548,
      "opt": 549,
      "train": 550,
      "Mue": 551,
      "owertrain": 552,
      "ADD": 553,
      "DF": 554,
      "powertrain": 555,
      "ĠCodifyParameterPAR": 556,
      "stances": 557,
      "instances": 558,
      "is": 559,
      "Pm": 560,
      "ass": 561,
      "rr": 562,
      "Mo": 563,
      "rc": 564,
      "ate": 565,
      "fin": 566,
      "RM": 567,
      "Err": 568,
      "Ġconst": 569,
      "ĠPRM": 570,
      "Ġv": 571,
      "ati": 572,
      "anip": 573,
      "ary": 574,
      "temp": 575,
      "rt": 576,
      "Ġnote": 577,
      "Ġ^": 578,
      "Etmc": 579,
      "status": 580,
      "if": 581,
      "ff": 582,
      "ipf": 583,
      "ak": 584,
      "Ġfile": 585,
      "fac": 586,
      "ity": 587,
      "Lo": 588,
      "orary": 589,
      "temporary": 590,
      "olati": 591,
      "olatile": 592,
      "Ġvolatile": 593,
      "Manip": 594,
      "Ġ#": 595,
      "Ġ^~~~~~~~~~~~~~~~~": 596,
      "Rea": 597,
      "Ġa": 598,
      "ER": 599,
      "value": 600,
      "Ma": 601,
      "cluded": 602,
      "Ġincluded": 603,
      "arn": 604,
      "Ġrt": 605,
      "ps": 606,
      "li": 607,
      "12": 608,
      "valid": 609,
      "mn": 610,
      "Ax": 611,
      "QdmMue": 612,
      "Ġ{": 613,
      "ding": 614,
      "AX": 615,
      "ns": 616,
      "PmIn": 617,
      "erm": 618,
      "ared": 619,
      "shared": 620,
      "arning": 621,
      "omp": 622,
      "ste": 623,
      "alifier": 624,
      "defin": 625,
      "Charging": 626,
      "DcrOut": 627,
      "ET": 628,
      "Ġrtt": 629,
      "31": 630,
      "ĠRe": 631,
      "ot": 632,
      "sour": 633,
      "Ġwarning": 634,
      "man": 635,
      "ok": 636,
      "sources": 637,
      "ĠSyM": 638,
      "ĠSyML": 639,
      "gr": 640,
      "Dia": 641,
      "ng": 642,
      "Wh": 643,
      "ermal": 644,
      "Bace": 645,
      "sign": 646,
      "charging": 647,
      "Ġreal": 648,
      "thermal": 649,
      "agement": 650,
      "loat": 651,
      "far": 652,
      "Ġfloat": 653,
      "FA": 654,
      "tq": 655,
      "management": 656,
      "get": 657,
      "otion": 658,
      "ATE": 659,
      "yn": 660,
      "ĠResources": 661,
      "eh": 662,
      "Dr": 663,
      "Ak": 664,
      "Sns": 665,
      "look": 666,
      "lc": 667,
      "FO": 668,
      "wr": 669,
      "Status": 670,
      "src": 671,
      "ĠK": 672,
      "DmcTqf": 673,
      "gu": 674,
      "lib": 675,
      "Ġ15": 676,
      "11": 677,
      "pla": 678,
      "int": 679,
      "INFO": 680,
      "ĠG": 681,
      "Ġ64": 682,
      "srcs": 683,
      "lf": 684,
      "ĠINFO": 685,
      "Con": 686,
      "Ġ[-": 687,
      "Diag": 688,
      "Ġtype": 689,
      "bs": 690,
      "LdpTq": 691,
      "ds": 692,
      "Act": 693,
      "AXX": 694,
      "gument": 695,
      "Ġargument": 696,
      "Br": 697,
      "30": 698,
      "qualifier": 699,
      "aka": 700,
      "disc": 701,
      "Ġ*}": 702,
      "discar": 703,
      "NO": 704,
      "assis": 705,
      "chassis": 706,
      "define": 707,
      "ality": 708,
      "Max": 709,
      "Ste": 710,
      "~~~": 711,
      "ating": 712,
      "bace": 713,
      "Req": 714,
      "mport": 715,
      "exus": 716,
      "Dcu": 717,
      "Sp": 718,
      "sil": 719,
      "Acc": 720,
      "Au": 721,
      "Drv": 722,
      "ering": 723,
      "impl": 724,
      "ĠC": 725,
      "QdmA": 726,
      "binlc": 727,
      "uint": 728,
      "ari": 729,
      "iflf": 730,
      "ma": 731,
      "by": 732,
      "dr": 733,
      "AL": 734,
      "able": 735,
      "ks": 736,
      "IC": 737,
      "DmcTqzF": 738,
      "oring": 739,
      "onit": 740,
      "onitoring": 741,
      "cc": 742,
      "es": 743,
      "sw": 744,
      "import": 745,
      "Bps": 746,
      "nexus": 747,
      "imports": 748,
      "sion": 749,
      "cx": 750,
      "RA": 751,
      "icle": 752,
      "Mgr": 753,
      "LdpS": 754,
      "lim": 755,
      "Ġint": 756,
      "DcrAvlRea": 757,
      "erti": 758,
      "acro": 759,
      "ĠQu": 760,
      "Ġmacro": 761,
      "ĠCodifyEnumDataTypeQu": 762,
      "quality": 763,
      "DcrAvlMgr": 764,
      "for": 765,
      "signed": 766,
      "Ġ8": 767,
      "Akks": 768,
      "cmn": 769,
      "Le": 770,
      "hv": 771,
      "Aux": 772,
      "drivingcmn": 773,
      "genericdrivingcmn": 774,
      "hdr": 775,
      "hdrs": 776,
      "ID": 777,
      "eration": 778,
      "Disp": 779,
      "Ġan": 780,
      "cpp": 781,
      "Ff": 782,
      "limi": 783,
      "pd": 784,
      "arget": 785,
      "Ġuint": 786,
      "Veh": 787,
      "ulation": 788,
      "limited": 789,
      "TIF": 790,
      "~~~~~~~~~~~~": 791,
      "DmcWc": 792,
      "DmcWcAux": 793,
      "TIFIC": 794,
      "],": 795,
      "VAL": 796,
      "VALID": 797,
      "YM": 798,
      "ĠKE": 799,
      "CER": 800,
      "TIFICATE": 801,
      "ĠKEYM": 802,
      "CERTIFICATE": 803,
      "sim": 804,
      "LdpSsc": 805,
      "Ġexpan": 806,
      "Ġexpansion": 807,
      "Hvs": 808,
      "Db": 809,
      "Ġfunction": 810,
      "tqw": 811,
      "simulation": 812,
      "set": 813,
      "binding": 814,
      "Ctr": 815,
      "Ctrl": 816,
      "[],": 817,
      "va": 818,
      "eg": 819,
      "Dbg": 820,
      "Kcx": 821,
      "od": 822,
      "20": 823,
      "Mode": 824,
      "ĠGET": 825,
      "16": 826,
      "ST": 827,
      "ĠBace": 828,
      "57": 829,
      "Read": 830,
      "monitoring": 831,
      "La": 832,
      "function": 833,
      "25": 834,
      "21": 835,
      "wi": 836,
      "DmcKcx": 837,
      "Ġpo": 838,
      "Val": 839,
      "AP": 840,
      "play": 841,
      "splay": 842,
      "DAT": 843,
      "ra": 844,
      "icht": 845,
      "Load": 846,
      "DmcTqzFby": 847,
      "DATA": 848,
      "ig": 849,
      "DcrDiag": 850,
      "ptm": 851,
      "DcrOutDbg": 852,
      "LdpTqa": 853,
      "Com": 854,
      "nicht": 855,
      "teger": 856,
      "RTE": 857,
      "he": 858,
      "Ds": 859,
      "binlca": 860,
      "DcrSf": 861,
      "Ġun": 862,
      "RV": 863,
      "ers": 864,
      "cel": 865,
      "Cpt": 866,
      "ĠLoad": 867,
      "Ġ0": 868,
      "as": 869,
      "ion": 870,
      "Dyn": 871,
      "ego": 872,
      "Ġ12": 873,
      "To": 874,
      "omotion": 875,
      "inter": 876,
      "ule": 877,
      "ĠFrom": 878,
      "Swi": 879,
      "QdmLe": 880,
      "alidating": 881,
      "Pwr": 882,
      "motion": 883,
      "signal": 884,
      "ded": 885,
      "ĠValidating": 886,
      "Ġtarget": 887,
      "Msc": 888,
      "ung": 889,
      "Ġ14": 890,
      "sl": 891,
      "str": 892,
      "fic": 893,
      "WcMsc": 894,
      "128": 895,
      "verf": 896,
      "Ex": 897,
      "WcEtfCtrl": 898,
      "CoCpt": 899,
      "head": 900,
      "Ġ70": 901,
      "Ptsl": 902,
      "Ang": 903,
      "DmcPtsl": 904,
      "Angle": 905,
      "trol": 906,
      "Whl": 907,
      "DC": 908,
      "WcDcu": 909,
      "ManipVal": 910,
      "Accel": 911,
      "BM": 912,
      "ertific": 913,
      "ertificate": 914,
      "ci": 915,
      "eyM": 916,
      "Certificate": 917,
      "Par": 918,
      "No": 919,
      "are": 920,
      "StatusType": 921,
      "CertificateStatusType": 922,
      "Cmn": 923,
      "headers": 924,
      "IL": 925,
      "Pro": 926,
      "ck": 927,
      "pwr": 928,
      "ReadData": 929,
      "Res": 930,
      "Ġ66": 931,
      "Lv": 932,
      "libr": 933,
      "ress": 934,
      "cha": 935,
      "Control": 936,
      "Ġunsigned": 937,
      "aries": 938,
      "40": 939,
      "put": 940,
      "egomotion": 941,
      "functions": 942,
      "Ġ65": 943,
      "libraries": 944,
      "Ġpass": 945,
      "Ġpassing": 946,
      "Ġpointer": 947,
      "Ġdiscar": 948,
      "Ġqualifier": 949,
      "qualifiers": 950,
      "Wdiscar": 951,
      "Ġdiscards": 952,
      "Wdiscarded": 953,
      "steering": 954,
      "amp": 955,
      "ack": 956,
      "27": 957,
      "art": 958,
      "Wr": 959,
      "hvptm": 960,
      "Ind": 961,
      "gb": 962,
      "eps": 963,
      "ct": 964,
      "mi": 965,
      "EN": 966,
      "Ġ<": 967,
      "bp": 968,
      "ManipSwi": 969,
      "uegb": 970,
      "uegbar": 971,
      "Ġ68": 972,
      "Steering": 973,
      "Rng": 974,
      "arameters": 975,
      "verfuegbar": 976,
      "cl": 977,
      "Pre": 978,
      "pro": 979,
      "^~~~~~~~~": 980,
      "Brk": 981,
      "49": 982,
      "Po": 983,
      "am": 984,
      "~~~~~~~~~~~~~~~": 985,
      "nc": 986,
      "Dec": 987,
      "37": 988,
      "Pci": 989,
      "Axc": 990,
      "Fa": 991,
      "Ext": 992,
      "IT": 993,
      "18": 994,
      "Vehicle": 995,
      "EgoS": 996,
      "bil": 997,
      "22": 998,
      "EC": 999,
      "Ġdefin": 1000,
      "parameters": 1001,
      "sch": 1002,
      "Ġdi": 1003,
      "pdM": 1004,
      "09": 1005,
      "1057": 1006,
      "OD": 1007,
      "comp": 1008,
      "aeps": 1009,
      "Ġ^~~~~~~~~~~~~~~~~~~~~~~~~~~~~~~~~": 1010,
      "QdmAaeps": 1011,
      "Acceleration": 1012,
      "ĠRTE": 1013,
      "Ġand": 1014,
      "Lvg": 1015,
      "Sig": 1016,
      "Ġ69": 1017,
      "Cc": 1018,
      "usi": 1019,
      "Ġ131": 1020,
      "eel": 1021,
      "Init": 1022,
      "Wheel": 1023,
      "plausi": 1024,
      "AC": 1025,
      "check": 1026,
      "35": 1027,
      "bility": 1028,
      "used": 1029,
      "ls": 1030,
      "checked": 1031,
      "plausibility": 1032,
      "Model": 1033,
      "unk": 1034,
      "ht": 1035,
      "display": 1036,
      "ava": 1037,
      "ting": 1038,
      "Stea": 1039,
      "Clu": 1040,
      "53": 1041,
      "Ġcomp": 1042,
      "44": 1043,
      "PtErr": 1044,
      "ition": 1045,
      "AB": 1046,
      "ĠSET": 1047,
      "ist": 1048,
      "ffer": 1049,
      "unktion": 1050,
      "28": 1051,
      "ifi": 1052,
      "EgoStea": 1053,
      "icit": 1054,
      "State": 1055,
      "Sti": 1056,
      "DmcKcxAcc": 1057,
      "38": 1058,
      "Pa": 1059,
      "02": 1060,
      "DcrInPtErr": 1061,
      "Fnc": 1062,
      "Error": 1063,
      "Ġbit": 1064,
      "QdmLeF": 1065,
      "fe": 1066,
      "ĠSt": 1067,
      "Ad": 1068,
      "tf": 1069,
      "CH": 1070,
      "ĠLogger": 1071,
      "56": 1072,
      "HvCom": 1073,
      "ake": 1074,
      "17": 1075,
      "Ġ\\": 1076,
      "invalid": 1077,
      "low": 1078,
      "Mobs": 1079,
      "50": 1080,
      "Ġinteger": 1081,
      "Ġ^~~~~~~~~~~~~~~~~~~~~~~~~": 1082,
      "Un": 1083,
      "ules": 1084,
      "OF": 1085,
      "13": 1086,
      "48": 1087,
      "Gbu": 1088,
      "CluGbu": 1089,
      "Cog": 1090,
      "DcrInPtm": 1091,
      "ression": 1092,
      "tern": 1093,
      "peed": 1094,
      "ile": 1095,
      "ert": 1096,
      "Function": 1097,
      "tive": 1098,
      "Bod": 1099,
      "Body": 1100,
      "VehicleBody": 1101,
      "26": 1102,
      "~~^": 1103,
      "Spr": 1104,
      "Ġ9": 1105,
      "BS": 1106,
      "SteeringAngle": 1107,
      "CRV": 1108,
      "Fs": 1109,
      "ilable": 1110,
      "Ġdiffer": 1111,
      "Ġdifferent": 1112,
      "ĠAXX": 1113,
      "fact": 1114,
      "Ġexpression": 1115,
      "Fan": 1116,
      "LdpTqc": 1117,
      "ness": 1118,
      "36": 1119,
      "Ms": 1120,
      "Ġsigned": 1121,
      "Ġget": 1122,
      "lease": 1123,
      "Wsign": 1124,
      "Ġ~~^": 1125,
      "Ġfmi": 1126,
      "arison": 1127,
      "compare": 1128,
      "Ġcomparison": 1129,
      "Ġexpressions": 1130,
      "Ġsignedness": 1131,
      "Ġ~~~~~~~~~~~~~~~": 1132,
      "Lash": 1133,
      "EgoAcceleration": 1134,
      "39": 1135,
      "hvm": 1136,
      "nr": 1137,
      "ous": 1138,
      "ens": 1139,
      "Fac": 1140,
      "aration": 1141,
      "claration": 1142,
      "ypes": 1143,
      "Ffx": 1144,
      "ĠFunktion": 1145,
      "Ed": 1146,
      "34": 1147,
      "ubs": 1148,
      "titu": 1149,
      "ubstitu": 1150,
      "ubstitute": 1151,
      "ackage": 1152,
      "Ġ~~~~~~~~~~~~~~~^~~~~~~~~": 1153,
      "RL": 1154,
      "SE": 1155,
      "tefact": 1156,
      "Ġartefact": 1157,
      "100": 1158,
      "ect": 1159,
      "LdpLvg": 1160,
      "TR": 1161,
      "Te": 1162,
      "CoCptDrv": 1163,
      "Ra": 1164,
      "ĠGener": 1165,
      "tl": 1166,
      "bw": 1167,
      "AXY": 1168,
      "Stiff": 1169,
      "ay": 1170,
      "not": 1171,
      "01": 1172,
      "DcrTq": 1173,
      "enum": 1174,
      "##": 1175,
      "ap": 1176,
      "available": 1177,
      "Ġ###": 1178,
      "Pd": 1179,
      "Op": 1180,
      "QdmApdM": 1181,
      "DmcWcAuxStiff": 1182,
      "ified": 1183,
      "cw": 1184,
      "oc": 1185,
      "33": 1186,
      "mod": 1187,
      "El": 1188,
      "RR": 1189,
      "Min": 1190,
      "ĠSubstitute": 1191,
      "verified": 1192,
      "amic": 1193,
      "Pr": 1194,
      "42": 1195,
      "Acv": 1196,
      "43": 1197,
      "Signal": 1198,
      "EgoOut": 1199,
      "op": 1200,
      "Ġ71": 1201,
      "Zff": 1202,
      "Lock": 1203,
      "Ġ3": 1204,
      "Ġsignal": 1205,
      "19": 1206,
      "Not": 1207,
      "Btf": 1208,
      "ei": 1209,
      "veh": 1210,
      "DmcL": 1211,
      "table": 1212,
      "vehicle": 1213,
      "Ġd": 1214,
      "id": 1215,
      "ssch": 1216,
      "So": 1217,
      "Ġdefinition": 1218,
      "cal": 1219,
      "Ġ73": 1220,
      "::": 1221,
      "Ġ2": 1222,
      "Damp": 1223,
      "41": 1224,
      "ĠBM": 1225,
      "Ffy": 1226,
      "types": 1227,
      "LdpSf": 1228,
      "Ġmod": 1229,
      "Result": 1230,
      "Long": 1231,
      "Mod": 1232,
      "sk": 1233,
      "Ws": 1234,
      "coding": 1235,
      "mph": 1236,
      "Inf": 1237,
      "ten": 1238,
      "PER": 1239,
      "Ġthis": 1240,
      "FL": 1241,
      "Sbw": 1242,
      "55": 1243,
      "FR": 1244,
      "ync": 1245,
      "Mtr": 1246,
      "Rate": 1247,
      "stel": 1248,
      "DmcTqr": 1249,
      "Ev": 1250,
      "47": 1251,
      "Rs": 1252,
      "EgoMobs": 1253,
      "ved": 1254,
      "ymph": 1255,
      "ony": 1256,
      "ymphony": 1257,
      "Fl": 1258,
      "SfPmIn": 1259,
      "Sync": 1260,
      "StCluGbu": 1261,
      "DispRng": 1262,
      "PwrMtr": 1263,
      "52": 1264,
      "PmOut": 1265,
      "NOT": 1266,
      "Ġres": 1267,
      "AIN": 1268,
      "Str": 1269,
      "Limit": 1270,
      "ure": 1271,
      "..": 1272,
      "ell": 1273,
      "ĠPlease": 1274,
      "1287": 1275,
      "FAR": 1276,
      "to": 1277,
      "master": 1278,
      "masterdata": 1279,
      "itu": 1280,
      "58": 1281,
      "QdmB": 1282,
      "HvChaSig": 1283,
      "ITY": 1284,
      "vcha": 1285,
      "Whvcha": 1286,
      "EgoOutWr": 1287,
      "AN": 1288,
      "118": 1289,
      "Ca": 1290,
      "Display": 1291,
      "sy": 1292,
      "SED": 1293,
      "EgoSpeed": 1294,
      "DmcTqfFfx": 1295,
      "CogEnum": 1296,
      "VehicleBodyEnum": 1297,
      "SteeringAngleWheel": 1298,
      "RateVehicleBodyEnum": 1299,
      "UST": 1300,
      "dinal": 1301,
      "itudinal": 1302,
      "Longitudinal": 1303,
      "KeyM": 1304,
      "Pot": 1305,
      "59": 1306,
      "WcBtf": 1307,
      "Ġ\"": 1308,
      "Integer": 1309,
      "Tqz": 1310,
      "ĠComp": 1311,
      "APC": 1312,
      "iling": 1313,
      "ĠCompiling": 1314,
      "ATED": 1315,
      "err": 1316,
      "Gra": 1317,
      "Hi": 1318,
      "1281": 1319,
      "Ġ~~^~~~~": 1320,
      "INVALID": 1321,
      "FAIL": 1322,
      "DcrSfAct": 1323,
      "ĠKeyM": 1324,
      "erations": 1325,
      "CHAIN": 1326,
      "enumerations": 1327,
      "IOD": 1328,
      "ĠCodifyEnumDataTypeKeyM": 1329,
      "PARSED": 1330,
      "VALIDITY": 1331,
      "VALIDATED": 1332,
      "TRUST": 1333,
      "PERIOD": 1334,
      "Ag": 1335,
      "modules": 1336,
      "dstill": 1337,
      "ject": 1338,
      "Qei": 1339,
      "QdmQei": 1340,
      "DmcTqx": 1341,
      "Spl": 1342,
      "ĠCharging": 1343,
      "error": 1344,
      "Ti": 1345,
      "Tar": 1346,
      "Ġ^~~~~~~~~~~~~~~~~~~~~": 1347,
      "WcEtfLash": 1348,
      "stem": 1349,
      "Set": 1350,
      "Ab": 1351,
      "LdpLim": 1352,
      "Ġtool": 1353,
      "Des": 1354,
      "vious": 1355,
      "Ġprevious": 1356,
      "]:": 1357,
      "46": 1358,
      "15": 1359,
      "Ctl": 1360,
      "oll": 1361,
      "dyn": 1362,
      "ear": 1363,
      "Cr": 1364,
      "sr": 1365,
      "ĠCRV": 1366,
      "Stat": 1367,
      "dn": 1368,
      "dex": 1369,
      "bject": 1370,
      "Brake": 1371,
      "ft": 1372,
      "itt": 1373,
      "nitt": 1374,
      "sschnitt": 1375,
      "stelle": 1376,
      "sschnittstelle": 1377,
      "Ġextern": 1378,
      "Ġjson": 1379,
      "itch": 1380,
      "ĠFunktionsschnittstelle": 1381,
      "ĠGenerating": 1382,
      "ber": 1383,
      "Hsr": 1384,
      "RE": 1385,
      "DcuSync": 1386,
      "DcuSyncControl": 1387,
      "pct": 1388,
      "Ġresol": 1389,
      "sig": 1390,
      "QdmStCluGbu": 1391,
      "DcrAvlSpr": 1392,
      "perti": 1393,
      "perties": 1394,
      "Ġresolved": 1395,
      "OR": 1396,
      "uest": 1397,
      "amics": 1398,
      "Axle": 1399,
      "Vol": 1400,
      "Ġ79": 1401,
      "DcrInEm": 1402,
      "54": 1403,
      "WcAxc": 1404,
      "Ġ20": 1405,
      "tings": 1406,
      "Aut": 1407,
      "24": 1408,
      "king": 1409,
      "Cor": 1410,
      "TAB": 1411,
      "Rsa": 1412,
      "Ap": 1413,
      "nt": 1414,
      "sd": 1415,
      "uc": 1416,
      "rit": 1417,
      "Ccs": 1418,
      "Index": 1419,
      "Ena": 1420,
      "wd": 1421,
      "fore": 1422,
      "ly": 1423,
      "Akt": 1424,
      "00": 1425,
      "ritten": 1426,
      "settings": 1427,
      "dynamics": 1428,
      "Coding": 1429,
      "vel": 1430,
      "Ġany": 1431,
      "Fc": 1432,
      "DmcTqzFfy": 1433,
      "Se": 1434,
      "alifierFunction": 1435,
      "14": 1436,
      "Ġread": 1437,
      "protected": 1438,
      "SfI": 1439,
      "ĠValue": 1440,
      "tiv": 1441,
      "dc": 1442,
      "SBS": 1443,
      "Ġ80": 1444,
      "Ġloc": 1445,
      "ler": 1446,
      "up": 1447,
      "au": 1448,
      "DU": 1449,
      "Tst": 1450,
      "Ġinput": 1451,
      "Os": 1452,
      "act": 1453,
      "sharedcoding": 1454,
      "AktHsr": 1455,
      "genericdrivingcmnCmn": 1456,
      "plicit": 1457,
      "sight": 1458,
      "/@": 1459,
      "08": 1460,
      "ĠSymphony": 1461,
      "max": 1462,
      "old": 1463,
      "cess": 1464,
      "foresight": 1465,
      "US": 1466,
      "Spt": 1467,
      "defined": 1468,
      "Ġlocation": 1469,
      "Ġredefined": 1470,
      "ystem": 1471,
      "QdmZff": 1472,
      "orion": 1473,
      "DispSpt": 1474,
      "DmcPa": 1475,
      "Det": 1476,
      "CU": 1477,
      "45": 1478,
      "Aff": 1479,
      "und": 1480,
      "DcrInit": 1481,
      "Gate": 1482,
      "br": 1483,
      "Ġ^~~~~~~~~~~~~~~~~~~~~~~~~~~~~": 1484,
      "mo": 1485,
      "bm": 1486,
      "struc": 1487,
      "bjects": 1488,
      "Reason": 1489,
      "structure": 1490,
      "rastructure": 1491,
      "ach": 1492,
      "sition": 1493,
      "Gr": 1494,
      "07": 1495,
      "Plu": 1496,
      "Temp": 1497,
      "test": 1498,
      "Roll": 1499,
      "Ġby": 1500,
      "ensor": 1501,
      "Ġpro": 1502,
      "Acpd": 1503,
      "Mask": 1504,
      "Start": 1505,
      "ble": 1506,
      "Ph": 1507,
      "Crp": 1508,
      "Ġ--": 1509,
      "Ġ74": 1510,
      "LimEm": 1511,
      "Cal": 1512,
      "Ġmodule": 1513,
      "Time": 1514,
      "ĠNo": 1515,
      "06": 1516,
      "ehler": 1517,
      "QdmLef": 1518,
      "Plug": 1519,
      "Tfe": 1520,
      "Ko": 1521,
      "DmcTqfFfxy": 1522,
      "Sm": 1523,
      "SnsTfe": 1524,
      "Pec": 1525,
      "ĠCodifySignal": 1526,
      "ori": 1527,
      "IndMs": 1528,
      "ĠStatus": 1529,
      "Sec": 1530,
      "Src": 1531,
      "Driv": 1532,
      "Ġ78": 1533,
      "flow": 1534,
      "Pl": 1535,
      "maxIndex": 1536,
      "bug": 1537,
      "DCAC": 1538,
      "ĠCodifyEnumDataTypeStatus": 1539,
      "Ġ67": 1540,
      "Ffc": 1541,
      "Ped": 1542,
      "erung": 1543,
      "QdmAff": 1544,
      "Debug": 1545,
      "Ġ4": 1546,
      "Off": 1547,
      "wert": 1548,
      "Fil": 1549,
      "ys": 1550,
      "Ffs": 1551,
      "04": 1552,
      "DmcRsa": 1553,
      "DmcRsaFfs": 1554,
      "HV": 1555,
      "Sh": 1556,
      "Request": 1557,
      "form": 1558,
      "ton": 1559,
      "tc": 1560,
      "Tr": 1561,
      "fig": 1562,
      "Tc": 1563,
      "sym": 1564,
      "Fis": 1565,
      "Ġ77": 1566,
      "Ġposition": 1567,
      "ĠbitMask": 1568,
      "Rc": 1569,
      "po": 1570,
      "29": 1571,
      "Ġ81": 1572,
      "iti": 1573,
      "arge": 1574,
      "dition": 1575,
      "Drvg": 1576,
      "ING": 1577,
      "Sch": 1578,
      "ine": 1579,
      "ĠMAP": 1580,
      "Gnr": 1581,
      "Def": 1582,
      "Elma": 1583,
      "WcEtfFfc": 1584,
      "QdmElma": 1585,
      "kingBrake": 1586,
      "oriz": 1587,
      "05": 1588,
      "Value": 1589,
      "Horiz": 1590,
      "ke": 1591,
      "Level": 1592,
      "Agile": 1593,
      "DcrSfActGate": 1594,
      "ErrSrc": 1595,
      "Pitch": 1596,
      "onEnum": 1597,
      "SnsRc": 1598,
      "ToHoriz": 1599,
      "AngleToHoriz": 1600,
      "AngleToHorizonEnum": 1601,
      "Fw": 1602,
      "Dcy": 1603,
      "Map": 1604,
      "cnt": 1605,
      "Auto": 1606,
      "FZ": 1607,
      "DmcIndMs": 1608,
      "Proc": 1609,
      "Ġused": 1610,
      "ĠBMWhvcha": 1611,
      "Adas": 1612,
      "Monitoring": 1613,
      "declaration": 1614,
      "Vl": 1615,
      "DmcLsd": 1616,
      "hm": 1617,
      "AxLim": 1618,
      "Del": 1619,
      "very": 1620,
      "Ġim": 1621,
      "Ref": 1622,
      "ound": 1623,
      "LdpCrp": 1624,
      "Ccm": 1625,
      "andstill": 1626,
      "ication": 1627,
      "ww": 1628,
      "Cur": 1629,
      "signals": 1630,
      "23": 1631,
      "MAP": 1632,
      "itiali": 1633,
      "implicit": 1634,
      "manip": 1635,
      "Volt": 1636,
      "EH": 1637,
      "Ġdeclaration": 1638,
      "Wimplicit": 1639,
      "Ġimplicit": 1640,
      "Dcha": 1641,
      "PDU": 1642,
      "DcrTqp": 1643,
      "DcrSfAxLim": 1644,
      "dmc": 1645,
      "ĠVEC": 1646,
      "DmcTqzFbyInd": 1647,
      "Locking": 1648,
      "dmcptm": 1649,
      "Info": 1650,
      "Ġ72": 1651,
      "package": 1652,
      "EgoAccelerationLongitudinal": 1653,
      "HvStr": 1654,
      "Sit": 1655,
      "DCR": 1656,
      "Id": 1657,
      "facFA": 1658,
      "action": 1659,
      "DmcTql": 1660,
      "os": 1661,
      "Tqa": 1662,
      "LdpSfTqa": 1663,
      "Sum": 1664,
      "QdmElmaFw": 1665,
      "WcMscSpl": 1666,
      "Dg": 1667,
      "Dsc": 1668,
      "Chg": 1669,
      "aut": 1670,
      "yc": 1671,
      "ze": 1672,
      "Int": 1673,
      "Comp": 1674,
      "Pos": 1675,
      "DcuState": 1676,
      "DcuStateMonitoring": 1677,
      "ĠFunction": 1678,
      "Wi": 1679,
      "ature": 1680,
      "Ġ11": 1681,
      "Ġthat": 1682,
      "Ġvi": 1683,
      "51": 1684,
      "Ġ13": 1685,
      "ĠCodifyMap": 1686,
      "Lhm": 1687,
      "LhmEd": 1688,
      "val": 1689,
      "AK": 1690,
      "Eff": 1691,
      "Up": 1692,
      "EgoIn": 1693,
      "DcrTql": 1694,
      "manipparameters": 1695,
      "fu": 1696,
      "Resp": 1697,
      "ecution": 1698,
      "Schw": 1699,
      "Recu": 1700,
      "areal": 1701,
      "Inter": 1702,
      "Net": 1703,
      "own": 1704,
      "active": 1705,
      "Target": 1706,
      "dtqw": 1707,
      "gra": 1708,
      "Ay": 1709,
      "Ġ~~~~~~~~~~~~~~~^~~~~~~~~~~": 1710,
      "DcrCoding": 1711,
      "ExtFnc": 1712,
      "use": 1713,
      "Condition": 1714,
      "Ptl": 1715,
      "pping": 1716,
      "Ġset": 1717,
      "QdmMueExtFnc": 1718,
      "StatusEnum": 1719,
      "PtlNet": 1720,
      "CCU": 1721,
      "DmcTqzFbyFac": 1722,
      "HvComPtlNet": 1723,
      "HvComPtlNetCCU": 1724,
      "72": 1725,
      "LAD": 1726,
      "MueExt": 1727,
      "schal": 1728,
      "qls": 1729,
      "Calc": 1730,
      "03": 1731,
      "An": 1732,
      "Limits": 1733,
      "Lvl": 1734,
      "Loss": 1735,
      "Dat": 1736,
      "con": 1737,
      "PtmIn": 1738,
      "Bk": 1739,
      "binlcareal": 1740,
      "PmInPtm": 1741,
      "ag": 1742,
      "uration": 1743,
      "STAT": 1744,
      "des": 1745,
      "afe": 1746,
      "Fby": 1747,
      "tqc": 1748,
      "Is": 1749,
      "Axis": 1750,
      "ax": 1751,
      "Ġvia": 1752,
      "Smart": 1753,
      "ysi": 1754,
      "ĠNote": 1755,
      "Stop": 1756,
      "wn": 1757,
      "BrkOs": 1758,
      "DmcTqzFbyPd": 1759,
      "QdmWs": 1760,
      "DmcTqzCa": 1761,
      "End": 1762,
      "Ġco": 1763,
      "Ġso": 1764,
      "Raw": 1765,
      "HvChaSigIn": 1766,
      "Lif": 1767,
      "Acvn": 1768,
      "KS": 1769,
      "ysical": 1770,
      "secu": 1771,
      "Ġ76": 1772,
      "ange": 1773,
      "Dv": 1774,
      "MueHi": 1775,
      "Ġproperties": 1776,
      "Mu": 1777,
      "Ġ#/": 1778,
      "CK": 1779,
      "ply": 1780,
      "Ov": 1781,
      "Pth": 1782,
      "IG": 1783,
      "secure": 1784,
      "figuration": 1785,
      "MueLo": 1786,
      "bazel": 1787,
      "SnsAcpd": 1788,
      "rn": 1789,
      "WcSf": 1790,
      "Deact": 1791,
      "Cf": 1792,
      "ĠQuSteeringAngleWheel": 1793,
      "ĠCodifyEnumDataTypeQuSteeringAngleWheel": 1794,
      "**": 1795,
      "Ġrtb": 1796,
      "Obs": 1797,
      "utton": 1798,
      "HvChaSigOut": 1799,
      "Ġ88": 1800,
      "ĠVeh": 1801,
      "root": 1802,
      "Rq": 1803,
      "Per": 1804,
      "Fr": 1805,
      "Neg": 1806,
      "Run": 1807,
      "Far": 1808,
      "Interaction": 1809,
      "EAPC": 1810,
      "QdmEv": 1811,
      "ĠVehicle": 1812,
      "ere": 1813,
      "ĠEAPC": 1814,
      "ĠCodifyEnumDataTypeEAPC": 1815,
      "TO": 1816,
      "Element": 1817,
      "EP": 1818,
      "Wsc": 1819,
      "do": 1820,
      "Last": 1821,
      "ĠI": 1822,
      "Voltage": 1823,
      "Ġpackage": 1824,
      "Axl": 1825,
      "DmcTqfFfy": 1826,
      "DmcTqzTo": 1827,
      "turn": 1828,
      "Lin": 1829,
      "binlcass": 1830,
      "ĠCodifyParameterBM": 1831,
      "port": 1832,
      "autom": 1833,
      "Ack": 1834,
      "Bd": 1835,
      "AvlRea": 1836,
      "TqzLim": 1837,
      "Ġexecution": 1838,
      "ycle": 1839,
      "ĠFehler": 1840,
      "swi": 1841,
      "ĠCodifyAxis": 1842,
      "WcSfWs": 1843,
      "Button": 1844,
      "Of": 1845,
      "chritten": 1846,
      "ellwert": 1847,
      "Schwellwert": 1848,
      "Awd": 1849,
      "ecycle": 1850,
      "mapping": 1851,
      "ser": 1852,
      "ase": 1853,
      "PtmP": 1854,
      "SitDet": 1855,
      "Ġchar": 1856,
      "Mon": 1857,
      "Reach": 1858,
      "Cord": 1859,
      "mue": 1860,
      "Ġ/": 1861,
      "ResultLast": 1862,
      "Lifecycle": 1863,
      "ResultLastLifecycle": 1864,
      "Cdn": 1865,
      "Physical": 1866,
      "Ġdefined": 1867,
      "AKKS": 1868,
      "net": 1869,
      "ssi": 1870,
      "erating": 1871,
      "ssible": 1872,
      "240": 1873,
      "atform": 1874,
      "Standstill": 1875,
      "DcrDiagTst": 1876,
      "process": 1877,
      "Spd": 1878,
      "dd": 1879,
      "ont": 1880,
      "PhysicalLimits": 1881,
      "EL": 1882,
      "dy": 1883,
      "Ġ17": 1884,
      "Stg": 1885,
      "rent": 1886,
      "Drvr": 1887,
      "rite": 1888,
      "binary": 1889,
      "Reference": 1890,
      "Thd": 1891,
      "Ġr": 1892,
      "HvPth": 1893,
      "Wcif": 1894,
      "Odo": 1895,
      "On": 1896,
      "WcSfWsm": 1897,
      "Lt": 1898,
      "DcrInAdas": 1899,
      "automation": 1900,
      "LdpTqaDamp": 1901,
      "Unused": 1902,
      "appl": 1903,
      "DE": 1904,
      "Hdc": 1905,
      "UNG": 1906,
      "Dgra": 1907,
      "ĠAXY": 1908,
      "Comm": 1909,
      "syml": 1910,
      "step": 1911,
      "Eva": 1912,
      "Ġuse": 1913,
      "VEC": 1914,
      "packageElement": 1915,
      "SnsRes": 1916,
      "Cs": 1917,
      "AI": 1918,
      "Scx": 1919,
      "ConditionCheck": 1920,
      "PmInCmn": 1921,
      "ĠEx": 1922,
      "Lade": 1923,
      "Wish": 1924,
      "dl": 1925,
      "unication": 1926,
      "ta": 1927,
      "ApdM": 1928,
      "SnsSitDet": 1929,
      "ConditionCheckRead": 1930,
      "Tsc": 1931,
      "Ġ20240": 1932,
      "Abk": 1933,
      "MuWhl": 1934,
      "QdmBva": 1935,
      "ĠN": 1936,
      "LimTq": 1937,
      "DS": 1938,
      "Soe": 1939,
      "Ġfound": 1940,
      "ir": 1941,
      "Limitation": 1942,
      "tuator": 1943,
      "argeNot": 1944,
      "Communication": 1945,
      "aus": 1946,
      "vPar": 1947,
      "tet": 1948,
      "geschal": 1949,
      "geschaltet": 1950,
      "ĠTAB": 1951,
      "Tstr": 1952,
      "vx": 1953,
      "setz": 1954,
      "ĠDi": 1955,
      "ĠCodifyEnumDataTypeTAB": 1956,
      "ddad": 1957,
      "Gen": 1958,
      "Objects": 1959,
      "UT": 1960,
      "Quality": 1961,
      "Ġevery": 1962,
      "ĠQualifierFunction": 1963,
      "ĠCodifyEnumDataTypeQualifierFunction": 1964,
      "UnusedObjects": 1965,
      "UnusedObjectsCheck": 1966,
      "DcrSfTqzLim": 1967,
      "Setting": 1968,
      "Cmp": 1969,
      "Interface": 1970,
      "Dto": 1971,
      "wh": 1972,
      "Back": 1973,
      "Ġanywh": 1974,
      "Ġanywhere": 1975,
      "Ġcol": 1976,
      "work": 1977,
      "upp": 1978,
      "ql": 1979,
      "lides": 1980,
      "Ġcollides": 1981,
      "Possible": 1982,
      "brake": 1983,
      "Dly": 1984,
      "ann": 1985,
      "Front": 1986,
      "DmcTqzFbyFacDcy": 1987,
      "Lat": 1988,
      "519": 1989,
      "ParkingBrake": 1990,
      "Apply": 1991,
      "Fz": 1992,
      "ReasonEnum": 1993,
      "schargeNot": 1994,
      "ĠDischargeNot": 1995,
      "ĠDischargeNotPossible": 1996,
      "erature": 1997,
      "Snsr": 1998,
      "tup": 1999,
      "....": 2000,
      "older": 2001,
      "Dz": 2002,
      "ix": 2003,
      "WER": 2004,
      "one": 2005,
      "ors": 2006,
      "erk": 2007,
      "EmAct": 2008,
      "ĠdPAR": 2009,
      "fm": 2010,
      "app": 2011,
      "Ġ90": 2012,
      "LdpV": 2013,
      "tic": 2014,
      "Setup": 2015,
      "ĠAgile": 2016,
      "DcCha": 2017,
      "onent": 2018,
      "LdpVSp": 2019,
      "Infrastructure": 2020,
      "Ġ20240519": 2021,
      "MSetup": 2022,
      "MSetupSetting": 2023,
      "Pv": 2024,
      "He": 2025,
      "rv": 2026,
      "tial": 2027,
      "Do": 2028,
      "Tns": 2029,
      "Tnsd": 2030,
      "iu": 2031,
      "tqz": 2032,
      "Sa": 2033,
      "ĠPar": 2034,
      "Me": 2035,
      "AND": 2036,
      "Ru": 2037,
      "TqLim": 2038,
      "read": 2039,
      "EgoSafe": 2040,
      "Psi": 2041,
      "If": 2042,
      "Dsm": 2043,
      "Runn": 2044,
      "LimPwr": 2045,
      "idx": 2046,
      "est": 2047,
      "Ro": 2048,
      "EPS": 2049,
      "DcrAvlReaErrSrc": 2050,
      "Fade": 2051,
      "Plau": 2052,
      "Return": 2053,
      "Ht": 2054,
      "OM": 2055,
      "ache": 2056,
      "Grad": 2057,
      "LE": 2058,
      "CoCptHvs": 2059,
      "Li": 2060,
      "Write": 2061,
      "Test": 2062,
      "With": 2063,
      "MOD": 2064,
      "QdmOdo": 2065,
      "Message": 2066,
      "lean": 2067,
      "vice": 2068,
      "QdmKo": 2069,
      "cache": 2070,
      "QdmAktHsr": 2071,
      "Flm": 2072,
      "Vlv": 2073,
      "frastructure": 2074,
      "and": 2075,
      "UE": 2076,
      "msBr": 2077,
      "ustom": 2078,
      "Ġ^~~~~~~~~~~~~~~~~~~~~~~~~~~~": 2079,
      "QdmFlm": 2080,
      "DmcScx": 2081,
      "Ġunused": 2082,
      "Output": 2083,
      "adS": 2084,
      "Cfg": 2085,
      "Sw": 2086,
      "WcEtfSum": 2087,
      "sensor": 2088,
      "LIN": 2089,
      "facRA": 2090,
      "bmw": 2091,
      "ree": 2092,
      "Filt": 2093,
      "HE": 2094,
      "ustomer": 2095,
      "Temperature": 2096,
      "ertical": 2097,
      "etr": 2098,
      "Dist": 2099,
      "DmcKcxAccFa": 2100,
      "LdpTqaDes": 2101,
      "lx": 2102,
      "binlx": 2103,
      "Actual": 2104,
      "TIV": 2105,
      "Ġwritten": 2106,
      "Ġmodules": 2107,
      "HP": 2108,
      "aktiv": 2109,
      "workflow": 2110,
      "ca": 2111,
      "WriteData": 2112,
      "Drivetr": 2113,
      "Drivetrain": 2114,
      "Ġup": 2115,
      "FrontAxle": 2116,
      "eral": 2117,
      "Ġobjects": 2118,
      "oV": 2119,
      "Ġclean": 2120,
      "Reached": 2121,
      "aste": 2122,
      "Ġwaste": 2123,
      "Ġresources": 2124,
      "Ori": 2125,
      "Lateral": 2126,
      "ĠDisplay": 2127,
      "ĠInfrastructure": 2128,
      "ĠCustomer": 2129,
      "ĠChargingResultLastLifecycle": 2130,
      "ĠCustomerInteraction": 2131,
      "Running": 2132,
      "Mix": 2133,
      "Cons": 2134,
      "MixVlv": 2135,
      "Ġpar": 2136,
      "ĠCodifyEnumDataTypeC": 2137,
      "ĠUn": 2138,
      "ĠinputRef": 2139,
      "ReferenceCheck": 2140,
      "OutputReferenceCheck": 2141,
      "stamp": 2142,
      "LdpSsp": 2143,
      "Over": 2144,
      "Ġme": 2145,
      "kation": 2146,
      "DynStg": 2147,
      "ĠRunning": 2148,
      "DmcTqrGra": 2149,
      "Delta": 2150,
      "ifest": 2151,
      "pre": 2152,
      "Ġas": 2153,
      "zation": 2154,
      "Ġ^~~~~~~~~~~~~~~~~~~~~~~~~~~~~~~~~~~~": 2155,
      "Timestamp": 2156,
      "gomotion": 2157,
      "sensors": 2158,
      "Ġsystem": 2159,
      "tim": 2160,
      "platform": 2161,
      "secured": 2162,
      "verflow": 2163,
      "atat": 2164,
      "Overflow": 2165,
      "LdpLvgTar": 2166,
      "aw": 2167,
      "ift": 2168,
      "Tri": 2169,
      "Nan": 2170,
      "bl": 2171,
      "execroot": 2172,
      "Current": 2173,
      "oSec": 2174,
      "Yaw": 2175,
      "Ġoverflow": 2176,
      "Egomotion": 2177,
      "TimestampEgomotion": 2178,
      "OverflowEnum": 2179,
      "NanoSec": 2180,
      "TimestampEgomotionNanoSec": 2181,
      "TimestampEgomotionNanoSecOverflowEnum": 2182,
      "Sys": 2183,
      "ĠCodifyAxisAXX": 2184,
      "near": 2185,
      "VehMode": 2186,
      "Ġ^~~~~~~~~~~~~~~~~~~~~~~~~~~": 2187,
      "Ib": 2188,
      "deg": 2189,
      "definition": 2190,
      "HDC": 2191,
      "inlc": 2192,
      "degree": 2193,
      "Near": 2194,
      "Dir": 2195,
      "range": 2196,
      "SteeringWheel": 2197,
      "WcCa": 2198,
      "LateralCog": 2199,
      "ans": 2200,
      "Vertical": 2201,
      "lower": 2202,
      "entation": 2203,
      "ToRo": 2204,
      "EgoSpeedCogEnum": 2205,
      "ingEff": 2206,
      "ective": 2207,
      "faceEnum": 2208,
      "standstill": 2209,
      "urfaceEnum": 2210,
      "ĠQuEgoAcceleration": 2211,
      "ĠQuRoll": 2212,
      "ĠQuPitch": 2213,
      "ĠCodifyEnumDataTypeQuEgoAcceleration": 2214,
      "ĠCodifyEnumDataTypeQuRoll": 2215,
      "ĠCodifyEnumDataTypeQuPitch": 2216,
      "VehicleBodyOri": 2217,
      "SteeringAngleSteeringWheel": 2218,
      "ResultingEff": 2219,
      "EgoSpeedLongitudinal": 2220,
      "EgoSpeedNear": 2221,
      "EgoAccelerationLongitudinalCogEnum": 2222,
      "StandstillEnum": 2223,
      "BackAxle": 2224,
      "adSurfaceEnum": 2225,
      "FrontAxleEnum": 2226,
      "YawRateVehicleBodyEnum": 2227,
      "VerticalCogEnum": 2228,
      "entationToRo": 2229,
      "ectiveEnum": 2230,
      "VehicleBodyOrientationToRo": 2231,
      "SteeringAngleSteeringWheelEnum": 2232,
      "ResultingEffectiveEnum": 2233,
      "EgoSpeedLongitudinalEnum": 2234,
      "EgoSpeedNearStandstillEnum": 2235,
      "VehicleBodyOrientationToRoadSurfaceEnum": 2236,
      "DmcTqzFbyErr": 2237,
      "DsRaw": 2238,
      "EgoW": 2239,
      "System": 2240,
      "Pi": 2241,
      "Tqx": 2242,
      "Ġ07": 2243,
      "ols": 2244,
      "Power": 2245,
      "ĠGenerator": 2246,
      "ecksetz": 2247,
      "Mot": 2248,
      "clic": 2249,
      "PlugLocking": 2250,
      "Poi": 2251,
      "point": 2252,
      "ĠImport": 2253,
      "EgoInWr": 2254,
      "ĠImporting": 2255,
      "ĠNexus": 2256,
      "Fcs": 2257,
      "porting": 2258,
      "ĠExporting": 2259,
      "SmartAct": 2260,
      "Ġy": 2261,
      "DmcTqzFbyIndTc": 2262,
      "pad": 2263,
      "DynEva": 2264,
      "Sk": 2265,
      "yclic": 2266,
      "msEm": 2267,
      "Ġ~~~~~~~~~~~~": 2268,
      "wire": 2269,
      "DmcKcxAccRa": 2270,
      "diness": 2271,
      "DcrAvlReaReq": 2272,
      "Ġ~~^~~~": 2273,
      "bers": 2274,
      "DcrAvlMgrAcvn": 2275,
      "DcrAvlMgrAcvnCdn": 2276,
      "shift": 2277,
      "PlugLockingDCAC": 2278,
      "DcrCfg": 2279,
      "BW": 2280,
      "Ġcyclic": 2281,
      "Be": 2282,
      "Stgy": 2283,
      "no": 2284,
      "LdpSfLvg": 2285,
      "oot": 2286,
      "ĠWARNING": 2287,
      "ĠCodifyParameterBMWhvcha": 2288,
      "Ġ^~~~~~~~~~~~~~~~~~~~~~~~": 2289,
      "Post": 2290,
      "CoCptHP": 2291,
      "yMo": 2292,
      "AS": 2293,
      "Main": 2294,
      "IbSmartAct": 2295,
      "1225": 2296,
      "Fcr": 2297,
      "QdmBam": 2298,
      "PecCha": 2299,
      "DyMo": 2300,
      "Ġ75": 2301,
      "SfSbw": 2302,
      "its": 2303,
      "wp": 2304,
      "ĠStCluGbu": 2305,
      "QdmLeFModel": 2306,
      "Supp": 2307,
      "lec": 2308,
      "igh": 2309,
      "DcrSfActIn": 2310,
      "ane": 2311,
      "Ui": 2312,
      "ĠSyMLs": 2313,
      "DcrAvlReaErrSrcDbg": 2314,
      "ĠChargingInfrastructure": 2315,
      "ĠDischargeNotPossibleIn": 2316,
      "ĠChargingInfrastructureLimitation": 2317,
      "plook": 2318,
      "ph": 2319,
      "bc": 2320,
      "ight": 2321,
      "Ewp": 2322,
      "ĠSH": 2323,
      "Cell": 2324,
      "DrvDat": 2325,
      "DampDes": 2326,
      "DmcKcxDec": 2327,
      "be": 2328,
      "IS": 2329,
      "Cl": 2330,
      "ĠInitiali": 2331,
      "Ġvalue": 2332,
      "Uw": 2333,
      "dwn": 2334,
      "Uwb": 2335,
      "Ruecksetz": 2336,
      "ĠCodifyEnumDataTypeCharging": 2337,
      "WcEtfManip": 2338,
      "VMax": 2339,
      "Sht": 2340,
      "Shtdwn": 2341,
      "MD": 2342,
      "DscEnum": 2343,
      "down": 2344,
      "Sts": 2345,
      "inactive": 2346,
      "celeration": 2347,
      "Zfm": 2348,
      "msModel": 2349,
      "ShtdwnSwi": 2350,
      "target": 2351,
      "py": 2352,
      "STE": 2353,
      "mb": 2354,
      "ĠCodifyMapMAP": 2355,
      "Ġ^~~~~~~~~~~~~~~~~~~~~~~~~~~~~~": 2356,
      "Rel": 2357,
      "Asc": 2358,
      "rct": 2359,
      "Ġnon": 2360,
      "Ġep": 2361,
      "AutoH": 2362,
      "Ġshort": 2363,
      "Dest": 2364,
      "WcEtfDeact": 2365,
      "EgoDyMo": 2366,
      "asi": 2367,
      "MODUS": 2368,
      "rea": 2369,
      "Code": 2370,
      "QdmMs": 2371,
      "Que": 2372,
      "ld": 2373,
      "enk": 2374,
      "Diagn": 2375,
      "Rls": 2376,
      "Cif": 2377,
      "Ġ^~~~~~~~~~~~~~~~~~~~~~~~~~": 2378,
      "Deceleration": 2379,
      "HvChaIn": 2380,
      "AkksTstr": 2381,
      "Cp": 2382,
      "NoGra": 2383,
      "NoGrav": 2384,
      "Diff": 2385,
      "RqAwd": 2386,
      "~~~~~": 2387,
      "rift": 2388,
      "iolis": 2389,
      "ityNo": 2390,
      "Coriolis": 2391,
      "EgoAccelerationLongitudinalNoGrav": 2392,
      "QueEgoAccelerationLongitudinalNoGrav": 2393,
      "ityNoCoriolis": 2394,
      "QueEgoAccelerationLongitudinalNoGravityNoCoriolis": 2395,
      "QueEgoAccelerationLongitudinalNoGravityNoCoriolisEnum": 2396,
      "Pred": 2397,
      "Bo": 2398,
      "PmInLhmEd": 2399,
      "QD": 2400,
      "tqwRA": 2401,
      "Mass": 2402,
      "Warn": 2403,
      "Es": 2404,
      "Estim": 2405,
      "CS": 2406,
      "Ġ^~~~~~~~~~~~~~~~~~~~~~~~~~~~~~~~": 2407,
      "tqwFA": 2408,
      "Fds": 2409,
      "Pedal": 2410,
      "RequestResult": 2411,
      "Real": 2412,
      "enz": 2413,
      "Ofs": 2414,
      "tPro": 2415,
      "Ar": 2416,
      "Perc": 2417,
      "Grd": 2418,
      "Prog": 2419,
      "RequestResults": 2420,
      "Pdc": 2421,
      "EgoMobsMuWhl": 2422,
      "Spline": 2423,
      "QdmLefTsc": 2424,
      "Estimator": 2425,
      "rtb": 2426,
      "QdmQeiEstimator": 2427,
      "Process": 2428,
      "Drp": 2429,
      "Ser": 2430,
      "Accr": 2431,
      "PciCord": 2432,
      "rear": 2433,
      "actuator": 2434,
      "Dk": 2435,
      "Pri": 2436,
      "DmcPaManip": 2437,
      "ait": 2438,
      "Fx": 2439,
      "HVIL": 2440,
      "qlsst": 2441,
      "Prk": 2442,
      "__": 2443,
      "ĠBMWcif": 2444,
      "vol": 2445,
      "ho": 2446,
      "ZE": 2447,
      "uch": 2448,
      "PecChaResp": 2449,
      "utdown": 2450,
      "DcrInUi": 2451,
      "ENDE": 2452,
      "DT": 2453,
      "but": 2454,
      "QDM": 2455,
      "ategy": 2456,
      "LADEN": 2457,
      "HvComPtlNetCCUSig": 2458,
      "LADE": 2459,
      "terer": 2460,
      "ABK": 2461,
      "DmcTqzToTqx": 2462,
      "Dynamic": 2463,
      "ĠU": 2464,
      "DmcTqfCs": 2465,
      "Rdy": 2466,
      "File": 2467,
      "elf": 2468,
      "tp": 2469,
      "ypoint": 2470,
      "QdmBs": 2471,
      "Reset": 2472,
      "ostic": 2473,
      "mple": 2474,
      "BdB": 2475,
      "asil": 2476,
      "bere": 2477,
      "fre": 2478,
      "Hex": 2479,
      "Man": 2480,
      "Percent": 2481,
      "ready": 2482,
      "erator": 2483,
      "ternal": 2484,
      "Dds": 2485,
      "Rt": 2486,
      "Dcdc": 2487,
      "gen": 2488,
      "xLIN": 2489,
      "Jerk": 2490,
      "Percentage": 2491,
      "ĠCodifyEnumDataTypeParkingBrake": 2492,
      "ĠParkingBrake": 2493,
      "onse": 2494,
      "key": 2495,
      "SaE": 2496,
      "ĠSensor": 2497,
      "Heart": 2498,
      "ChargingEnd": 2499,
      "DO": 2500,
      "Sl": 2501,
      "Prol": 2502,
      "too": 2503,
      "Accelerator": 2504,
      "HdcEnum": 2505,
      "ausgeschaltet": 2506,
      "ActualPercentage": 2507,
      "AscEnum": 2508,
      "PedalEnum": 2509,
      "AcceleratorPedalEnum": 2510,
      "ActualPercentageAcceleratorPedalEnum": 2511,
      "LdpLvgTarCtrl": 2512,
      "Prc": 2513,
      "bo": 2514,
      "1017": 2515,
      "aiting": 2516,
      "strategy": 2517,
      "ĠWaiting": 2518,
      "Frct": 2519,
      "Filter": 2520,
      "STATUS": 2521,
      "Diagnostic": 2522,
      "Ava": 2523,
      "ikation": 2524,
      "Chgr": 2525,
      "java": 2526,
      "QdmAaepsEPS": 2527,
      "QdmAaepsEPSAuto": 2528,
      "Cbl": 2529,
      "output": 2530,
      "Evse": 2531,
      "ĠCodifyMapCRV": 2532,
      "All": 2533,
      "erer": 2534,
      "Configuration": 2535,
      "Ġ5": 2536,
      "EgoSens": 2537,
      "PtmPDist": 2538,
      "hind": 2539,
      "zifi": 2540,
      "sspe": 2541,
      "verhind": 2542,
      "scher": 2543,
      "applikation": 2544,
      "Ruecksetzverhind": 2545,
      "ĠSensorapplikation": 2546,
      "zifischer": 2547,
      "sspezifischer": 2548,
      "Ruecksetzverhinderer": 2549,
      "ĠSensorapplikationsspezifischer": 2550,
      "berer": 2551,
      "Ġbeen": 2552,
      "SnsMass": 2553,
      "Sx": 2554,
      "com": 2555,
      "oVA": 2556,
      "Fk": 2557,
      "Charge": 2558,
      "Ġ~~~~~~~~~~~~~~": 2559,
      "volf": 2560,
      "ZffSaE": 2561,
      "DynEvaLvl": 2562,
      "cy": 2563,
      "AxcAI": 2564,
      "Shutdown": 2565,
      "Dstr": 2566,
      "Ġ^~~~~~~~~~~~~~~~~~~~~~~": 2567,
      "DmcWcAuxStiffAcc": 2568,
      "Ein": 2569,
      "Volf": 2570,
      "Pnet": 2571,
      "78": 2572,
      "AxcFs": 2573,
      "DmcLse": 2574,
      "Ets": 2575,
      "ĠCodifyParameterVEC": 2576,
      "ts": 2577,
      "ĠEn": 2578,
      "Port": 2579,
      "Ġdeployment": 2580,
      "79": 2581,
      "Prio": 2582,
      "Sfty": 2583,
      "~~~~~~~~~": 2584,
      "DmcWcAuxStiffDec": 2585,
      "activ": 2586,
      "Trig": 2587,
      "ReturnValue": 2588,
      "MDrift": 2589,
      "tools": 2590,
      "CurrentControl": 2591,
      "Ġexist": 2592,
      "Ġkey": 2593,
      "folder": 2594,
      "EgoSteaInit": 2595,
      "Vld": 2596,
      "BMW": 2597,
      "sx": 2598,
      "DTE": 2599,
      "plinlc": 2600,
      "Fehler": 2601,
      "THE": 2602,
      "ressor": 2603,
      "Compressor": 2604,
      "lecCompressor": 2605,
      "DTElecCompressor": 2606,
      "ONE": 2607,
      "unters": 2608,
      ":\\": 2609,
      "cket": 2610,
      "HvPtm": 2611,
      "Rl": 2612,
      "DmcTqfRqAwd": 2613,
      "Posn": 2614,
      "Ġ82": 2615,
      "Ġ~~~~~~~~~~~~~~^~~~~~~~~": 2616,
      "ChgPlugLockingDCAC": 2617,
      "HO": 2618,
      "pdate": 2619,
      "ActManipVal": 2620,
      "ADAP": 2621,
      "ADAPTIV": 2622,
      "ask": 2623,
      "DI": 2624,
      "Rst": 2625,
      "uebers": 2626,
      "DcrAvlReaLimTq": 2627,
      "unterschritten": 2628,
      "ueberschritten": 2629,
      "DmcTqMod": 2630,
      "DB": 2631,
      "LO": 2632,
      "DRL": 2633,
      "LCK": 2634,
      "ĠLade": 2635,
      "ChargingPot": 2636,
      "ButtonChargingPot": 2637,
      "DRLCK": 2638,
      "LCKD": 2639,
      "fr": 2640,
      "Socket": 2641,
      "atible": 2642,
      "DcrCodingCmn": 2643,
      "Ġ10": 2644,
      "AccrSnsr": 2645,
      "LdpTqaDampNeg": 2646,
      "compatible": 2647,
      "ven": 2648,
      "Ġyo": 2649,
      "yu": 2650,
      "Deta": 2651,
      "Detail": 2652,
      "Station": 2653,
      "ChargingTarget": 2654,
      "ChargingStop": 2655,
      "ChargingStation": 2656,
      "ConStatusEnum": 2657,
      "PreConStatusEnum": 2658,
      "ReasonChargingEnd": 2659,
      "zationDetail": 2660,
      "WarnPreConStatusEnum": 2661,
      "ChargingTargetReached": 2662,
      "ReasonChargingEndEnum": 2663,
      "zationDetailStatusEnum": 2664,
      "ActManipSwi": 2665,
      "QdmElmaFwExt": 2666,
      "URE": 2667,
      "Ġ86": 2668,
      "basi": 2669,
      "gt": 2670,
      "Hys": 2671,
      "LdpDsm": 2672,
      "urce": 2673,
      "DmcLtp": 2674,
      "lect": 2675,
      "0949": 2676,
      "Ass": 2677,
      "Adap": 2678,
      "QdmKooVA": 2679,
      "ĠMAT": 2680,
      "Meas": 2681,
      "PreProc": 2682,
      ">/": 2683,
      "ChargingError": 2684,
      "wear": 2685,
      "Vsy": 2686,
      "Ġ^~~~~~~~~~~~~~~~~~~~~~~~~~~~~~~": 2687,
      "Tqw": 2688,
      "iel": 2689,
      "Dtc": 2690,
      "sierung": 2691,
      "HvChaOut": 2692,
      "QdmSk": 2693,
      "Ġ2024": 2694,
      "Hill": 2695,
      "Aco": 2696,
      "DcrInBr": 2697,
      "Ġdata": 2698,
      "stract": 2699,
      "Abstract": 2700,
      "annung": 2701,
      "DmcTqzFbyErrPd": 2702,
      "Dt": 2703,
      "LdpSscState": 2704,
      "ide": 2705,
      "MP": 2706,
      "Kon": 2707,
      "ATI": 2708,
      "Adj": 2709,
      "eber": 2710,
      "sit": 2711,
      "DcrSfTqzLimB": 2712,
      "Release": 2713,
      "Ġextr": 2714,
      "Cns": 2715,
      "Cw": 2716,
      "Tm": 2717,
      "deli": 2718,
      "LdpCrpTq": 2719,
      "EgoWtc": 2720,
      "delivery": 2721,
      "StatusCharging": 2722,
      "ME": 2723,
      "Component": 2724,
      "ĠUeber": 2725,
      "aas": 2726,
      "Ġ96": 2727,
      "lock": 2728,
      "VEH": 2729,
      "Df": 2730,
      "DmcTqzFfyDyn": 2731,
      "ĠSetCharging": 2732,
      "ĠCodifyEnumDataTypeDisplay": 2733,
      "VoltageLevel": 2734,
      "ĠWaitingFor": 2735,
      "ConfigurationVoltageLevel": 2736,
      "ĠSetChargingConfigurationVoltageLevel": 2737,
      "Ġoutput": 2738,
      "Reas": 2739,
      "BE": 2740,
      "Stim": 2741,
      "LdpLvgStim": 2742,
      "Iso": 2743,
      "LdpPot": 2744,
      "Koor": 2745,
      "DmcTqzFfyd": 2746,
      "PmInHvStr": 2747,
      "CN": 2748,
      "Dn": 2749,
      "Ne": 2750,
      "Abs": 2751,
      "Opm": 2752,
      "DcrInEgo": 2753,
      "DmcWcAuxSpline": 2754,
      "DmcTqzToKcx": 2755,
      "Oberer": 2756,
      "ave": 2757,
      "Cable": 2758,
      "WcMscPar": 2759,
      "LdpDto": 2760,
      "ption": 2761,
      "lftf": 2762,
      "Ġ^~~~~~~~~~~~~~~~~~~~~~~~~~~~~~~~~~~~~": 2763,
      "Dac": 2764,
      "DmcTqzDac": 2765,
      "AffMDrift": 2766,
      "vtr": 2767,
      "Ġ87": 2768,
      "ManipEna": 2769,
      "HvsEnum": 2770,
      "ControlMessage": 2771,
      "ome": 2772,
      "Ip": 2773,
      "67": 2774,
      "ĠH": 2775,
      "Bom": 2776,
      "SIL": 2777,
      "Vor": 2778,
      "Ġcom": 2779,
      "DispSoe": 2780,
      "SnsDir": 2781,
      "TqLimEm": 2782,
      "Ffxy": 2783,
      "High": 2784,
      "Dm": 2785,
      "PtmPDistCons": 2786,
      "Sens": 2787,
      "CurrentControlPhysicalLimits": 2788,
      "phase": 2789,
      "ariable": 2790,
      "mat": 2791,
      "whe": 2792,
      "grenz": 2793,
      "****": 2794,
      "grenzung": 2795,
      "wheel": 2796,
      "DsSf": 2797,
      "ATION": 2798,
      "DrvgRes": 2799,
      "LimMax": 2800,
      "Park": 2801,
      "Ġprovi": 2802,
      "Fault": 2803,
      "LimMo": 2804,
      "Select": 2805,
      "Hdl": 2806,
      "AccRecu": 2807,
      "ient": 2808,
      "properties": 2809,
      "Na": 2810,
      "Wrong": 2811,
      "Cd": 2812,
      "lin": 2813,
      "igen": 2814,
      "Cdng": 2815,
      "resh": 2816,
      "Derating": 2817,
      "Mdl": 2818,
      "ĠDischargeNotPossibleIncompatible": 2819,
      "ĠChargingInfrastructureLimitationWrong": 2820,
      "ChargingErrorReasonEnum": 2821,
      "DeratingReasonEnum": 2822,
      "ecut": 2823,
      "Ġrun": 2824,
      "Class": 2825,
      "Delay": 2826,
      "DrDm": 2827,
      "DmcTqzVsy": 2828,
      "input": 2829,
      "QdmLefPdc": 2830,
      "Nav": 2831,
      "PxLIN": 2832,
      "osar": 2833,
      "Bat": 2834,
      "iled": 2835,
      "ĠvPar": 2836,
      "Ġ^~~~~~~~~~~~~~~~~~~~~~~~~~~~~~~~~~~": 2837,
      "lung": 2838,
      "uct": 2839,
      "Mile": 2840,
      "DfIf": 2841,
      "LimGnr": 2842,
      "AccelerationLevel": 2843,
      "ĠAgileDeceleration": 2844,
      "ĠAgileAccelerationLevel": 2845,
      "ĠAgileDecelerationLevel": 2846,
      "Osc": 2847,
      "Osci": 2848,
      "Unterer": 2849,
      "Switch": 2850,
      "HvComPtlNetCCUSigIn": 2851,
      "leton": 2852,
      "aneous": 2853,
      "ergen": 2854,
      "Emergen": 2855,
      "Emergency": 2856,
      "Ġ>": 2857,
      "ĠCoCpt": 2858,
      "ory": 2859,
      "MV": 2860,
      "itted": 2861,
      "ermitted": 2862,
      "Ġ~~~~~": 2863,
      "enkung": 2864,
      "CpTst": 2865,
      "Ġpermitted": 2866,
      "Ġextraneous": 2867,
      "Ġ^~~~~~~~~~~~~~~~~~~~~~": 2868,
      "Vi": 2869,
      "tivi": 2870,
      "Srv": 2871,
      "erte": 2872,
      "stance": 2873,
      "Ġyou": 2874,
      "Amb": 2875,
      "RI": 2876,
      "MaxRng": 2877,
      "fuell": 2878,
      "Actr": 2879,
      "RO": 2880,
      "ErrHdl": 2881,
      "Active": 2882,
      "Htr": 2883,
      "Drive": 2884,
      "alle": 2885,
      "PtmLim": 2886,
      "ientTemperature": 2887,
      "Thr": 2888,
      "LL": 2889,
      "AmbientTemperature": 2890,
      "Laeps": 2891,
      "98": 2892,
      "IR": 2893,
      "Eng": 2894,
      "Processing": 2895,
      "........": 2896,
      "Mileage": 2897,
      "Pbc": 2898,
      "ĠePbc": 2899,
      "Ġdatat": 2900,
      "Ġdatatype": 2901,
      "pool": 2902,
      "raenkung": 2903,
      "schraenkung": 2904,
      "edAmbientTemperature": 2905,
      "DmcWcAuxLim": 2906,
      "FilteredAmbientTemperature": 2907,
      "Ġ~~^~~~~~": 2908,
      "Ġhave": 2909,
      "EtmcEwp": 2910,
      "Ġst": 2911,
      "Ovb": 2912,
      "STATE": 2913,
      "Copl": 2914,
      "Rfu": 2915,
      "ZfmFz": 2916,
      "Slc": 2917,
      "WcEtfSlc": 2918,
      "ANZE": 2919,
      "ANZEIG": 2920,
      "PnetReq": 2921,
      "psi": 2922,
      "ented": 2923,
      "TqWish": 2924,
      "TqWishDstr": 2925,
      "Maxim": 2926,
      "EtmcVolf": 2927,
      "Flp": 2928,
      "ypoints": 2929,
      "EtmcVolfMdl": 2930,
      "application": 2931,
      "fv": 2932,
      "ApdMSec": 2933,
      "OK": 2934,
      "quest": 2935,
      "Ty": 2936,
      "Gbr": 2937,
      "WcRt": 2938,
      "DtPlau": 2939,
      "lfy": 2940,
      "NAL": 2941,
      "FisErr": 2942,
      "Pmp": 2943,
      "WN": 2944,
      "DispSptInfo": 2945,
      "Dobs": 2946,
      "erb": 2947,
      "QdmLaeps": 2948,
      "LdpSscTnsd": 2949,
      "EgoInit": 2950,
      "HVS": 2951,
      "ign": 2952,
      "Ġremo": 2953,
      "SmartCharging": 2954,
      "Strom": 2955,
      "Ġdid": 2956,
      "Opt": 2957,
      "Ġmean": 2958,
      "ford": 2959,
      "ORT": 2960,
      "ANZEIGE": 2961,
      "EV": 2962,
      "WERTE": 2963,
      "end": 2964,
      "Dtqw": 2965,
      "wDsc": 2966,
      "Ovw": 2967,
      "SnsDtPlau": 2968,
      "Bu": 2969,
      "Thresh": 2970,
      "PmOutFAR": 2971,
      "Dom": 2972,
      "TER": 2973,
      "DcrAvlMgrDsRaw": 2974,
      "DcrAvlMgrCw": 2975,
      "all": 2976,
      "Phi": 2977,
      "ĠInitialisierung": 2978,
      "Reg": 2979,
      "68": 2980,
      "NotAvl": 2981,
      "CoPmp": 2982,
      "ElCoPmp": 2983,
      "anifest": 2984,
      "drive": 2985,
      "CIR": 2986,
      "DUE": 2987,
      "CUIT": 2988,
      "UTDO": 2989,
      "ĠSHUTDO": 2990,
      "CIRCUIT": 2991,
      "ĠSHUTDOWN": 2992,
      "PedProg": 2993,
      "guide": 2994,
      "Ddy": 2995,
      "DmcRsaFfsDdy": 2996,
      "Lnc": 2997,
      "DmcTqzFbyBdB": 2998,
      "LncCtl": 2999,
      "domain": 3000,
      "lfyu": 3001,
      "AxleTqWishDstr": 3002,
      "orm": 3003,
      "DmcWcAuxDz": 3004,
      "Cod": 3005,
      "BrkLi": 3006,
      "definitions": 3007,
      "DcrAvlReaReqFcr": 3008,
      "Ġdefault": 3009,
      "Ġ~~~~~~~~~": 3010,
      "Ġ~~~~~~~~~^~~~~~~~~": 3011,
      "Ġprovided": 3012,
      "Ka": 3013,
      "DmcTqrGraCalc": 3014,
      "basic": 3015,
      "Auth": 3016,
      "del": 3017,
      "PO": 3018,
      "71": 3019,
      "Fast": 3020,
      "ChargingDisplay": 3021,
      "SIG": 3022,
      "ĠAg": 3023,
      "Update": 3024,
      "WS": 3025,
      "AG": 3026,
      "han": 3027,
      "speed": 3028,
      "Ġ//": 3029,
      "keine": 3030,
      "Properties": 3031,
      "ast": 3032,
      "Qc": 3033,
      "DcrAvlMgrQc": 3034,
      "zeit": 3035,
      "Speed": 3036,
      "QdmAaepsModel": 3037,
      "KwDsc": 3038,
      "allel": 3039,
      "Trans": 3040,
      "Support": 3041,
      "omati": 3042,
      "Acce": 3043,
      "base": 3044,
      "SET": 3045,
      "per": 3046,
      "Rem": 3047,
      "gi": 3048,
      "Ivtr": 3049,
      "PI": 3050,
      "LK": 3051,
      "QdmMuePv": 3052,
      "Ġ^~~~~~~~~~~~~~~~~~~": 3053,
      "Ġser": 3054,
      "ults": 3055,
      "Ġvariable": 3056,
      "Ġexecut": 3057,
      "Ġ83": 3058,
      "ĠStandstill": 3059,
      "66": 3060,
      "Slip": 3061,
      "Ġexplicit": 3062,
      "gnor": 3063,
      "LdpTqcDrvr": 3064,
      "Asil": 3065,
      "ERR": 3066,
      "real": 3067,
      "Offs": 3068,
      "wc": 3069,
      "LdpLvgLim": 3070,
      "ĠTimestampEgomotionNanoSecOverflowEnum": 3071,
      "ĠCodifyEnumDataTypeTimestampEgomotionNanoSecOverflowEnum": 3072,
      "intertial": 3073,
      "Ġ91": 3074,
      "ost": 3075,
      "Shdn": 3076,
      "wo": 3077,
      "Ġboot": 3078,
      "Dsymphony": 3079,
      "cntFA": 3080,
      "workflowProperties": 3081,
      "Ġparallel": 3082,
      "Ġ93": 3083,
      "conn": 3084,
      "Ġexecutors": 3085,
      "vor": 3086,
      "way": 3087,
      "Loc": 3088,
      "opm": 3089,
      "Response": 3090,
      "Ep": 3091,
      "Trt": 3092,
      "DmcTqzFfyDtqw": 3093,
      "aTest": 3094,
      "apaTest": 3095,
      "rd": 3096,
      "oder": 3097,
      "DcrAvlReaDynEvaLvl": 3098,
      "DmcTqfFfxyDv": 3099,
      "DcrInHvs": 3100,
      "Stor": 3101,
      "service": 3102,
      "Domain": 3103,
      "Limn": 3104,
      "ĠQuEgoSpeedCogEnum": 3105,
      "ĠQuEgoAccelerationLongitudinalCogEnum": 3106,
      "ĠQuYawRateVehicleBodyEnum": 3107,
      "ĠQuSteeringAngleSteeringWheelEnum": 3108,
      "ĠQuEgoSpeedLongitudinalEnum": 3109,
      "ĠQuVehicleBodyOrientationToRoadSurfaceEnum": 3110,
      "ĠCodifyEnumDataTypeQuEgoSpeedCogEnum": 3111,
      "ĠCodifyEnumDataTypeQuEgoAccelerationLongitudinalCogEnum": 3112,
      "ĠCodifyEnumDataTypeQuYawRateVehicleBodyEnum": 3113,
      "ĠCodifyEnumDataTypeQuSteeringAngleSteeringWheelEnum": 3114,
      "ĠCodifyEnumDataTypeQuEgoSpeedLongitudinalEnum": 3115,
      "ĠCodifyEnumDataTypeQuVehicleBodyOrientationToRoadSurfaceEnum": 3116,
      "ĠStatusEgoSpeedNearStandstillEnum": 3117,
      "ĠCodifyEnumDataTypeStatusEgoSpeedNearStandstillEnum": 3118,
      "ĠQuSteeringAngleWheelBackAxle": 3119,
      "ĠQuSteeringAngleWheelFrontAxleEnum": 3120,
      "ĠQuSteeringAngleWheelResultingEffectiveEnum": 3121,
      "ĠCodifyEnumDataTypeQuSteeringAngleWheelBackAxle": 3122,
      "ĠCodifyEnumDataTypeQuSteeringAngleWheelFrontAxleEnum": 3123,
      "ĠCodifyEnumDataTypeQuSteeringAngleWheelResultingEffectiveEnum": 3124,
      "ĠQuEgoAccelerationLateralCog": 3125,
      "ĠQuEgoAccelerationVerticalCogEnum": 3126,
      "ĠQuRollRateVehicleBodyEnum": 3127,
      "ĠQuRollAngleToHorizonEnum": 3128,
      "ĠQuPitchRateVehicleBodyEnum": 3129,
      "ĠQuPitchAngleToHorizonEnum": 3130,
      "ĠCodifyEnumDataTypeQuEgoAccelerationLateralCog": 3131,
      "ĠCodifyEnumDataTypeQuEgoAccelerationVerticalCogEnum": 3132,
      "ĠCodifyEnumDataTypeQuRollRateVehicleBodyEnum": 3133,
      "ĠCodifyEnumDataTypeQuRollAngleToHorizonEnum": 3134,
      "ĠCodifyEnumDataTypeQuPitchRateVehicleBodyEnum": 3135,
      "ĠCodifyEnumDataTypeQuPitchAngleToHorizonEnum": 3136,
      "UER": 3137,
      "ension": 3138,
      "88": 3139,
      "DmcWcAuxSplineAcc": 3140,
      "HvsCdng": 3141,
      "Readiness": 3142,
      "Eval": 3143,
      "ControlCharging": 3144,
      "0948": 3145,
      "ErrorCode": 3146,
      "cntRA": 3147,
      "Typ": 3148,
      "CheckControlMessage": 3149,
      "uld": 3150,
      "era": 3151,
      "GR": 3152,
      "EmMo": 3153,
      "WcBtfOsci": 3154,
      "OvwAp": 3155,
      "Chd": 3156,
      "urement": 3157,
      "ĠBMW": 3158,
      "Egy": 3159,
      "Use": 3160,
      "viation": 3161,
      "FcRfu": 3162,
      "vali": 3163,
      "Lsd": 3164,
      "erre": 3165,
      "valide": 3166,
      "Ġdomain": 3167,
      "Functions": 3168,
      "handen": 3169,
      "vorhanden": 3170,
      "manifest": 3171,
      "fuellt": 3172,
      "LADEENDE": 3173,
      "InfoCpTst": 3174,
      "QdmMueLin": 3175,
      "Light": 3176,
      "Ġmanifest": 3177,
      "Ġruns": 3178,
      "symls": 3179,
      "DcrSfDiag": 3180,
      "Files": 3181,
      "CCS": 3182,
      "IP": 3183,
      "anze": 3184,
      "Ġsymls": 3185,
      "ĠEnding": 3186,
      "anzeigen": 3187,
      "INIT": 3188,
      "chaft": 3189,
      "Flr": 3190,
      "itschaft": 3191,
      "bereitschaft": 3192,
      "Chir": 3193,
      "ĠCI": 3194,
      "AckFrct": 3195,
      "Chirp": 3196,
      "//": 3197,
      "Wgt": 3198,
      "Adapter": 3199,
      "Ġ^~~~~~~~~~~~~~~~~~~~~~~~~~~~~~~~~~": 3200,
      "LKA": 3201,
      "nal": 3202,
      "Edh": 3203,
      "SnsAcpdProc": 3204,
      "Ġsignals": 3205,
      "Dof": 3206,
      "targetSIL": 3207,
      "LST": 3208,
      "ein": 3209,
      "owned": 3210,
      "DmcTqzFbyPdFx": 3211,
      "Ġsame": 3212,
      "qlst": 3213,
      "entr": 3214,
      "Dwn": 3215,
      "Ġfolder": 3216,
      "CtlLv": 3217,
      "WcMscSplFA": 3218,
      "WcMscSplRA": 3219,
      "Measurement": 3220,
      "Ġsho": 3221,
      "Ġshould": 3222,
      "RS": 3223,
      "ilot": 3224,
      "LdpTqaDesPed": 3225,
      "ApplyRelease": 3226,
      "ApplyReleaseRequest": 3227,
      "ĠPilot": 3228,
      "Ġiso": 3229,
      "StChg": 3230,
      "SfPmOut": 3231,
      "15118": 3232,
      "Ladebereitschaft": 3233,
      "Einschraenkung": 3234,
      "ANZEIGEMODUS": 3235,
      "LightButtonChargingPot": 3236,
      "Valid": 3237,
      "igeschaltet": 3238,
      "luss": 3239,
      "Aussch": 3240,
      "LdpSfSts": 3241,
      "ĠStatusMSetupSetting": 3242,
      "ĠCodifyEnumDataTypeStatusMSetupSetting": 3243,
      "freigeschaltet": 3244,
      "Konfiguration": 3245,
      "Ausschluss": 3246,
      "Perm": 3247,
      "CO": 3248,
      "fuer": 3249,
      "ĠCodifyParameterStCluGbu": 3250,
      "terne": 3251,
      "WcBtfManip": 3252,
      "Task": 3253,
      "Ġ^~~~~~~~~~~~~~~~~~~~": 3254,
      "af": 3255,
      "cwst": 3256,
      "msBrDk": 3257,
      "Ġinvalid": 3258,
      "CtlLvr": 3259,
      "ParkSupport": 3260,
      "Ġignor": 3261,
      "Der": 3262,
      "vn": 3263,
      "Psid": 3264,
      "Begrenzung": 3265,
      "DsSfAccRecu": 3266,
      "StromBegrenzung": 3267,
      "OpMode": 3268,
      "Trtl": 3269,
      "Sr": 3270,
      "Ġignored": 3271,
      "Perman": 3272,
      "ĠRedefinition": 3273,
      "QdmQeiModel": 3274,
      "RngCalc": 3275,
      "LUT": 3276,
      "initiali": 3277,
      "InitTask": 3278,
      "Eol": 3279,
      "readiness": 3280,
      "Env": 3281,
      "wa": 3282,
      "Low": 3283,
      "Ren": 3284,
      "EgoWhl": 3285,
      "EHEN": 3286,
      "HOEHEN": 3287,
      "Operation": 3288,
      "99": 3289,
      "ify": 3290,
      "map": 3291,
      "internal": 3292,
      "nds": 3293,
      "tung": 3294,
      "aft": 3295,
      "Ġcomponent": 3296,
      "Fkr": 3297,
      "psid": 3298,
      "ud": 3299,
      "PtmTqLim": 3300,
      "PecT": 3301,
      "Anford": 3302,
      "Anforderung": 3303,
      "Ġ18": 3304,
      "ations": 3305,
      "ade": 3306,
      "PiObs": 3307,
      "externe": 3308,
      "Laden": 3309,
      "Norm": 3310,
      "system": 3311,
      "secureStor": 3312,
      "QdmSkAbk": 3313,
      "stellung": 3314,
      "ChaRdy": 3315,
      "annel": 3316,
      "ĠStandstillPerman": 3317,
      "ĠAktHsr": 3318,
      "DmcTqfFfyBk": 3319,
      "tection": 3320,
      "QE": 3321,
      "pf": 3322,
      "grad": 3323,
      "SCH": 3324,
      "LdpPotAvl": 3325,
      "ErrLoc": 3326,
      "ParSet": 3327,
      "DmcTqzFbyIndOs": 3328,
      "UwbErrSrc": 3329,
      "UwbErrLoc": 3330,
      "Ġ^~~~~~~~~~~~~~~~~~~~~~~~~~~~~~~~~~~~~~~~~~~~~~~~~": 3331,
      "operating": 3332,
      "ingle": 3333,
      "enKoor": 3334,
      "AnforderungenKoor": 3335,
      "datat": 3336,
      "datatypes": 3337,
      "MaxDyn": 3338,
      "msWhl": 3339,
      "77": 3340,
      "WscMax": 3341,
      "vent": 3342,
      "deactiv": 3343,
      "Ġdue": 3344,
      "MobsMuWhl": 3345,
      "Package": 3346,
      "ĠLoading": 3347,
      "SrvReq": 3348,
      "Ġservice": 3349,
      "tmc": 3350,
      "ĠEtmc": 3351,
      "befuellt": 3352,
      "SEC": 3353,
      "CoCptDrvDia": 3354,
      "Ġits": 3355,
      "Allwd": 3356,
      "EmActManipVal": 3357,
      "EmActManipSwi": 3358,
      "ParSetId": 3359,
      "QdmMueFnc": 3360,
      "casp": 3361,
      "Ġ#//@": 3362,
      "LdpTqaDampPos": 3363,
      "ownedPackage": 3364,
      "lich": 3365,
      "rimi": 3366,
      "rimitive": 3367,
      "Ġprimitive": 3368,
      "orfv": 3369,
      "LdpBrkLi": 3370,
      "KTION": 3371,
      "mented": 3372,
      "Ġimple": 3373,
      "Plan": 3374,
      "Ġimplemented": 3375,
      "Dp": 3376,
      "cCcs": 3377,
      "SeccCcs": 3378,
      "Ġexpl": 3379,
      "GET": 3380,
      "DcrInC": 3381,
      "mon": 3382,
      "UEF": 3383,
      "Qlf": 3384,
      "Ġpartial": 3385,
      "Ġirv": 3386,
      "QdmAffFar": 3387,
      "Ġvariables": 3388,
      "ext": 3389,
      "ParSetIdSeccCcs": 3390,
      "alt": 3391,
      "Ġitself": 3392,
      "Pid": 3393,
      "LdpSscFade": 3394,
      "Ġdone": 3395,
      "Ġremove": 3396,
      "zu": 3397,
      "InterfaceCharging": 3398,
      "DiagnosticInterfaceCharging": 3399,
      "TIME": 3400,
      "SP": 3401,
      "Ramp": 3402,
      "QdmLefGbr": 3403,
      "ml": 3404,
      "InfoCpTstHvs": 3405,
      "Vx": 3406,
      "AffFs": 3407,
      "69": 3408,
      "QualityCheck": 3409,
      "ore": 3410,
      "EgoSteaMon": 3411,
      "DcrTqlEm": 3412,
      "Aera": 3413,
      "DrvgResCmp": 3414,
      "ModeDe": 3415,
      "ferenceSmartCharging": 3416,
      "PreferenceSmartCharging": 3417,
      "LockingStatusCharging": 3418,
      "Consum": 3419,
      "CableEnum": 3420,
      "viationEnum": 3421,
      "ModeDeviationEnum": 3422,
      "PreferenceSmartChargingEnum": 3423,
      "LockingStatusChargingCableEnum": 3424,
      "aet": 3425,
      "Sym": 3426,
      "DmcTqxPa": 3427,
      "QdmZffFar": 3428,
      "apt": 3429,
      "wach": 3430,
      "ĠQueEgoAccelerationLongitudinalNoGravityNoCoriolisEnum": 3431,
      "ĠCodifyEnumDataTypeQueEgoAccelerationLongitudinalNoGravityNoCoriolisEnum": 3432,
      "ĠSignalwert": 3433,
      "ĠUnbefuellt": 3434,
      "ĠUeberwach": 3435,
      "ĠUeberwachung": 3436,
      "QdmKoorfv": 3437,
      "prec": 3438,
      "AxcWheel": 3439,
      "AxcWheelAccel": 3440,
      "LdpTqaDesLim": 3441,
      "Automati": 3442,
      "ADAPTIVWERTE": 3443,
      "CON": 3444,
      "DmcTqzAcv": 3445,
      "itaet": 3446,
      "Ġresults": 3447,
      "ied": 3448,
      "ĠCodifyParameterd": 3449,
      "Std": 3450,
      "WA": 3451,
      "Char": 3452,
      "Stand": 3453,
      "Fu": 3454,
      "leting": 3455,
      "ĠDeleting": 3456,
      "HR": 3457,
      "mit": 3458,
      "Evalu": 3459,
      "ĠB": 3460,
      "499": 3461,
      "OKT": 3462,
      "adephase": 3463,
      "Hmi": 3464,
      "Fct": 3465,
      "DmcTqzFbyFacFfy": 3466,
      "Updates": 3467,
      "MeasurementUpdates": 3468,
      "rie": 3469,
      "erstellung": 3470,
      "ĠSich": 3471,
      "atibil": 3472,
      "ompatibil": 3473,
      "ertsk": 3474,
      "Vorwa": 3475,
      "ĠSicherstellung": 3476,
      "ompatibilitaet": 3477,
      "ertskompatibilitaet": 3478,
      "Vorwaertskompatibilitaet": 3479,
      "DcrAvlMgrDs": 3480,
      "FncInteraction": 3481,
      "DcrAvlMgrDsFncInteraction": 3482,
      "Cnr": 3483,
      "ard": 3484,
      "Chk": 3485,
      "ĠCodifyParameterdPAR": 3486,
      "Dur": 3487,
      "ě[": 3488,
      "que": 3489,
      "BU": 3490,
      "DmcTqzSpr": 3491,
      "cei": 3492,
      "CoProl": 3493,
      "DynStgJerk": 3494,
      "Srm": 3495,
      "QdmKwDsc": 3496,
      "Hld": 3497,
      "Without": 3498,
      "Press": 3499,
      "Brpd": 3500,
      "SY": 3501,
      "ub": 3502,
      "PtmPLim": 3503,
      "PecChaRespdata": 3504,
      "OpPoi": 3505,
      "rieg": 3506,
      "SIGNAL": 3507,
      "riegel": 3508,
      "Evaluation": 3509,
      "occ": 3510,
      "Stm": 3511,
      "rash": 3512,
      "RU": 3513,
      "cas": 3514,
      "ĠCodifyParameterBMWcif": 3515,
      "jsonsignal": 3516,
      "control": 3517,
      "precated": 3518,
      "Slow": 3519,
      "LdpTqcDrvrLim": 3520,
      "Ġ31": 3521,
      "Ġgi": 3522,
      "binc": 3523,
      "SnsTfePiObs": 3524,
      "ENT": 3525,
      "Resi": 3526,
      "entrypoints": 3527,
      "tqwRL": 3528,
      "Extension": 3529,
      "Fas": 3530,
      "Avail": 3531,
      "tqwFL": 3532,
      "Valve": 3533,
      "Validator": 3534,
      "Dry": 3535,
      "IntCcs": 3536,
      "Ġgiven": 3537,
      "TimeDelay": 3538,
      "TimeExtension": 3539,
      "ĠDisplayCharge": 3540,
      "tivierung": 3541,
      "TimeDelayActive": 3542,
      "ĠDisplayChargeTimeExtension": 3543,
      "Shaft": 3544,
      "DcrAvlSprIn": 3545,
      "ues": 3546,
      "ection": 3547,
      "AutoHold": 3548,
      "uring": 3549,
      "MobsAdj": 3550,
      "Syml": 3551,
      "fue": 3552,
      "rect": 3553,
      "fuehr": 3554,
      "was": 3555,
      "xml": 3556,
      "dtqwFA": 3557,
      "stab": 3558,
      "dtqwRA": 3559,
      "ElFan": 3560,
      "reason": 3561,
      "PostProc": 3562,
      "ibw": 3563,
      "Ther": 3564,
      "ibwert": 3565,
      "Curv": 3566,
      "NegDamp": 3567,
      "due": 3568,
      "ĠQuActualPercentageAcceleratorPedalEnum": 3569,
      "ĠCodifyEnumDataTypeQuActualPercentageAcceleratorPedalEnum": 3570,
      "ĠQualifierFunctionDscEnum": 3571,
      "ĠQualifierFunctionHdcEnum": 3572,
      "ĠQualifierFunctionAscEnum": 3573,
      "ĠCodifyEnumDataTypeQualifierFunctionDscEnum": 3574,
      "ĠCodifyEnumDataTypeQualifierFunctionHdcEnum": 3575,
      "ĠCodifyEnumDataTypeQualifierFunctionAscEnum": 3576,
      "deactivated": 3577,
      "occuring": 3578,
      "fw": 3579,
      "IdIntCcs": 3580,
      "EvseIdIntCcs": 3581,
      "TUNG": 3582,
      "Al": 3583,
      "eglich": 3584,
      "moeglich": 3585,
      "DmcPaSx": 3586,
      "kw": 3587,
      "AvlSt": 3588,
      "entriegel": 3589,
      "entriegelung": 3590,
      "EmDc": 3591,
      "ield": 3592,
      "ben": 3593,
      "ASS": 3594,
      "App": 3595,
      "formation": 3596,
      "PIM": 3597,
      "Sel": 3598,
      "SEN": 3599,
      "RlInt": 3600,
      "Cn": 3601,
      "DATE": 3602,
      "MAT": 3603,
      "Reibwert": 3604,
      "gefuehr": 3605,
      "WcCaFs": 3606,
      "gefuehrt": 3607,
      "Master": 3608,
      "rauch": 3609,
      "lient": 3610,
      "roup": 3611,
      "LdpSscCtrl": 3612,
      "61": 3613,
      "SnsMobsAdj": 3614,
      "DrvrDes": 3615,
      "Supported": 3616,
      "vld": 3617,
      "limit": 3618,
      "dnet": 3619,
      "cp": 3620,
      "ise": 3621,
      "Source": 3622,
      "alone": 3623,
      "Deac": 3624,
      "Detection": 3625,
      "DmcTqzInit": 3626,
      "LoadSyml": 3627,
      "ErrorSource": 3628,
      "AvlReaErrorSource": 3629,
      "Standalone": 3630,
      "LoadSymlStandalone": 3631,
      "LoadSymlStandaloneComponent": 3632,
      "AbstractLoadSymlStandaloneComponent": 3633,
      "ERROR": 3634,
      "lish": 3635,
      "Profile": 3636,
      "ĠRequest": 3637,
      "Arr": 3638,
      "Pw": 3639,
      "YP": 3640,
      "255": 3641,
      "91": 3642,
      "BtfManip": 3643,
      "LossPred": 3644,
      "ardnet": 3645,
      "verb": 3646,
      "Pressure": 3647,
      "Ġ44": 3648,
      "EgoOvb": 3649,
      "hl": 3650,
      "Lg": 3651,
      "ero": 3652,
      "stablish": 3653,
      "Ten": 3654,
      "Mal": 3655,
      "]-": 3656,
      "scri": 3657,
      "LD": 3658,
      "CoEts": 3659,
      "ReqCoEts": 3660,
      "nd": 3661,
      "ĠJ": 3662,
      "vq": 3663,
      "Prot": 3664,
      "Lf": 3665,
      "Cpl": 3666,
      "ĠCodifyAxisAXY": 3667,
      "CplMod": 3668,
      "By": 3669,
      "DcAc": 3670,
      "group": 3671,
      "LfZ": 3672,
      "Sensor": 3673,
      "ĠAk": 3674,
      "DynamicEvaluation": 3675,
      "Pac": 3676,
      "HOEHENST": 3677,
      "elle": 3678,
      "Disc": 3679,
      "HvChaInCif": 3680,
      "EHL": 3681,
      "WcAxcAI": 3682,
      "ĠEgo": 3683,
      "60": 3684,
      "].": 3685,
      "fs": 3686,
      "keleton": 3687,
      "red": 3688,
      "ENZ": 3689,
      "Initiali": 3690,
      "eth": 3691,
      "Afw": 3692,
      "Ums": 3693,
      "chalt": 3694,
      "GRENZ": 3695,
      "Umschalt": 3696,
      "Sca": 3697,
      "rix": 3698,
      "Self": 3699,
      "matrix": 3700,
      "funktion": 3701,
      "tqwRR": 3702,
      "Available": 3703,
      "ĠVEH": 3704,
      "Config": 3705,
      "LoFds": 3706,
      "HiFds": 3707,
      "elast": 3708,
      "Neben": 3709,
      "erbelast": 3710,
      "raucherbelast": 3711,
      "verbraucherbelast": 3712,
      "ĠAktivierung": 3713,
      "Umschaltmatrix": 3714,
      "Nebenverbraucherbelast": 3715,
      "Nebenverbraucherbelastung": 3716,
      "STEUER": 3717,
      "tqwFR": 3718,
      "FbyFac": 3719,
      "Assist": 3720,
      "ĠCDTElecCompressor": 3721,
      "ĠCodifyEnumDataTypeCDTElecCompressor": 3722,
      "ĠSHORT": 3723,
      "DTHVIL": 3724,
      "Inc": 3725,
      "connect": 3726,
      "DmcTqfFfxyDg": 3727,
      "DmcTqfFfyDg": 3728,
      "Trust": 3729,
      "swe": 3730,
      "VehicleMileage": 3731,
      "msr": 3732,
      "Scale": 3733,
      "Rad": 3734,
      "scription": 3735,
      "Notentriegelung": 3736,
      "Maximum": 3737,
      "Rot": 3738,
      "initialize": 3739,
      "Est": 3740,
      "Reques": 3741,
      "Requested": 3742,
      "Input": 3743,
      "ĠZfmFz": 3744,
      "ĠCBS": 3745,
      "ĠCodifyEnumDataTypeCBS": 3746,
      "SnsTfePac": 3747,
      "Invalid": 3748,
      "ku": 3749,
      "WcMscReg": 3750,
      "UNLCKD": 3751,
      "fahrts": 3752,
      "AvlSpr": 3753,
      "Abfahrts": 3754,
      "AvlReaDynamicEvaluation": 3755,
      "CNDT": 3756,
      "Abfahrtszeit": 3757,
      "DcCcs": 3758,
      "Dep": 3759,
      "LinPreProc": 3760,
      "var": 3761,
      "DcrAvlReaLimTqPt": 3762,
      "ance": 3763,
      "DmcTqzFfyStat": 3764,
      "autosar": 3765,
      "Ġhas": 3766,
      "Ġbo": 3767,
      "Cnt": 3768,
      "Gm": 3769,
      "ResponseCode": 3770,
      "pm": 3771,
      "CommunicationError": 3772,
      "aChargingStop": 3773,
      "ĠReasonChargingEndEnum": 3774,
      "ĠEstablish": 3775,
      "ĠCodifyEnumDataTypeReasonChargingEndEnum": 3776,
      "ĠCodifyEnumDataTypeInitiali": 3777,
      "shoot": 3778,
      "ChargingSocket": 3779,
      "functionEmergency": 3780,
      "DsCcs": 3781,
      "ToChargingStation": 3782,
      "NoError": 3783,
      "Failed": 3784,
      "NotReach": 3785,
      "TargetSoe": 3786,
      "ĠVehicleMaximum": 3787,
      "ButtonSocket": 3788,
      "ResultLastLifecycleEnum": 3789,
      "PhysicalLimitsReached": 3790,
      "CommunicationToChargingStation": 3791,
      "TemperatureChargingSocket": 3792,
      "ĠDisplayWarnPreConStatusEnum": 3793,
      "ĠInfrastructureDcCcs": 3794,
      "ĠInfrastructureDsCcs": 3795,
      "ĠInfrastructurePhysicalLimitsReached": 3796,
      "ĠChargingResultLastLifecycleEnum": 3797,
      "ĠChargingResultLastLifecycleError": 3798,
      "ĠChargingResultLastLifecycleNoError": 3799,
      "ĠCustomerInteractionChargingStop": 3800,
      "ĠCustomerInteractionHmi": 3801,
      "ĠCustomerInteractionApp": 3802,
      "Overshoot": 3803,
      "ĠInitializationDetailStatusEnum": 3804,
      "ĠCodifyEnumDataTypeChargingResultLastLifecycleEnum": 3805,
      "EvseMal": 3806,
      "ChargeReadiness": 3807,
      "ĠCodifyEnumDataTypeDisplayWarnPreConStatusEnum": 3808,
      "ĠWaitingForChargeReadiness": 3809,
      "ViaChargingStop": 3810,
      "WithoutTimeDelayActive": 3811,
      "ĠDisplayChargeTimeExtensionWithoutTimeDelayActive": 3812,
      "CommunicationErrorFailed": 3813,
      "ĠEstablishCommunicationToChargingStation": 3814,
      "ĠCodifyEnumDataTypeInitializationDetailStatusEnum": 3815,
      "functionEmergencyShutdown": 3816,
      "NotReachable": 3817,
      "TargetSoeNotReachable": 3818,
      "ĠVehicleMaximumTemperatureChargingSocket": 3819,
      "ĠInfrastructureDcCcsEvseMal": 3820,
      "ĠInfrastructureDsCcsCommunicationErrorFailed": 3821,
      "ĠInfrastructurePhysicalLimitsReachedTargetSoeNotReachable": 3822,
      "ĠCustomerInteractionChargingStopViaChargingStop": 3823,
      "ĠCustomerInteractionHmiChargingTargetReached": 3824,
      "ĠCustomerInteractionAppChargingTargetReached": 3825,
      "ĠWaitingForChargeReadinessChargingStation": 3826,
      "ĠVehicleMaximumTemperatureChargingSocketOvershoot": 3827,
      "ĠInfrastructureDcCcsEvseMalfunctionEmergencyShutdown": 3828,
      "ĠInfrastructureDsCcsCommunicationErrorFailedResponseCode": 3829,
      "ĠCustomerInteractionChargingStopViaChargingStopButtonSocket": 3830,
      "DcrInTrig": 3831,
      "ĠQualifier": 3832,
      "Ġ200": 3833,
      "Fuel": 3834,
      "urrent": 3835,
      "qlf": 3836,
      "PtmLimPt": 3837,
      "Cm": 3838,
      "Ec": 3839,
      "CellSystem": 3840,
      "FuelCellSystem": 3841,
      "ChaEnd": 3842,
      "DmcTqrAcc": 3843,
      "Pron": 3844,
      "bmwgroup": 3845,
      "Cyc": 3846,
      "ĠStd": 3847,
      "HillCmp": 3848,
      "ĠCodifyEnumDataTypeQualifier": 3849,
      "modus": 3850,
      "Unit": 3851,
      "ĠCoCptDrv": 3852,
      "Gb": 3853,
      "simple": 3854,
      "FAHR": 3855,
      "131": 3856,
      "hn": 3857,
      "DmcTqzFfydPhi": 3858,
      "ChargingDisplayFunctions": 3859,
      "plic": 3860,
      "Actuator": 3861,
      "Ġaut": 3862,
      "ĠT": 3863,
      "QdmZffModel": 3864,
      "DcrInEgoM": 3865,
      "tz": 3866,
      "arxml": 3867,
      "Para": 3868,
      "Skeleton": 3869,
      "Ġdeprecated": 3870,
      "EmGen": 3871,
      "Emu": 3872,
      "DmcTqzFfys": 3873,
      "HvChaOutCif": 3874,
      "ceived": 3875,
      "LashAssist": 3876,
      "etrie": 3877,
      "Conf": 3878,
      "Ġsint": 3879,
      "ĠePbcApplyReleaseRequest": 3880,
      "BAC": 3881,
      "Received": 3882,
      "Deb": 3883,
      "TIC": 3884,
      "FOR": 3885,
      "TURE": 3886,
      "Soll": 3887,
      "ew": 3888,
      "76": 3889,
      "Gu": 3890,
      "DcrInRsa": 3891,
      "PR": 3892,
      "Tout": 3893,
      "Operating": 3894,
      "OperatingMode": 3895,
      "sist": 3896,
      "ĠCodifyEnumDataTypet": 3897,
      "description": 3898,
      "FfEol": 3899,
      "Crsh": 3900,
      "~~~~~~~": 3901,
      "TEMP": 3902,
      "adap": 3903,
      "LdpTqcDrvgResCmp": 3904,
      "common": 3905,
      "WcBtfFf": 3906,
      "Rsu": 3907,
      "ANC": 3908,
      "Cert": 3909,
      "Ġmodel": 3910,
      "ActVal": 3911,
      "DmcTqfPa": 3912,
      "dst": 3913,
      "gs": 3914,
      "load": 3915,
      "Nr": 3916,
      "Boost": 3917,
      "erreicht": 3918,
      "Ke": 3919,
      "agw": 3920,
      "DcrAvlReaReqCcm": 3921,
      "Fwd": 3922,
      "SOR": 3923,
      "Consumer": 3924,
      "ently": 3925,
      "And": 3926,
      "ull": 3927,
      "EmGnr": 3928,
      "ChargingStart": 3929,
      "sww": 3930,
      "DefLimEm": 3931,
      "WiTo": 3932,
      "qlsww": 3933,
      "NormDat": 3934,
      "EmDcCur": 3935,
      "Daf": 3936,
      "EtmcVolfMdlProl": 3937,
      "fiel": 3938,
      "Gener": 3939,
      "LT": 3940,
      "PwrMtrAvail": 3941,
      "abe": 3942,
      "LdpVSpHdc": 3943,
      "Bas": 3944,
      "AUS": 3945,
      "Wra": 3946,
      "Aic": 3947,
      "ĠCodifyParameterMAT": 3948,
      "HvPtmCmn": 3949,
      "Lc": 3950,
      "Ġ32": 3951,
      "ther": 3952,
      "Ġ255": 3953,
      "Dcrm": 3954,
      "Hvb": 3955,
      "SnsRcLc": 3956,
      "EgoWre": 3957,
      "ChargingMode": 3958,
      "Uti": 3959,
      "ende": 3960,
      "EmMax": 3961,
      "PmOutFar": 3962,
      "Ġ^~~~": 3963,
      "WhlLim": 3964,
      "DeltaLash": 3965,
      "BpsNav": 3966,
      "ĠActual": 3967,
      "WcSfWsmSrm": 3968,
      "vch": 3969,
      "WcMscRl": 3970,
      "RngDisp": 3971,
      "WcMscParFA": 3972,
      "WcMscParRA": 3973,
      "outing": 3974,
      "BER": 3975,
      "AcCharging": 3976,
      "DcAct": 3977,
      "Key": 3978,
      "Bl": 3979,
      "ICLE": 3980,
      "Ovr": 3981,
      "thon": 3982,
      "Pia": 3983,
      "Seg": 3984,
      "vInfo": 3985,
      "ĠWerte": 3986,
      "Ġ^~~~~~~~~~~~~~~~~~~~~~~~~~~~~~~~~~~~~~~~~~~~~": 3987,
      "ArrvInfo": 3988,
      "ArrvInfoDest": 3989,
      "sup": 3990,
      "Non": 3991,
      "Foc": 3992,
      "AuxCnr": 3993,
      "Ġ.": 3994,
      "Mem": 3995,
      "800": 3996,
      "Air": 3997,
      "UNKTION": 3998,
      "ord": 3999,
      "CoCptMo": 4000,
      "unter": 4001,
      "ModelValidator": 4002,
      "Dis": 4003,
      "bereich": 4004,
      "Clc": 4005,
      "Zero": 4006,
      "DcrInSbw": 4007,
      "ReqCcm": 4008,
      "DmcTqfFfxCf": 4009,
      "SitCom": 4010,
      "qlstq": 4011,
      "state": 4012,
      "Eco": 4013,
      "SmDcrm": 4014,
      "Fild": 4015,
      "uplic": 4016,
      "Werk": 4017,
      "python": 4018,
      "STEUERN": 4019,
      "AENDE": 4020,
      "tt": 4021,
      "HOEHENSTAENDE": 4022,
      "uplicate": 4023,
      "edi": 4024,
      "tg": 4025,
      "COM": 4026,
      "VER": 4027,
      "min": 4028,
      "lau": 4029,
      "Ġ^~~~~~~~~~~~~~~~~~~~~~~~~~~~~~~~~~~~~~~~~": 4030,
      "ĠStatusError": 4031,
      "ĠCodifyEnumDataTypeStatusError": 4032,
      "home": 4033,
      "VEHICLE": 4034,
      "Aug": 4035,
      "PowerD": 4036,
      "DcrInAcpd": 4037,
      "Plc": 4038,
      "ale": 4039,
      "pec": 4040,
      "Ġ&": 4041,
      "PtmOut": 4042,
      "PciIn": 4043,
      "zuul": 4044,
      "Clo": 4045,
      "etriebs": 4046,
      "ternalError": 4047,
      "Prod": 4048,
      "ĠBetriebs": 4049,
      "ĠBetriebsart": 4050,
      "Automatic": 4051,
      "Fsp": 4052,
      "Bc": 4053,
      "socal": 4054,
      "Tra": 4055,
      "rop": 4056,
      "entic": 4057,
      "ĠMain": 4058,
      "Authentic": 4059,
      "Authentication": 4060,
      "oHigh": 4061,
      "ĠCodifyEnumDataTypeMain": 4062,
      "SfHvCha": 4063,
      "TooHigh": 4064,
      "Ġduplicate": 4065,
      "VoltageTooHigh": 4066,
      "ĠDischargeNotPossibleVoltageTooHigh": 4067,
      "ĠDisplayChargingErrorReasonEnum": 4068,
      "PoiPower": 4069,
      "ĠDischargeNotPossibleInternalError": 4070,
      "ĠChargingInfrastructureLimitationPowerD": 4071,
      "ĠCodifyEnumDataTypeDisplayChargingErrorReasonEnum": 4072,
      "ĠWaitingForAutomatic": 4073,
      "ĠSetChargingConfigurationVoltageLevelError": 4074,
      "ĠDischargeNotPossibleIncompatibleAdapter": 4075,
      "ĠDischargeNotPossibleIncompatibleConsumer": 4076,
      "ĠChargingInfrastructureLimitationWrongPower": 4077,
      "ĠChargingInfrastructureLimitationWrongPoiPower": 4078,
      "ĠMainDeratingReasonEnum": 4079,
      "ĠCodifyEnumDataTypeMainDeratingReasonEnum": 4080,
      "ĠChargingInfrastructureLimitationPowerDrop": 4081,
      "ĠWaitingForAutomaticAuthentication": 4082,
      "PecTPred": 4083,
      "Ġ./": 4084,
      "Guid": 4085,
      "DcrInAera": 4086,
      "SfPm": 4087,
      "DcrInEgoE": 4088,
      "Ġspec": 4089,
      "DcrSfTen": 4090,
      "DcrSfTenLim": 4091,
      "VehState": 4092,
      "HvsSelf": 4093,
      "PecTPredHvsSelf": 4094,
      "PecTPredHvsSelfHt": 4095,
      "TIK": 4096,
      "Sup": 4097,
      "medi": 4098,
      "Soh": 4099,
      "Fir": 4100,
      "Activ": 4101,
      "Ctlr": 4102,
      "VOR": 4103,
      "Ġmeans": 4104,
      "freq": 4105,
      "qlstqw": 4106,
      "DmcTqzSprV": 4107,
      "97": 4108,
      "IB": 4109,
      "Fkt": 4110,
      "Hls": 4111,
      "edata": 4112,
      "high": 4113,
      "workspace": 4114,
      "QDMM": 4115,
      "First": 4116,
      "...": 4117,
      "agedata": 4118,
      "Offset": 4119,
      "Epb": 4120,
      "apaTestHvsEnum": 4121,
      "allow": 4122,
      "Ġone": 4123,
      "Ġsource": 4124,
      "fmu": 4125,
      "108": 4126,
      "gradation": 4127,
      "der": 4128,
      "IndSte": 4129,
      "SnsSitDetE": 4130,
      "ReibwertNormDat": 4131,
      "tly": 4132,
      "Isol": 4133,
      "plied": 4134,
      "supplied": 4135,
      "VORG": 4136,
      "END": 4137,
      "iflfyu": 4138,
      "Client": 4139,
      "Desc": 4140,
      "Anti": 4141,
      "HillDesc": 4142,
      "HillDescCtl": 4143,
      "265": 4144,
      "Tmr": 4145,
      "FbyInd": 4146,
      "Flap": 4147,
      "cg": 4148,
      "PlugLt": 4149,
      "PL": 4150,
      "SO": 4151,
      "VORGAB": 4152,
      "CNT": 4153,
      "ABrk": 4154,
      "ĠERR": 4155,
      "ART": 4156,
      "REL": 4157,
      "Hy": 4158,
      "dal": 4159,
      "ADAPTIVDATE": 4160,
      "DcrAvlReaReqFcrPt": 4161,
      "ADAPTIVDATEN": 4162,
      "Coop": 4163,
      "EM": 4164,
      "wwRA": 4165,
      "ATURE": 4166,
      "Trc": 4167,
      "ReturnType": 4168,
      "rat": 4169,
      "CoDv": 4170,
      "Ġ[/": 4171,
      "AvlReaLimitation": 4172,
      "AvlReaLimitations": 4173,
      "ern": 4174,
      "ActCoProl": 4175,
      "KooV": 4176,
      "wwFA": 4177,
      "KooVa": 4178,
      "Red": 4179,
      "substitute": 4180,
      "Comf": 4181,
      "sponse": 4182,
      "figu": 4183,
      "Ġconfigu": 4184,
      "DlyOn": 4185,
      "Boos": 4186,
      "LdpLvgLimCtrl": 4187,
      "Wku": 4188,
      "EgoHls": 4189,
      "MaxTrust": 4190,
      "Event": 4191,
      "Look": 4192,
      "GWS": 4193,
      "EmCha": 4194,
      "Diagnostics": 4195,
      "sf": 4196,
      "EmPlau": 4197,
      "Crt": 4198,
      "ĠERROR": 4199,
      "Dcon": 4200,
      "acy": 4201,
      "WcAxcFs": 4202,
      "Limd": 4203,
      "VORGABE": 4204,
      "Mec": 4205,
      "atur": 4206,
      "ChaFlp": 4207,
      "DcrAvlMgrCwDsRaw": 4208,
      "Ecu": 4209,
      "LdpTqcCoop": 4210,
      "ChaDest": 4211,
      "Adapt": 4212,
      "DIAG": 4213,
      "SpdTrc": 4214,
      "YPE": 4215,
      "Name": 4216,
      "PostProcessing": 4217,
      "Fb": 4218,
      "erh": 4219,
      "Ary": 4220,
      "eratur": 4221,
      "TRIC": 4222,
      "STEM": 4223,
      "zei": 4224,
      "onment": 4225,
      "vironment": 4226,
      "ECTRIC": 4227,
      "ELECTRIC": 4228,
      "ĠStandstillPermanently": 4229,
      "Ver": 4230,
      "Mng": 4231,
      "GWSZ": 4232,
      "environment": 4233,
      "HvsCell": 4234,
      "Ġsupp": 4235,
      "POST": 4236,
      "HvsPlugLt": 4237,
      "EtmcOpt": 4238,
      "EmDcha": 4239,
      "ErrCod": 4240,
      "PiaFunction": 4241,
      "SA": 4242,
      "kt": 4243,
      "Parking": 4244,
      "BD": 4245,
      "Ere": 4246,
      "oundary": 4247,
      "Activation": 4248,
      "Ereign": 4249,
      "From": 4250,
      "ACTIV": 4251,
      "GradRel": 4252,
      "DampDesGradRel": 4253,
      "94": 4254,
      "Amp": 4255,
      "ChargingStartStop": 4256,
      "ChaPort": 4257,
      "VehObs": 4258,
      "HvChaOutAbk": 4259,
      "Ġgenerating": 4260,
      "ANCE": 4261,
      "Safe": 4262,
      "linlc": 4263,
      "xpad": 4264,
      "SnsEmPlau": 4265,
      "DmcTqzFbyErrBd": 4266,
      "Prkg": 4267,
      "zer": 4268,
      "Stc": 4269,
      "LWA": 4270,
      "VAR": 4271,
      "dig": 4272,
      "VehCcs": 4273,
      "WhlChar": 4274,
      "WhlCharCurv": 4275,
      "dat": 4276,
      "PwrMtrSig": 4277,
      "SENSOR": 4278,
      "isi": 4279,
      "OperatingModeFuelCellSystem": 4280,
      "nSens": 4281,
      "TIN": 4282,
      "abnSens": 4283,
      "ĠInput": 4284,
      "DcrInCabnSens": 4285,
      "DcIvtr": 4286,
      "LdpSscCord": 4287,
      "CblPlug": 4288,
      "DcIvtrCblPlug": 4289,
      "dHvs": 4290,
      "ĠSY": 4291,
      "gesetz": 4292,
      "TqDaf": 4293,
      "gesetzt": 4294,
      "FUNKTION": 4295,
      "Ġ]": 4296,
      "dentifi": 4297,
      "Ġ~~~~~~~~~~~~~~^~~~~~~~~~~": 4298,
      "DmcRsaFfsLim": 4299,
      "DofAcc": 4300,
      "Mac": 4301,
      "Field": 4302,
      "62": 4303,
      "DmcPaLim": 4304,
      "Cmd": 4305,
      "As": 4306,
      "Lpf": 4307,
      "ChargingCommunication": 4308,
      "Ereignisi": 4309,
      "dentifikation": 4310,
      "ChargingCommunicationInterface": 4311,
      "Ereignisidentifikation": 4312,
      "Sess": 4313,
      "uti": 4314,
      "temperatur": 4315,
      "Ġ^~~~~~~~~~~~~~~~~~~~~~~~~~~~~~~~~~~~~~~~": 4316,
      "Channel": 4317,
      "mock": 4318,
      "allowed": 4319,
      "PtmFcs": 4320,
      "AffInit": 4321,
      "demo": 4322,
      "Dpt": 4323,
      "Vel": 4324,
      "DmcTqzStm": 4325,
      "bf": 4326,
      "\",": 4327,
      "PmInHvPth": 4328,
      "Sign": 4329,
      "DcrTqpEm": 4330,
      "DlyOnVehMode": 4331,
      "tivdat": 4332,
      "PedProgD": 4333,
      "tivdaten": 4334,
      "fen": 4335,
      "DmcTqzDcy": 4336,
      "Dsp": 4337,
      "io": 4338,
      "BpsDyn": 4339,
      "TAR": 4340,
      "time": 4341,
      "MIL": 4342,
      "Driving": 4343,
      "Fzg": 4344,
      "Asse": 4345,
      "FEHL": 4346,
      "DispSoh": 4347,
      "TnsdLim": 4348,
      "Supply": 4349,
      "FEHLER": 4350,
      "ogle": 4351,
      "google": 4352,
      "gacy": 4353,
      "Ġma": 4354,
      "DmcTqfSitCom": 4355,
      "DmcTqfFfxyBk": 4356,
      "xt": 4357,
      "ĠResponse": 4358,
      "ĠAgAc": 4359,
      "ĠAgDec": 4360,
      "Hold": 4361,
      "Ġobject": 4362,
      "PciBom": 4363,
      "BET": 4364,
      "lear": 4365,
      "mess": 4366,
      "Exit": 4367,
      "DmcTqzFfydPsi": 4368,
      "Mv": 4369,
      "zeige": 4370,
      "PRE": 4371,
      "DIST": 4372,
      "DrvgReq": 4373,
      "Cont": 4374,
      "73": 4375,
      "Chademo": 4376,
      "fication": 4377,
      "HvPtmCoding": 4378,
      "cf": 4379,
      "Slp": 4380,
      "Cloud": 4381,
      "gate": 4382,
      "DmcTqzDacFby": 4383,
      "SYSTEM": 4384,
      "VehMax": 4385,
      "EgoSteaProc": 4386,
      "Arb": 4387,
      "TH": 4388,
      "QdmAaepsPostProc": 4389,
      "thread": 4390,
      "LimEmMo": 4391,
      "LimEmGnr": 4392,
      "Ent": 4393,
      "Rep": 4394,
      "://": 4395,
      "Tpe": 4396,
      "limitations": 4397,
      "gateway": 4398,
      "ipn": 4399,
      "Noise": 4400,
      "MaxLim": 4401,
      "DcuSyncControlFA": 4402,
      "DcuSyncControlRA": 4403,
      "DcuSyncControlRL": 4404,
      "DcuSyncControlRR": 4405,
      "DcuSyncControlFL": 4406,
      "DcuSyncControlFR": 4407,
      "ĠMOD": 4408,
      "aster": 4409,
      "AirFlp": 4410,
      "DcrDsp": 4411,
      "Trac": 4412,
      "LdpCrpAutoH": 4413,
      "IndOs": 4414,
      "TempPlan": 4415,
      "PecTempPlan": 4416,
      "dur": 4417,
      "Add": 4418,
      "Driver": 4419,
      "durch": 4420,
      "Mecl": 4421,
      "KOM": 4422,
      "ziel": 4423,
      "ParkingLock": 4424,
      "................": 4425,
      "PrkLock": 4426,
      "Valves": 4427,
      "65": 4428,
      "tenance": 4429,
      "Maintenance": 4430,
      "chtl": 4431,
      "sichtl": 4432,
      "HvOn": 4433,
      "absichtl": 4434,
      "START": 4435,
      "DmcKcxDecRa": 4436,
      "Threshold": 4437,
      "DISTANCE": 4438,
      "absichtlich": 4439,
      "Bva": 4440,
      "external": 4441,
      "ĠST": 4442,
      "178": 4443,
      "Ġrepre": 4444,
      "orque": 4445,
      "Ġ^~~~~~~~~~~~~~~~": 4446,
      "Torque": 4447,
      "enter": 4448,
      "DmcTqzFbyBd": 4449,
      "Plg": 4450,
      "SumLim": 4451,
      "ModDcCha": 4452,
      "WscSp": 4453,
      "ĠPM": 4454,
      "vices": 4455,
      "Warning": 4456,
      "lage": 4457,
      "rund": 4458,
      "engrund": 4459,
      "Datengrund": 4460,
      "LADEMODUS": 4461,
      "Datengrundlage": 4462,
      "messung": 4463,
      "swh": 4464,
      "AktHsrKa": 4465,
      "cision": 4466,
      "BrkOsDry": 4467,
      "mbly": 4468,
      "Assembly": 4469,
      "packages": 4470,
      "site": 4471,
      "DmcTqModBc": 4472,
      "Stable": 4473,
      "GY": 4474,
      "Ġinstance": 4475,
      "AvlReaDiagnostics": 4476,
      "Ipb": 4477,
      "PrkgLock": 4478,
      "Ġcoding": 4479,
      "70": 4480,
      "ChaDisp": 4481,
      "Flt": 4482,
      "ocols": 4483,
      "BEGRENZ": 4484,
      "BEGRENZUNG": 4485,
      "Pp": 4486,
      "GE": 4487,
      "header": 4488,
      "Instance": 4489,
      "DmcTqzFbyRel": 4490,
      "venv": 4491,
      "FaultMessage": 4492,
      "********": 4493,
      "Ġautosar": 4494,
      "Ġspecify": 4495,
      "enterLocking": 4496,
      "ActCoProlMod": 4497,
      "tiation": 4498,
      "utor": 4499,
      "executor": 4500,
      "Prdn": 4501,
      "OT": 4502,
      "ep": 4503,
      "connectors": 4504,
      "ChaStgy": 4505,
      "Ġ24": 4506,
      "ĠThis": 4507,
      "WrA": 4508,
      "LimEmGen": 4509,
      "LimEmMot": 4510,
      "EmDcCurr": 4511,
      "ĠBe": 4512,
      "nection": 4513,
      "ĠCodifyEnumDataTypest": 4514,
      "ĠKe": 4515,
      "targetautosar": 4516,
      "PRO": 4517,
      "ĠHint": 4518,
      "AsilFrom": 4519,
      "PIL": 4520,
      "ChaRdyReq": 4521,
      "PILOT": 4522,
      "ParameterReference": 4523,
      "Search": 4524,
      "Ze": 4525,
      "Ġconfiguration": 4526,
      "Ġexternal": 4527,
      "RESET": 4528,
      "CoCptHvsDia": 4529,
      "mediate": 4530,
      "Ot": 4531,
      "TYPE": 4532,
      "VehicleMode": 4533,
      "ĠKeine": 4534,
      "OtdHvs": 4535,
      "NONE": 4536,
      "IsInvalid": 4537,
      "USTIK": 4538,
      "AKUSTIK": 4539,
      "Segment": 4540,
      "AKUSTIKBEGRENZUNG": 4541,
      "Ġenvironment": 4542,
      "Ges": 4543,
      "PlugUn": 4544,
      "ĠDomain": 4545,
      "lus": 4546,
      "ĠNONE": 4547,
      "DirFwd": 4548,
      "RotDirFwd": 4549,
      "Ġsupport": 4550,
      "Ġparameter": 4551,
      "AckFrctLoFds": 4552,
      "AckFrctHiFds": 4553,
      "Ġparameters": 4554,
      "Ġyet": 4555,
      "KMP": 4556,
      "weg": 4557,
      "ĠAsil": 4558,
      "ĠCheckDomain": 4559,
      "EnvIsInvalid": 4560,
      "Ġconfigure": 4561,
      "AsilFromEnvIsInvalid": 4562,
      "ĠCheckDomainAsilFromEnvIsInvalid": 4563,
      "detected": 4564,
      "Signature": 4565,
      "binck": 4566,
      "Slo": 4567,
      "ifbu": 4568,
      "CodingParameterReference": 4569,
      "WscSpdTrc": 4570,
      "ĠSIL": 4571,
      "Ri": 4572,
      "sn": 4573,
      "ReqModDcCha": 4574,
      "AF": 4575,
      "Taster": 4576,
      "run": 4577,
      "api": 4578,
      "zy": 4579,
      "trypoint": 4580,
      "WERK": 4581,
      "Ġenum": 4582,
      "SnsAug": 4583,
      "OBD": 4584,
      "Wach": 4585,
      "klus": 4586,
      "ĠNotentriegelung": 4587,
      "ingDCAC": 4588,
      "Actu": 4589,
      "StEmergency": 4590,
      "StSensor": 4591,
      "StActuator": 4592,
      "StAnti": 4593,
      "MaxPwr": 4594,
      "ChgPlugUn": 4595,
      "LossAct": 4596,
      "ausgefuehrt": 4597,
      "lockingDCAC": 4598,
      "RIE": 4599,
      "ControlChargingPlugLockingDCAC": 4600,
      "RepActu": 4601,
      "zyklus": 4602,
      "Wachzyklus": 4603,
      "StEmergencyChgPlugUn": 4604,
      "StSensorChgPlugLockingDCAC": 4605,
      "StActuatorChgPlugLockingDCAC": 4606,
      "StAntiRepActu": 4607,
      "StEmergencyChgPlugUnlockingDCAC": 4608,
      "StAntiRepActuChgPlugLockingDCAC": 4609,
      "AFZ": 4610,
      "Dh": 4611,
      "Pe": 4612,
      "PtLimMo": 4613,
      "ErrManipVal": 4614,
      "SfIDcAct": 4615,
      "MSetupSettingAgile": 4616,
      "LEZ": 4617,
      "IPB": 4618,
      "Protocols": 4619,
      "CenterLocking": 4620,
      "StateEnum": 4621,
      "CenterLockingSystem": 4622,
      "ondition": 4623,
      "Gbt": 4624,
      "Get": 4625,
      "Manipulation": 4626,
      "STRU": 4627,
      "FROM": 4628,
      "CoCptHPDia": 4629,
      "89": 4630,
      "IF": 4631,
      "Ill": 4632,
      "KEND": 4633,
      "pannung": 4634,
      "inDCAC": 4635,
      "onnection": 4636,
      "leuch": 4637,
      "alen": 4638,
      "anzeige": 4639,
      "ĠtHvCha": 4640,
      "uminDCAC": 4641,
      "terspannung": 4642,
      "spannung": 4643,
      "StDisplay": 4644,
      "statusanzeige": 4645,
      "StatusDisplay": 4646,
      "StatusVoltage": 4647,
      "StatusLightButtonChargingPot": 4648,
      "wird": 4649,
      "egotiation": 4650,
      "ControlLightButtonChargingPot": 4651,
      "StatButtonChargingPot": 4652,
      "ReasonOf": 4653,
      "ButtonStatusCharging": 4654,
      "CommunicationAvailable": 4655,
      "QualityPlc": 4656,
      "WERTUNG": 4657,
      "ĠUnterspannung": 4658,
      "CellTyp": 4659,
      "ĠLadeziel": 4660,
      "ĠLadestatusanzeige": 4661,
      "ĠUeberspannung": 4662,
      "BatCellTyp": 4663,
      "SwitchLT": 4664,
      "ControlChargingStatusDisplay": 4665,
      "StChgSearch": 4666,
      "StChgStDisplay": 4667,
      "Einschraenkungen": 4668,
      "Renegotiation": 4669,
      "Disconnection": 4670,
      "funktionalen": 4671,
      "VehicleMileageSegment": 4672,
      "BACKEND": 4673,
      "ĠCodifyEnumDataTypetHvCha": 4674,
      "AUSWERTUNG": 4675,
      "FlapClass": 4676,
      "SupplyLD": 4677,
      "ĠBeleuch": 4678,
      "ChaRdyReqHvsEnum": 4679,
      "OtdHvsBatCellTyp": 4680,
      "ProtocolsEnum": 4681,
      "CenterLockingSystemEnum": 4682,
      "ManipulationStateEnum": 4683,
      "IlluminDCAC": 4684,
      "StatusVoltageSupplyLD": 4685,
      "StatusLightButtonChargingPotDCAC": 4686,
      "ControlLightButtonChargingPotAcv": 4687,
      "ReasonOfRenegotiation": 4688,
      "ButtonStatusChargingFlapClass": 4689,
      "CommunicationAvailableProtocolsEnum": 4690,
      "QualityPlcCommunicationAvailableProtocolsEnum": 4691,
      "ControlChargingStatusDisplayAcv": 4692,
      "StChgSearchIlluminDCAC": 4693,
      "StChgStDisplayDCAC": 4694,
      "DisconnectionSwitchLT": 4695,
      "VehicleMileageSegmentEnum": 4696,
      "ĠBeleuchtung": 4697,
      "Ġ09": 4698,
      "EgoInTqDaf": 4699,
      "ParkingBrakeIbSmartAct": 4700,
      "FanTstr": 4701,
      "activation": 4702,
      "STRUC": 4703,
      "PmOutIpb": 4704,
      "DcrAvlReaDynEvaLvlOpPoi": 4705,
      "DmcLsdFac": 4706,
      "LookUp": 4707,
      "FRA": 4708,
      "MeclFoc": 4709,
      "Ġ,": 4710,
      "struct": 4711,
      "Wrng": 4712,
      "Ġdo": 4713,
      ">,": 4714,
      "Ġ...": 4715,
      "ĠParking": 4716,
      "LdpLvgTarPre": 4717,
      "uture": 4718,
      "ReqRes": 4719,
      "StatusIbSmartAct": 4720,
      "RequestIbSmartAct": 4721,
      "LdpVSpIn": 4722,
      "FaultStatusIbSmartAct": 4723,
      "ĠePbcParkSupport": 4724,
      "ParkSupportRequestIbSmartAct": 4725,
      "RngCalcEd": 4726,
      "MaintenanceState": 4727,
      "AssemblyState": 4728,
      "FaultMessageIbSmartAct": 4729,
      "MODE": 4730,
      "uern": 4731,
      "Steuern": 4732,
      "EvaPt": 4733,
      "DcrAvlReaErrSrcEvaPt": 4734,
      "ApdMCert": 4735,
      "MPER": 4736,
      "Ġall": 4737,
      "TEMPER": 4738,
      "BETRIE": 4739,
      "];": 4740,
      "dpR": 4741,
      "DmcTqzDacDcy": 4742,
      "EmReq": 4743,
      "vst": 4744,
      "eta": 4745,
      "ChaPer": 4746,
      "Ġ84": 4747,
      "ĠExclu": 4748,
      "SpClc": 4749,
      "actual": 4750,
      "QdmCoDv": 4751,
      "mote": 4752,
      "ErrManipSwi": 4753,
      "ThdVehMode": 4754,
      "mw": 4755,
      "AicSpClc": 4756,
      "EtmcOptAicSpClc": 4757,
      "MA": 4758,
      "SysTst": 4759,
      "AST": 4760,
      "WcSfWsmOut": 4761,
      "Psip": 4762,
      "ierung": 4763,
      "dient": 4764,
      "LongGuid": 4765,
      "Gradient": 4766,
      "onditionierung": 4767,
      "094906": 4768,
      "ĠMODEL": 4769,
      "Clear": 4770,
      "Vect": 4771,
      "Pren": 4772,
      "LdpTqb": 4773,
      "Partial": 4774,
      "DgraEd": 4775,
      "appa": 4776,
      "GrdMax": 4777,
      "secureStorage": 4778,
      "EtmcPron": 4779,
      "ApdMCertOut": 4780,
      "DcCharging": 4781,
      "unit": 4782,
      "services": 4783,
      "GradDn": 4784,
      "ChaEndReas": 4785,
      "LossReq": 4786,
      "LdpSscMon": 4787,
      "Sev": 4788,
      "Cali": 4789,
      "Signalstate": 4790,
      "EngSignalstate": 4791,
      "OBDEngSignalstate": 4792,
      "ang": 4793,
      "QdmFfEol": 4794,
      "INFRA": 4795,
      "DmcTqzFbyIndBdB": 4796,
      "QdmSkr": 4797,
      "PaMue": 4798,
      "SnsRcPaMue": 4799,
      "DEBU": 4800,
      "DEBUG": 4801,
      "MUN": 4802,
      "DcrAvlMgrRea": 4803,
      "RqBoost": 4804,
      "LdpSfLvgMon": 4805,
      "secureStoragedata": 4806,
      "ĠAkks": 4807,
      "Prevn": 4808,
      "KR": 4809,
      "zl": 4810,
      "Ivld": 4811,
      "AcDc": 4812,
      "REM": 4813,
      "DcdcLv": 4814,
      "res": 4815,
      "Ġ05": 4816,
      "Ġdoes": 4817,
      "vstar": 4818,
      "VehConf": 4819,
      "EIT": 4820,
      "tests": 4821,
      "Chn": 4822,
      "Const": 4823,
      "INFRASTRUC": 4824,
      "DcrAvlMgrReaTq": 4825,
      "eleton": 4826,
      "skeleton": 4827,
      "Ssc": 4828,
      "damp": 4829,
      "UwbErrSrcWc": 4830,
      "UwbErrSrcTqz": 4831,
      "UwbErrLocWc": 4832,
      "UwbErrLocTqz": 4833,
      "RlIntRef": 4834,
      "ĠCodifyEnumDataTypeActual": 4835,
      "rectory": 4836,
      "Mst": 4837,
      "AccelerationEnum": 4838,
      "DecelerationEnum": 4839,
      "isystem": 4840,
      "DchaStgy": 4841,
      "75": 4842,
      "PotMax": 4843,
      "Ġwrite": 4844,
      "Counter": 4845,
      "Delt": 4846,
      "Ayack": 4847,
      "Lks": 4848,
      "packageSignature": 4849,
      "DmcLtpLim": 4850,
      "DmcWcAuxLimAcc": 4851,
      "DetectionClass": 4852,
      "SessAuth": 4853,
      "AcDcDetectionClass": 4854,
      "VehConfLks": 4855,
      "packageSignatureSessAuth": 4856,
      "PedProgB": 4857,
      "mask": 4858,
      "Ġsingle": 4859,
      "AxWhlLim": 4860,
      "GnrIf": 4861,
      "MG": 4862,
      "try": 4863,
      "Learn": 4864,
      "PosDamp": 4865,
      "Buf": 4866,
      "LdpLvgLimPre": 4867,
      "Sub": 4868,
      "current": 4869,
      "Ġstatus": 4870,
      "ssc": 4871,
      "scal": 4872,
      "BpsTemp": 4873,
      "AktHsrSer": 4874,
      "cfg": 4875,
      "dFnc": 4876,
      "BSWs": 4877,
      "Blend": 4878,
      "nach": 4879,
      "Calibr": 4880,
      "Vd": 4881,
      "HvComPtlNetCCUSigOut": 4882,
      "SkAbk": 4883,
      "DcrAvlSprInGnrIf": 4884,
      "DcrAvlSprInGnrIfErr": 4885,
      "POS": 4886,
      "olean": 4887,
      "over": 4888,
      "timi": 4889,
      "ErrCom": 4890,
      "pci": 4891,
      "erValves": 4892,
      "Ġamsr": 4893,
      "DmcTqrDec": 4894,
      "PrkBrk": 4895,
      "SftySrvReq": 4896,
      "PtmLimPren": 4897,
      "AGE": 4898,
      "DconDcCha": 4899,
      "INFRASTRUCTURE": 4900,
      "damperValves": 4901,
      "PtmLimPrenAuxCnr": 4902,
      "ĠErr": 4903,
      "Optimi": 4904,
      "tool": 4905,
      "Optimized": 4906,
      "Ġon": 4907,
      "version": 4908,
      "WcEtfCtrlFA": 4909,
      "WcEtfCtrlRA": 4910,
      "WcEtfCtrlRL": 4911,
      "WcEtfCtrlRR": 4912,
      "WcEtfCtrlFL": 4913,
      "WcEtfCtrlFR": 4914,
      "Ġ92": 4915,
      "DmcLsdFfy": 4916,
      "linlca": 4917,
      "MGC": 4918,
      "PciLncCtl": 4919,
      "fields": 4920,
      "Generate": 4921,
      "EAGE": 4922,
      "aul": 4923,
      "draul": 4924,
      "MILEAGE": 4925,
      "draulic": 4926,
      "Ġother": 4927,
      "ĠSingle": 4928,
      "ErrDz": 4929,
      "Platform": 4930,
      "Ġpartials": 4931,
      "konditionierung": 4932,
      "nelle": 4933,
      "ĠOKT": 4934,
      "text": 4935,
      "Entl": 4936,
      "ety": 4937,
      "109": 4938,
      "ĠCodifyEnumDataTypeenum": 4939,
      "schnelle": 4940,
      "Testkonditionierung": 4941,
      "Entladephase": 4942,
      "cev": 4943,
      "LdpTqcTqLim": 4944,
      "binlxreal": 4945,
      "chw": 4946,
      "sitor": 4947,
      "Detected": 4948,
      "NotSupported": 4949,
      "DcrCfgCmd": 4950,
      "VehicleModeType": 4951,
      "ector": 4952,
      "ier": 4953,
      "par": 4954,
      "sivel": 4955,
      "sively": 4956,
      "fcev": 4957,
      "mmediate": 4958,
      "ĠLockingStatusChargingCableEnum": 4959,
      "ĠCodifyEnumDataTypeLockingStatusChargingCableEnum": 4960,
      "ChargingChargingMode": 4961,
      "ableOptimized": 4962,
      "ample": 4963,
      "ErrorDetected": 4964,
      "ĠChargingCable": 4965,
      "ĠChargingModeDeviationEnum": 4966,
      "ĠChargingPreferenceSmartChargingEnum": 4967,
      "LockingErrorDetected": 4968,
      "ĠImmediate": 4969,
      "ĠCodifyEnumDataTypeChargingModeDeviationEnum": 4970,
      "ĠCodifyEnumDataTypeChargingPreferenceSmartChargingEnum": 4971,
      "EVSE": 4972,
      "Renew": 4973,
      "ByEVSE": 4974,
      "ĠExclusively": 4975,
      "NotSupportedByEVSE": 4976,
      "ChargingChargingModeNotSupportedByEVSE": 4977,
      "ĠChargingCableLockingErrorDetected": 4978,
      "ĠImmediateChargingChargingModeNotSupportedByEVSE": 4979,
      "RenewableOptimized": 4980,
      "ĠExclusivelyRenewableOptimized": 4981,
      "DcGbt": 4982,
      "ĠTr": 4983,
      "One": 4984,
      "Utils": 4985,
      "DcrDiagCcm": 4986,
      "Format": 4987,
      "HvWr": 4988,
      "ENER": 4989,
      "HvWrn": 4990,
      "200": 4991,
      "msLongGuid": 4992,
      "ECAST": 4993,
      "WithName": 4994,
      "FORECAST": 4995,
      "Nonlin": 4996,
      "InstanceWithName": 4997,
      "PartialInstanceWithName": 4998,
      "ĠsinglePartialInstanceWithName": 4999,
      "ĠSTAT": 5000,
      "Ġentrypoints": 5001,
      "OFF": 5002,
      "PtLimGnr": 5003,
      "AffWrA": 5004,
      "DynStgEna": 5005,
      "Ġstd": 5006,
      "Go": 5007,
      "vDe": 5008,
      "facd": 5009,
      "GovDe": 5010,
      "ValueMSetupSettingAgile": 5011,
      "DcrAvlMgrReaTqSf": 5012,
      "Piw": 5013,
      "VVehObs": 5014,
      "enth": 5015,
      "ChaIf": 5016,
      "EmSp": 5017,
      "LdpSscVVehObs": 5018,
      "ouse": 5019,
      "ĠStandstillPermanentlyWith": 5020,
      "ED": 5021,
      "Hvm": 5022,
      "Strat": 5023,
      "LimnEm": 5024,
      "Penth": 5025,
      "Deg": 5026,
      "Ġcheck": 5027,
      "Penthouse": 5028,
      "Ġ30": 5029,
      "DofDec": 5030,
      "Ġstruct": 5031,
      "MAN": 5032,
      "SING": 5033,
      "AcCha": 5034,
      "Dif": 5035,
      "TARGET": 5036,
      "OFFSET": 5037,
      "rivate": 5038,
      "EX": 5039,
      "dB": 5040,
      "rog": 5041,
      "EtmcElFan": 5042,
      "Contact": 5043,
      "Warnings": 5044,
      "Cat": 5045,
      "GI": 5046,
      "stFA": 5047,
      "stRA": 5048,
      "400": 5049,
      "LdpLimMaxDyn": 5050,
      "alization": 5051,
      "QDMWS": 5052,
      "ĠErrors": 5053,
      "stre": 5054,
      "Transf": 5055,
      "PidK": 5056,
      "Transform": 5057,
      "event": 5058,
      "Visitor": 5059,
      "63": 5060,
      "Ġboardnet": 5061,
      "Sgs": 5062,
      "fety": 5063,
      "HvChaCmn": 5064,
      "ZffSgs": 5065,
      "Safety": 5066,
      "Tmp": 5067,
      "ChaRls": 5068,
      "AffTrac": 5069,
      "DmcTqzSprVch": 5070,
      "MaxPwrTq": 5071,
      "fl": 5072,
      "Ido": 5073,
      "Tol": 5074,
      "Ġadap": 5075,
      "ital": 5076,
      "DispHvs": 5077,
      "TT": 5078,
      "ant": 5079,
      "DcLaden": 5080,
      "ustment": 5081,
      "DiagDconDcCha": 5082,
      "WhlActManipVal": 5083,
      "WhlActManipSwi": 5084,
      "ILD": 5085,
      "board": 5086,
      "Adjustment": 5087,
      "SelectX": 5088,
      "digital": 5089,
      "BpsDynDrvg": 5090,
      "ChaEndReasEnum": 5091,
      "Spannung": 5092,
      "tqcFA": 5093,
      "main": 5094,
      "WhlAct": 5095,
      "Offboard": 5096,
      "Maximal": 5097,
      "KapaTest": 5098,
      "Ps": 5099,
      "Tot": 5100,
      "private": 5101,
      "ĠCha": 5102,
      "illadephase": 5103,
      "ĠKein": 5104,
      "hephase": 5105,
      "Teilladephase": 5106,
      "ĠCodifySignalCoCptDrv": 5107,
      "Ruhephase": 5108,
      "Trip": 5109,
      "Calibrated": 5110,
      "ĠChaCa": 5111,
      "SH": 5112,
      "FisErrSig": 5113,
      "Ġ85": 5114,
      "Ist": 5115,
      "ICH": 5116,
      "bFA": 5117,
      "Ġhtt": 5118,
      "Ġhttps": 5119,
      "BO": 5120,
      "execution": 5121,
      "failed": 5122,
      "onym": 5123,
      "visit": 5124,
      "HA": 5125,
      "andler": 5126,
      "fil": 5127,
      "Ġmove": 5128,
      "serviceSignal": 5129,
      "KMV": 5130,
      "STATIS": 5131,
      "Ġ100": 5132,
      "sum": 5133,
      "KM": 5134,
      "ĠHV": 5135,
      "ingMessage": 5136,
      "ptingMessage": 5137,
      "Ġvisit": 5138,
      "AcceptingMessage": 5139,
      "GenerateAcceptingMessage": 5140,
      "Ġadaption": 5141,
      "visitors": 5142,
      "GenerateAcceptingMessageVisitor": 5143,
      "443": 5144,
      "Ilock": 5145,
      "MIS": 5146,
      "legacy": 5147,
      "HvIlock": 5148,
      "AvlMgr": 5149,
      "tra": 5150,
      "qlsp": 5151,
      "Liho": 5152,
      "HEAT": 5153,
      "tqcRA": 5154,
      "BpsMst": 5155,
      "Cmpr": 5156,
      "ipnext": 5157,
      "130": 5158,
      "MinDyn": 5159,
      "cs": 5160,
      "BpsRem": 5161,
      "Pcg": 5162,
      "DcrAvlSprErrCom": 5163,
      "QdmWsDiag": 5164,
      "Ġfiles": 5165,
      "Tool": 5166,
      "Heal": 5167,
      "LdpLvgStimManip": 5168,
      "74": 5169,
      "abac": 5170,
      "Fahr": 5171,
      "tqwd": 5172,
      "MueHiDds": 5173,
      "MueLoDds": 5174,
      "Plgd": 5175,
      "ĠWert": 5176,
      "AxcOp": 5177,
      "Nv": 5178,
      "Open": 5179,
      "TrtlMod": 5180,
      "atic": 5181,
      "TICAL": 5182,
      "DeltaContact": 5183,
      "ĠTry": 5184,
      "bW": 5185,
      "DcrAvlMgrCwDs": 5186,
      "HvsCdngDrvg": 5187,
      "Ġ22": 5188,
      "Rear": 5189,
      "Msg": 5190,
      "QdmElmaFwModel": 5191,
      "LLP": 5192,
      "CdnChk": 5193,
      "CdnChkRead": 5194,
      "Quad": 5195,
      "PtmPAvl": 5196,
      "Cbs": 5197,
      "pa": 5198,
      "MASS": 5199,
      "ACTIVE": 5200,
      "EtmcPrio": 5201,
      "DmcTqxRqBoost": 5202,
      "ĠHvCha": 5203,
      "frame": 5204,
      "ĠInputs": 5205,
      "ICATION": 5206,
      "CL": 5207,
      "TRQ": 5208,
      "SM": 5209,
      "lr": 5210,
      "LdpABrk": 5211,
      "Trlr": 5212,
      "PnetReqMax": 5213,
      "SnsTfePacEst": 5214,
      "TripDest": 5215,
      "Wert": 5216,
      "Brak": 5217,
      "Perf": 5218,
      "Eprom": 5219,
      "Ġcan": 5220,
      "Ġ08": 5221,
      "Ġcopy": 5222,
      "pier": 5223,
      "Copier": 5224,
      "FileCopier": 5225,
      "WIT": 5226,
      "DcuStateMonitoringFA": 5227,
      "ĠCodifyEnumDataTypeRequest": 5228,
      "ĠJul": 5229,
      "toolch": 5230,
      "LdpLimMaxDynMaxRng": 5231,
      "LV": 5232,
      "vector": 5233,
      "Vcc": 5234,
      "vT": 5235,
      "directory": 5236,
      "ReceivedEnum": 5237,
      "Right": 5238,
      "Ġ^~~~~~~~~~~~~~~~~~": 5239,
      "Ġ^~~~~~~~~~~~~~~~~~~~~~~~~~~~~~~~~~~~~~": 5240,
      "Csig": 5241,
      "WOR": 5242,
      "buffer": 5243,
      "CBS": 5244,
      "EF": 5245,
      "Dbf": 5246,
      "Ġdisplay": 5247,
      "EmMot": 5248,
      "MVxLIN": 5249,
      "Grenz": 5250,
      "ationsmessung": 5251,
      "Isolationsmessung": 5252,
      "80": 5253,
      "DING": 5254,
      "Obc": 5255,
      "iss": 5256,
      "SbW": 5257,
      "Werte": 5258,
      "ami": 5259,
      "uetz": 5260,
      "amik": 5261,
      "Gss": 5262,
      "velLearn": 5263,
      "WscPp": 5264,
      "TravelLearn": 5265,
      "FirstTravelLearn": 5266,
      "FirstTravelLearnMVxLIN": 5267,
      "ChaPlug": 5268,
      "Adaptivdaten": 5269,
      "NET": 5270,
      "HvsHt": 5271,
      "Extr": 5272,
      "EgoMod": 5273,
      "dynamik": 5274,
      "Maximaldynamik": 5275,
      "Fim": 5276,
      "Mess": 5277,
      "DcrInSbW": 5278,
      "DcrInFim": 5279,
      "Ġ23": 5280,
      "WORK": 5281,
      "nk": 5282,
      "source": 5283,
      "QdmElmaPw": 5284,
      "QdmElmaPwt": 5285,
      "BMWrng": 5286,
      "pdal": 5287,
      "tqcEM": 5288,
      "90": 5289,
      "fc": 5290,
      "DcrSpr": 5291,
      "DmcTqzCaFs": 5292,
      "DcrSprCmn": 5293,
      "tifact": 5294,
      "LOW": 5295,
      "Ġchange": 5296,
      "110": 5297,
      "Wam": 5298,
      "HvSys": 5299,
      "ifu": 5300,
      "WcSfWsmWam": 5301,
      "DtoDynStg": 5302,
      "DmcTqfRqAwdFb": 5303,
      "COMMUN": 5304,
      "COMMUNICATION": 5305,
      "OP": 5306,
      "Lm": 5307,
      "Bit": 5308,
      "Soft": 5309,
      "codes": 5310,
      "ACC": 5311,
      "DriveOff": 5312,
      "Noti": 5313,
      "DcuStateMonitoringRR": 5314,
      "LLEN": 5315,
      "DmcKcxDecFa": 5316,
      "DcrAvlMgrQcEm": 5317,
      "Defe": 5318,
      "Defekt": 5319,
      "econ": 5320,
      "ARD": 5321,
      "schw": 5322,
      "Einschal": 5323,
      "BOARD": 5324,
      "DcuStateMonitoringRL": 5325,
      "DobsGm": 5326,
      "TEMPERATURE": 5327,
      "anonym": 5328,
      "DcuStateMonitoringRA": 5329,
      "DcuStateMonitoringFL": 5330,
      "DcuStateMonitoringFR": 5331,
      "anonymous": 5332,
      "ĠFor": 5333,
      "MaxSlip": 5334,
      "DcrAvlReaLimTqFa": 5335,
      "Ġ^~~~~~~~~~~~~~~~~~~~~~~~~~~~~~~~~~~~~~~~~~~~~~": 5336,
      "CRI": 5337,
      "OVER": 5338,
      "Ġver": 5339,
      "ĠEKMV": 5340,
      "TECH": 5341,
      "NOLO": 5342,
      "ĠCDTHVIL": 5343,
      "circ": 5344,
      "ORDING": 5345,
      "ĠCodifyEnumDataTypeCDTHVIL": 5346,
      "VMaxHillDescCtl": 5347,
      "perf": 5348,
      "ĠCDTElecCompressorShutdown": 5349,
      "ĠCDTElecCompressorOpMode": 5350,
      "ĠCodifyEnumDataTypeCDTElecCompressorShutdown": 5351,
      "ĠCodifyEnumDataTypeCDTElecCompressorOpMode": 5352,
      "Crtn": 5353,
      "SHORT": 5354,
      "NETWORK": 5355,
      "ACCORDING": 5356,
      "CRITICAL": 5357,
      "OVERTEMPERATURE": 5358,
      "TECHNOLO": 5359,
      "TECHNOLOGY": 5360,
      "StFsp": 5361,
      "VA": 5362,
      "return": 5363,
      "tect": 5364,
      "OutOf": 5365,
      "Clust": 5366,
      "LdpTqcAdas": 5367,
      "DcrInEgoDyMo": 5368,
      "DcrInRsu": 5369,
      "Sample": 5370,
      "ĠOver": 5371,
      "StHvs": 5372,
      "Ars": 5373,
      "QdmMueLinFnc": 5374,
      "sis": 5375,
      "PtmHvs": 5376,
      "Lenk": 5377,
      "ular": 5378,
      "FacDh": 5379,
      "BufVld": 5380,
      "circular": 5381,
      "cq": 5382,
      "DsLdp": 5383,
      "mode": 5384,
      "DcrAvlSprInPt": 5385,
      "DmcTqzInitAcv": 5386,
      "132": 5387,
      "Bits": 5388,
      "Dot": 5389,
      "DSC": 5390,
      "Coord": 5391,
      "Band": 5392,
      "dtqc": 5393,
      "CoplUnit": 5394,
      "TING": 5395,
      "86": 5396,
      "/*": 5397,
      "bel": 5398,
      "tes": 5399,
      "score": 5400,
      "SoH": 5401,
      "SON": 5402,
      "DcCom": 5403,
      "SnsMassCoord": 5404,
      "Les": 5405,
      "Loud": 5406,
      "Pdl": 5407,
      "StatManipVal": 5408,
      "DefVal": 5409,
      "DlyOff": 5410,
      "DcrAvlReaLimTqRa": 5411,
      "ĠJSON": 5412,
      "Lesen": 5413,
      ";/*": 5414,
      "Rqrt": 5415,
      "Codify": 5416,
      "CONVEH": 5417,
      "ĠSTATCONVEH": 5418,
      "DcrInDisp": 5419,
      "Protect": 5420,
      "FS": 5421,
      "ĠOne": 5422,
      "Service": 5423,
      "ĠSer": 5424,
      "VccAccrSnsr": 5425,
      "channel": 5426,
      "EPB": 5427,
      "ChargingInterface": 5428,
      "DSW": 5429,
      "Cu": 5430,
      "ĠWAI": 5431,
      "Ġ[[": 5432,
      "EgoOutWrDiag": 5433,
      "HvChaInPe": 5434,
      "RngCalcEdCns": 5435,
      "ĠWAITING": 5436,
      "HvChaInPeCu": 5437,
      "Csc": 5438,
      "FAHRBER": 5439,
      "alse": 5440,
      "ChaHvs": 5441,
      "ChaPoi": 5442,
      "sistent": 5443,
      "erge": 5444,
      "ĠStandstillPermantly": 5445,
      "ĠStandstillPermantlyWith": 5446,
      "tau": 5447,
      "enge": 5448,
      "allenge": 5449,
      "util": 5450,
      "Ho": 5451,
      "Rd": 5452,
      "Funktion": 5453,
      "PidScale": 5454,
      "BUILD": 5455,
      "agwRA": 5456,
      "Ba": 5457,
      "Hvpm": 5458,
      "ohn": 5459,
      "famp": 5460,
      "Bfs": 5461,
      "Radr": 5462,
      "pdu": 5463,
      "WhlSlow": 5464,
      "HvWrnMng": 5465,
      "Lane": 5466,
      "Merge": 5467,
      "DmcRt": 5468,
      "isPer": 5469,
      "isPersistent": 5470,
      "DrvgPwr": 5471,
      "Gmk": 5472,
      "UR": 5473,
      "AutoApply": 5474,
      "Ġmapping": 5475,
      "ĠCodifyParameterZfmFz": 5476,
      "DynManipVal": 5477,
      "DynManipSwi": 5478,
      "ITF": 5479,
      "StatManipSwi": 5480,
      "ĠFDSW": 5481,
      "ECU": 5482,
      "Bx": 5483,
      "ĠCBx": 5484,
      "basiert": 5485,
      "SS": 5486,
      "TqReq": 5487,
      "ShaftProtect": 5488,
      "MM": 5489,
      "Ġelement": 5490,
      "DmcTqrAccRed": 5491,
      "UNIG": 5492,
      "LEUNIG": 5493,
      "BESCH": 5494,
      "DobsHld": 5495,
      "Geschw": 5496,
      "LEUNIGUNG": 5497,
      "BESCHLEUNIGUNG": 5498,
      "tFA": 5499,
      "tRA": 5500,
      "094850": 5501,
      "DrvRdy": 5502,
      "WcEtfLashRR": 5503,
      "WcEtfLashFA": 5504,
      "WcEtfLashRA": 5505,
      "WcEtfLashRL": 5506,
      "WcEtfLashFL": 5507,
      "WcEtfLashFR": 5508,
      "DmcTqfRqAwdFf": 5509,
      "Famp": 5510,
      "fild": 5511,
      "Unfild": 5512,
      "PM": 5513,
      "Av": 5514,
      "Soc": 5515,
      "QDMMUE": 5516,
      "85": 5517,
      "DcrInCrash": 5518,
      "DcrInCrashSens": 5519,
      "DesActr": 5520,
      "Stu": 5521,
      "Ulim": 5522,
      "Degradation": 5523,
      "Ġ*/": 5524,
      "5511": 5525,
      "CSI": 5526,
      "sxRA": 5527,
      "BpsMan": 5528,
      "FiltPt": 5529,
      "SnsTfePacPara": 5530,
      "ECT": 5531,
      "phi": 5532,
      "ChgrCcs": 5533,
      "Handler": 5534,
      "Change": 5535,
      "Ww": 5536,
      "Im": 5537,
      "161": 5538,
      "DsRecu": 5539,
      "Boundary": 5540,
      "Idx": 5541,
      "DmcTqzCaSp": 5542,
      "InputProcessing": 5543,
      "StatAp": 5544,
      "DmcLsdLim": 5545,
      "ELMa": 5546,
      "COUN": 5547,
      "Product": 5548,
      "IST": 5549,
      "BpsBas": 5550,
      "Core": 5551,
      "82": 5552,
      "Range": 5553,
      "NMin": 5554,
      "LoadIndex": 5555,
      "DynAp": 5556,
      "DynOvwAp": 5557,
      "PotManipVal": 5558,
      "PotManipSwi": 5559,
      "PotAp": 5560,
      "PotOvwAp": 5561,
      "DmcTqxFfxy": 5562,
      "StatOvwAp": 5563,
      "CcmManipVal": 5564,
      "qlsu": 5565,
      "DtcReas": 5566,
      "HvsCdngCha": 5567,
      "CrshShdn": 5568,
      "ErrCodEm": 5569,
      "EmDcCurrActManipVal": 5570,
      "Ġě[": 5571,
      "igabe": 5572,
      "ECK": 5573,
      "tri": 5574,
      "Basi": 5575,
      "DmcLseFnc": 5576,
      "rtt": 5577,
      "SnsCp": 5578,
      "PwrResi": 5579,
      "StateTarget": 5580,
      "175": 5581,
      "DmcTqrAccPwrResi": 5582,
      "CoCptMoDiag": 5583,
      "WscSpOffs": 5584,
      "Sfy": 5585,
      "gabe": 5586,
      "eding": 5587,
      "PtAvlSt": 5588,
      "abil": 5589,
      "ving": 5590,
      "reigabe": 5591,
      "IntVehState": 5592,
      "DcrSfAxLimOvr": 5593,
      "DmcTqzDcyRaw": 5594,
      "stRL": 5595,
      "stRR": 5596,
      "stFL": 5597,
      "stFR": 5598,
      "Challenge": 5599,
      "msEmDk": 5600,
      "HOUT": 5601,
      "Cntry": 5602,
      "WITHOUT": 5603,
      "TIONS": 5604,
      "LdpSscPdl": 5605,
      "HvsAct": 5606,
      "PmOutIPB": 5607,
      "Rdci": 5608,
      "DynLim": 5609,
      "Ġtest": 5610,
      "TarVal": 5611,
      "Az": 5612,
      "bRA": 5613,
      "EmRotDirFwd": 5614,
      "Avg": 5615,
      "edingung": 5616,
      "dv": 5617,
      "ĠEc": 5618,
      "DrvDatCsc": 5619,
      "Down": 5620,
      "DcrInRdci": 5621,
      "Decn": 5622,
      "ABIL": 5623,
      "DcrAvlSprPtAvlSt": 5624,
      "Lnk": 5625,
      "iq": 5626,
      "Entrypoint": 5627,
      "ĠCodifyEntrypoint": 5628,
      "trypoints": 5629,
      "PtAcce": 5630,
      "AxlSpd": 5631,
      "ĠEntrypoints": 5632,
      "Buffer": 5633,
      "SpeedHDC": 5634,
      "Zeit": 5635,
      "AxlSpdCtl": 5636,
      "ĠdisplayFormat": 5637,
      "ControlStateTarget": 5638,
      "ique": 5639,
      "sperre": 5640,
      "Ble": 5641,
      "edFilt": 5642,
      "DmcWcAuxStiffScx": 5643,
      "PotAry": 5644,
      "MonAllwd": 5645,
      "StromBegrenzungExt": 5646,
      "ArrvInfoDestdata": 5647,
      "GovDeMonAllwd": 5648,
      "BleedFilt": 5649,
      "wgt": 5650,
      "Ġ%": 5651,
      "Ġpossible": 5652,
      "Werkmodus": 5653,
      "1000": 5654,
      "symphony": 5655,
      "172": 5656,
      "posn": 5657,
      "KRATE": 5658,
      "ware": 5659,
      "DcrInInt": 5660,
      "arningCondition": 5661,
      "LearningCondition": 5662,
      "DCM": 5663,
      "DcChn": 5664,
      "Ġ19": 5665,
      "PreSet": 5666,
      "PreProcess": 5667,
      "LdpVSpOut": 5668,
      "BrkOsCl": 5669,
      "BrkOsCln": 5670,
      "fClust": 5671,
      "SpManipVal": 5672,
      "SpManipSwi": 5673,
      "SysTstReqRes": 5674,
      "ref": 5675,
      "alc": 5676,
      "sired": 5677,
      "Default": 5678,
      "boost": 5679,
      "lookup": 5680,
      "HvsReq": 5681,
      "Md": 5682,
      "UEL": 5683,
      "nown": 5684,
      "MaxStat": 5685,
      "atures": 5686,
      "SfIDcActEm": 5687,
      "econds": 5688,
      "ucMerge": 5689,
      "AyPsip": 5690,
      "DiffAyPsip": 5691,
      "ĠEcucMerge": 5692,
      "ĠEcucMergeMd": 5693,
      "Sn": 5694,
      "ASSE": 5695,
      "112": 5696,
      "Hit": 5697,
      "Ġ^~~~~~~~~": 5698,
      "agwFA": 5699,
      "Bam": 5700,
      "tik": 5701,
      "etad": 5702,
      "ErrInfo": 5703,
      "Setpoint": 5704,
      "WgtAgile": 5705,
      "WgtStable": 5706,
      "KMMV": 5707,
      "Ġverify": 5708,
      "ohne": 5709,
      "builder": 5710,
      "MacTool": 5711,
      "AINING": 5712,
      "PecTCtl": 5713,
      "REMAINING": 5714,
      "sing": 5715,
      "ars": 5716,
      "Ġinformation": 5717,
      "Ġtri": 5718,
      "Internal": 5719,
      "ĠSf": 5720,
      "NegDampDesGradRel": 5721,
      "Tay": 5722,
      "lor": 5723,
      "DcrBfs": 5724,
      "DcrTay": 5725,
      "Types": 5726,
      "DcrTaylor": 5727,
      "LUEF": 5728,
      "lty": 5729,
      "ĠECU": 5730,
      "Ġtrace": 5731,
      "Aglty": 5732,
      "WscMaxGradDn": 5733,
      "AgltyLvl": 5734,
      "Kappa": 5735,
      "BpsTempCha": 5736,
      "ager": 5737,
      "92": 5738,
      "Ġdefine": 5739,
      "SnsDtPlauMeclFoc": 5740,
      "msLongGuidAd": 5741,
      "por": 5742,
      "Ġgenerate": 5743,
      "LdpLvgFs": 5744,
      "DcCombo": 5745,
      "Ctc": 5746,
      "Future": 5747,
      "KAL": 5748,
      "]]": 5749,
      "reif": 5750,
      "Ġinitiali": 5751,
      "DcrAvlReaDynEva": 5752,
      "streck": 5753,
      "Ġtried": 5754,
      "Ctcr": 5755,
      "KALIB": 5756,
      "Ġinitializer": 5757,
      "cor": 5758,
      "elti": 5759,
      "Prelookup": 5760,
      "FAHRBEREIT": 5761,
      "log": 5762,
      "vC": 5763,
      "ĠProg": 5764,
      "Sigma": 5765,
      "Ovld": 5766,
      "DmcIndMsReset": 5767,
      "CORR": 5768,
      "INTER": 5769,
      "TargetOperatingModeFuelCellSystem": 5770,
      "hz": 5771,
      "ib": 5772,
      "prel": 5773,
      "CblPlgd": 5774,
      "PecTPredHvsSelfHtdata": 5775,
      "DispHvsSo": 5776,
      "LdpBrkLiAct": 5777,
      "Ġroot": 5778,
      "begrenzung": 5779,
      "DepDiffAyPsip": 5780,
      "RngDispEd": 5781,
      "ĠECUC": 5782,
      "Enable": 5783,
      "ĠEvent": 5784,
      "Ġrouting": 5785,
      "PRUEF": 5786,
      "Gschw": 5787,
      "rehz": 5788,
      "anion": 5789,
      "Companion": 5790,
      "Impl": 5791,
      "COUNTER": 5792,
      "ial": 5793,
      "msFs": 5794,
      "ECalc": 5795,
      "DispHvsSoECalc": 5796,
      "PtmPwr": 5797,
      "SfAct": 5798,
      "DefEm": 5799,
      "manipParameter": 5800,
      "DmcTqzToTqxPre": 5801,
      "ĠAktHsrFs": 5802,
      "DlyOffVehMode": 5803,
      "ĠServing": 5804,
      "ior": 5805,
      "TargetValue": 5806,
      "Motion": 5807,
      "Lib": 5808,
      "103": 5809,
      "EtmcHt": 5810,
      "WhlFast": 5811,
      "FbyErr": 5812,
      "EtmcHtFct": 5813,
      "Unique": 5814,
      "IENT": 5815,
      "pen": 5816,
      "artifact": 5817,
      "tery": 5818,
      "Battery": 5819,
      "sysf": 5820,
      "sysfunc": 5821,
      "Dece": 5822,
      "ĠCapaTestHvsEnum": 5823,
      "binlcars": 5824,
      "OME": 5825,
      "ĠCodifyEnumDataTypeCapaTestHvsEnum": 5826,
      "DmcWcAuxSplineDec": 5827,
      "durchgefuehrt": 5828,
      "EKMP": 5829,
      "iFan": 5830,
      "EmiFan": 5831,
      "Ġbits": 5832,
      "Ġvalues": 5833,
      "Ġduplicates": 5834,
      "temperaturbereich": 5835,
      "NoiseEmiFan": 5836,
      "BitsCheck": 5837,
      "UniqueBitsCheck": 5838,
      "Ġallowed": 5839,
      "ĠSns": 5840,
      "CoLvl": 5841,
      "Ġ_": 5842,
      "ChaIfPiw": 5843,
      "Ġio": 5844,
      "netty": 5845,
      "Drehz": 5846,
      "artifactory": 5847,
      "Qualifier": 5848,
      "berch": 5849,
      "SkeletonField": 5850,
      "Grenzberch": 5851,
      "ape": 5852,
      "WcEtfFs": 5853,
      "Ġ#:": 5854,
      "ability": 5855,
      "LUEFTUNG": 5856,
      "start": 5857,
      "Ġ^~~~~~~~~~~~~~~~~~~~~~~~~~~~~~~~~~~~~~~": 5858,
      "ula": 5859,
      "3140": 5860,
      "KOMP": 5861,
      "WARN": 5862,
      "Ġpl": 5863,
      "adapt": 5864,
      "QdmEvPostProcessing": 5865,
      "Forget": 5866,
      "ValueCurrent": 5867,
      "CoplDur": 5868,
      "DmcTqzFfyDtqwMs": 5869,
      "ĠBMWpci": 5870,
      "EmuCoplDur": 5871,
      "Sollwert": 5872,
      "Slope": 5873,
      "strecken": 5874,
      "ForgetGradient": 5875,
      "ValueCurrentValve": 5876,
      "Lag": 5877,
      "Ġplatform": 5878,
      "ZeroPed": 5879,
      "rid": 5880,
      "Fid": 5881,
      "Prox": 5882,
      "Eth": 5883,
      "Kf": 5884,
      "StRead": 5885,
      "DcrInIp": 5886,
      "SnsTfeKf": 5887,
      "Interior": 5888,
      "UEBER": 5889,
      "VdLim": 5890,
      "DcrInIpN": 5891,
      "SnsTfeKfObs": 5892,
      "Rstr": 5893,
      "Short": 5894,
      "SfAccRecu": 5895,
      "Alloc": 5896,
      "Rstrn": 5897,
      "nel": 5898,
      "Ust": 5899,
      "Vorgabe": 5900,
      "uetzGrenzberch": 5901,
      "fClustUst": 5902,
      "fClustUstuetzGrenzberch": 5903,
      "Cll": 5904,
      "UM": 5905,
      "Schwelle": 5906,
      "EtmcPrioCll": 5907,
      "EtmcPrioCllCtl": 5908,
      "ChaTar": 5909,
      "Powertrain": 5910,
      "Rsp": 5911,
      "dpwr": 5912,
      "road": 5913,
      "Notch": 5914,
      "CcmManipEna": 5915,
      "prellung": 5916,
      "Thermal": 5917,
      "Rahm": 5918,
      "endet": 5919,
      "Rahmen": 5920,
      "Next": 5921,
      "Infr": 5922,
      "Appl": 5923,
      "update": 5924,
      "omeip": 5925,
      "peri": 5926,
      "Inten": 5927,
      "Ġ~~~~~~~~~~~~~~~~": 5928,
      "ĠINTER": 5929,
      "Ġ^~~~~~~~~~~~~": 5930,
      "ĠINTERNAL": 5931,
      "lane": 5932,
      "ĠQdmMue": 5933,
      "Ġoption": 5934,
      "ĠInt": 5935,
      "Esc": 5936,
      "Routing": 5937,
      "GrdMin": 5938,
      "ENTLUEFTUNG": 5939,
      "odr": 5940,
      "dev": 5941,
      "etz": 5942,
      "ĠCodifyEnumDataTypeIntVehState": 5943,
      "Asg": 5944,
      "ĠIntVehState": 5945,
      ":/": 5946,
      "EMs": 5947,
      "code": 5948,
      "PtmPDistEMs": 5949,
      "Elec": 5950,
      "det": 5951,
      "ĠCheckControlMessage": 5952,
      "Ġconsum": 5953,
      "DmcWcAuxDzFA": 5954,
      "DmcWcAuxDzRA": 5955,
      "LA": 5956,
      "DeltaSp": 5957,
      "verter": 5958,
      "StateStandstill": 5959,
      "ANSTEUERN": 5960,
      "FunctionsEnum": 5961,
      "ĠStandstillPermanentlyWithParkingLock": 5962,
      "apeFunction": 5963,
      "EscapeFunction": 5964,
      "ĠCheckControlMessageType": 5965,
      "StateStandstillFunctionsEnum": 5966,
      "Dum": 5967,
      "qli": 5968,
      "rec": 5969,
      "PROG": 5970,
      "Pct": 5971,
      "RC": 5972,
      "DcDc": 5973,
      "DrvDcha": 5974,
      "laub": 5975,
      "BMWhvcha": 5976,
      "HvChaInAbk": 5977,
      "DITIONS": 5978,
      "CONDITIONS": 5979,
      "CORRECT": 5980,
      "EW": 5981,
      "ĠR": 5982,
      "add": 5983,
      "Ġconsumed": 5984,
      "Tur": 5985,
      "connection": 5986,
      "FE": 5987,
      "prod": 5988,
      "CoCptDrvActr": 5989,
      "DmcIndMsSet": 5990,
      "TestMode": 5991,
      "Sta": 5992,
      "remote": 5993,
      "Sport": 5994,
      "Life": 5995,
      "Ġbu": 5996,
      "QdmElmaFwExtModel": 5997,
      "We": 5998,
      "ChaCyc": 5999,
      "DiaStRead": 6000,
      "ĠCOD": 6001,
      "DcrSfBrk": 6002,
      "CtlGate": 6003,
      "IFY": 6004,
      "ĠCODIFY": 6005,
      "DcrSfBrkCtlGate": 6006,
      "position": 6007,
      "ency": 6008,
      "WscMaxGra": 6009,
      "AvlSprInputProcessing": 6010,
      "Ġoptions": 6011,
      "Object": 6012,
      "DmcTqzFbyIndB": 6013,
      "fo": 6014,
      "xodr": 6015,
      "MinLim": 6016,
      "ĠDcrOut": 6017,
      "qui": 6018,
      "COG": 6019,
      "MI": 6020,
      "eres": 6021,
      "SaA": 6022,
      "Ġbuild": 6023,
      "report": 6024,
      "amsr": 6025,
      "LdpSscCtrlSp": 6026,
      "CrshSev": 6027,
      "PmOutFarPtm": 6028,
      "PotMaxHys": 6029,
      "Desired": 6030,
      "ĠFound": 6031,
      "ConditionVehicle": 6032,
      "DesiredState": 6033,
      "Base": 6034,
      "CHAR": 6035,
      "OpmHvs": 6036,
      "EtmcElFanReq": 6037,
      "Intention": 6038,
      "Ruecksetzen": 6039,
      "quired": 6040,
      "Away": 6041,
      "cns": 6042,
      "size": 6043,
      "DriveAway": 6044,
      "DryRun": 6045,
      "DriveAwayIntention": 6046,
      "QdmSoH": 6047,
      "105": 6048,
      "EtmcAirFlp": 6049,
      "DgraHvs": 6050,
      "ISO": 6051,
      "ROLLEN": 6052,
      "UtilsDiag": 6053,
      "LibUtilsDiag": 6054,
      "Mdm": 6055,
      "someip": 6056,
      "AutCntry": 6057,
      "NoiseEmiFanAutCntry": 6058,
      "ustik": 6059,
      "Akustik": 6060,
      "Anfr": 6061,
      "vTau": 6062,
      "Akustikbegrenzung": 6063,
      "BY": 6064,
      "106": 6065,
      "Efc": 6066,
      "ulator": 6067,
      "DmcTqzVsyInd": 6068,
      "lw": 6069,
      "Cond": 6070,
      "TqLimPt": 6071,
      "LimPwrDrv": 6072,
      "Ġfalse": 6073,
      "ReqStat": 6074,
      "Hog": 6075,
      "agRA": 6076,
      "Car": 6077,
      "Ue": 6078,
      "Ġreturn": 6079,
      "ELUEF": 6080,
      "ELUEFTER": 6081,
      "Td": 6082,
      "81": 6083,
      "Qly": 6084,
      "ChaEl": 6085,
      "TpeX": 6086,
      "Ġ99": 6087,
      "HI": 6088,
      "sfun": 6089,
      "ĠPre": 6090,
      "qual": 6091,
      "raft": 6092,
      "Ġcannot": 6093,
      "ĠRead": 6094,
      "WMM": 6095,
      "375": 6096,
      "DmcTqfCsDg": 6097,
      "DmcTqfCsBk": 6098,
      "DmcTqfCsDv": 6099,
      "PROD": 6100,
      "ReibwertNormDatAD": 6101,
      "PmOutIpbHvPth": 6102,
      "binca": 6103,
      "soc": 6104,
      "Fact": 6105,
      "HVPM": 6106,
      "Fbc": 6107,
      "toolchains": 6108,
      "Side": 6109,
      "WAY": 6110,
      "ĠEgoOut": 6111,
      "ĠA": 6112,
      "Pay": 6113,
      "QDMBS": 6114,
      "QDMMS": 6115,
      "MSA": 6116,
      "Term": 6117,
      "intr": 6118,
      "AfwActivation": 6119,
      "ause": 6120,
      "Ibazel": 6121,
      "stest": 6122,
      "TscFbc": 6123,
      "wcRA": 6124,
      "ote": 6125,
      "guelti": 6126,
      "Pres": 6127,
      "WERT": 6128,
      "Ki": 6129,
      "Lds": 6130,
      "ĠCodifyParametervPar": 6131,
      "DmcTqfFl": 6132,
      "pdus": 6133,
      "QlfVld": 6134,
      "AdaptFilt": 6135,
      "Ġrequired": 6136,
      "delta": 6137,
      "Ġrepresent": 6138,
      "Ssh": 6139,
      "degradation": 6140,
      "tqzd": 6141,
      "AxWhlLimDec": 6142,
      "intrp": 6143,
      "QU": 6144,
      "HvsErr": 6145,
      "Dynamics": 6146,
      "Anfrd": 6147,
      "RAD": 6148,
      "null": 6149,
      "500": 6150,
      "PecEgy": 6151,
      "nable": 6152,
      "mental": 6153,
      "Ġdepen": 6154,
      "included": 6155,
      "DcrSfTqzLimOut": 6156,
      "ENERGI": 6157,
      "Transformer": 6158,
      "ENERGIE": 6159,
      "temperature": 6160,
      "Rsm": 6161,
      "VehModeAdapter": 6162,
      "iqu": 6163,
      "ob": 6164,
      "idxRA": 6165,
      "BvaCbs": 6166,
      "DobsGmLag": 6167,
      "ick": 6168,
      "interfaces": 6169,
      "rules": 6170,
      "aktu": 6171,
      "ERUNG": 6172,
      "open": 6173,
      "plinlcreal": 6174,
      "Ġrepresentation": 6175,
      "Ġbec": 6176,
      "Ġrequest": 6177,
      "sxFA": 6178,
      "Ġboolean": 6179,
      "Ġbecause": 6180,
      "mung": 6181,
      "ĠDmcTqzInit": 6182,
      "EtmcDiag": 6183,
      "ODE": 6184,
      "timmung": 6185,
      "berstimmung": 6186,
      "FilterFehler": 6187,
      "CLIENT": 6188,
      "streckenbasiert": 6189,
      "Ueberstimmung": 6190,
      "bound": 6191,
      "AcoPcg": 6192,
      "Health": 6193,
      "ĠLhmEd": 6194,
      "Ġbmw": 6195,
      "llib": 6196,
      "urllib": 6197,
      "DsAcc": 6198,
      "Entprellung": 6199,
      "QUE": 6200,
      "kl": 6201,
      "REQUE": 6202,
      "wnkl": 6203,
      "DtcClear": 6204,
      "DrivingReadiness": 6205,
      "ĠProgress": 6206,
      "iquote": 6207,
      "PT": 6208,
      "Dev": 6209,
      "auth": 6210,
      "95": 6211,
      "Crash": 6212,
      "da": 6213,
      "mel": 6214,
      "MoMax": 6215,
      "DmcTqfSpr": 6216,
      "meldet": 6217,
      "sistency": 6218,
      "LookUpAxis": 6219,
      "Cls": 6220,
      "core": 6221,
      "UEBERTEMP": 6222,
      "ties": 6223,
      "project": 6224,
      "DmcTqzCaTpe": 6225,
      "ĠHTT": 6226,
      "connectionpool": 6227,
      "ĠHTTP": 6228,
      "experi": 6229,
      "concurrent": 6230,
      "seri": 6231,
      "BYTE": 6232,
      "DcrAvlSprAc": 6233,
      "Gn": 6234,
      "Ġindex": 6235,
      "itr": 6236,
      "Precision": 6237,
      "MinRng": 6238,
      "DmcTqxFfy": 6239,
      "Drehza": 6240,
      "Dft": 6241,
      "sm": 6242,
      "Struct": 6243,
      "DcrSfActGateMon": 6244,
      "projectId": 6245,
      "157": 6246,
      "87": 6247,
      "Weck": 6248,
      "hist": 6249,
      "sented": 6250,
      "loc": 6251,
      "ĠCVAR": 6252,
      "orie": 6253,
      "LossOf": 6254,
      "HvPthDiag": 6255,
      "GradUp": 6256,
      "SysIvtr": 6257,
      "ĠdataObject": 6258,
      "DmcTqzDacFfy": 6259,
      "Ġrepresented": 6260,
      "ShortTerm": 6261,
      "PrecisionCheck": 6262,
      "Weckhist": 6263,
      "LossOfPrecisionCheck": 6264,
      "ShortTermAdjustment": 6265,
      "Weckhistorie": 6266,
      "ates": 6267,
      "stell": 6268,
      "Drift": 6269,
      "Ob": 6270,
      "UKTION": 6271,
      "VehSpd": 6272,
      "Corr": 6273,
      "Heat": 6274,
      "*****": 6275,
      "*************": 6276,
      "SMASSE": 6277,
      "PRODUKTION": 6278,
      "authKey": 6279,
      "PRODUKTIONSMASSE": 6280,
      "Ġph": 6281,
      "ĠWc": 6282,
      "CVAR": 6283,
      "qg": 6284,
      "DmcTqzFbyFx": 6285,
      "unknown": 6286,
      "Weight": 6287,
      "DmcTqzFbyFxTc": 6288,
      "Ġtask": 6289,
      "104": 6290,
      "tmp": 6291,
      "QdmMueIn": 6292,
      "HvStrIso": 6293,
      "PLSE": 6294,
      "EWPLSE": 6295,
      "Ġphysical": 6296,
      "BMWcif": 6297,
      "DsSfBrk": 6298,
      "96": 6299,
      "EEprom": 6300,
      "TqWhl": 6301,
      "WcErr": 6302,
      "PtTqWhl": 6303,
      "PmAxl": 6304,
      "HvsCha": 6305,
      "HvsDtcReas": 6306,
      "artb": 6307,
      "LashThreshold": 6308,
      "MaskDeact": 6309,
      "DcrTqpPt": 6310,
      "DgraDisp": 6311,
      "FrctLoFds": 6312,
      "FrctHiFds": 6313,
      "DtcHex": 6314,
      "SelectU": 6315,
      "StdPecChaResp": 6316,
      "StdPecChaRespdata": 6317,
      "EcoPecChaResp": 6318,
      "EcoPecChaRespdata": 6319,
      "BoosPecChaResp": 6320,
      "BoosPecChaRespdata": 6321,
      "SfActGate": 6322,
      "PecEgyOpt": 6323,
      "experimental": 6324,
      "FD": 6325,
      "Tbl": 6326,
      "Trigger": 6327,
      "TblData": 6328,
      "Llim": 6329,
      "Day": 6330,
      "Pwm": 6331,
      "vIndex": 6332,
      "Ġecu": 6333,
      "ĠLoss": 6334,
      "Invtr": 6335,
      "Ġexac": 6336,
      "PtStgy": 6337,
      "ĠCurrent": 6338,
      "HvStrInvtr": 6339,
      "WishStat": 6340,
      "prevIndex": 6341,
      "DrDmDiag": 6342,
      "DmcTqzVsyHit": 6343,
      "ĠPrecision": 6344,
      "Ġexactly": 6345,
      "HvStrInvtrEm": 6346,
      "LimnWhl": 6347,
      "84": 6348,
      "LdpLimMinDyn": 6349,
      "ReturnValueE": 6350,
      "DsSfAccRecuBrk": 6351,
      "ĠAktHsrKa": 6352,
      "Ġsupports": 6353,
      "spec": 6354,
      "Can": 6355,
      "Eep": 6356,
      "PRM": 6357,
      "ĠDE": 6358,
      "Reqd": 6359,
      "PosDampDesGradRel": 6360,
      "QdmOdoModel": 6361,
      "DynamicData": 6362,
      "NOS": 6363,
      "Ġyour": 6364,
      "devtools": 6365,
      "task": 6366,
      "SfBa": 6367,
      "links": 6368,
      ">::": 6369,
      "ĠUE": 6370,
      "ĠITF": 6371,
      "ĠCodifyCodingParameterReference": 6372,
      "HomologationSupported": 6373,
      "ĠrelevantForHomologation": 6374,
      "PtmWish": 6375,
      "DmcTqfRq": 6376,
      "pwrFA": 6377,
      "pwrRA": 6378,
      "Ġdont": 6379,
      "bertemperatur": 6380,
      "MonitoringPxLIN": 6381,
      "DcrSfAxLimHillCmp": 6382,
      "VoltageOutOf": 6383,
      "TemperaturePxLIN": 6384,
      "OverCurrent": 6385,
      "OverTemperaturePxLIN": 6386,
      "SpeedMonitoringPxLIN": 6387,
      "CodingParameterReferenceCVAR": 6388,
      "ĠOvertemperature": 6389,
      "CodifyCodingParameterReferenceCVAR": 6390,
      "RangePxLIN": 6391,
      "DryRunPxLIN": 6392,
      "ĠsupportsHomologation": 6393,
      "ĠUEbertemperatur": 6394,
      "ĠCodifyCodingParameterReferenceCodifyCodingParameterReferenceCVAR": 6395,
      "HomologationSupportedCheck": 6396,
      "PtmWishEd": 6397,
      "VoltageOutOfRangePxLIN": 6398,
      "OverCurrentPxLIN": 6399,
      "Kc": 6400,
      "List": 6401,
      "bindings": 6402,
      "itration": 6403,
      "OperatingModeFuelCellSystemAct": 6404,
      "SlpPrevn": 6405,
      "dot": 6406,
      "644": 6407,
      "Fdr": 6408,
      "Ġupdate": 6409,
      "tell": 6410,
      "learn": 6411,
      "letz": 6412,
      "olsperre": 6413,
      "ĠField": 6414,
      "ĠWied": 6415,
      "mapdal": 6416,
      "ellen": 6417,
      "ĠStatusParkingBrakeIbSmartAct": 6418,
      "DcrSfActGateLim": 6419,
      "Boardnet": 6420,
      "LossPredFis": 6421,
      "erholsperre": 6422,
      "SumLimFis": 6423,
      "LossActFis": 6424,
      "aktuellen": 6425,
      "doto": 6426,
      "letzen": 6427,
      "ĠWiederholsperre": 6428,
      "Full": 6429,
      "Ġincor": 6430,
      "KooVaSaA": 6431,
      "porates": 6432,
      "Ġincorporates": 6433,
      "Ġbefore": 6434,
      "Ġseconds": 6435,
      "operation": 6436,
      "DcrDiagTstStatus": 6437,
      "DcrSfTqzLimBTqzLim": 6438,
      "reports": 6439,
      "DynamicsEnum": 6440,
      "Ġrequesting": 6441,
      "HED": 6442,
      "Hr": 6443,
      "SN": 6444,
      "PLAN": 6445,
      "Funktionale": 6446,
      "GING": 6447,
      "Ġfe": 6448,
      "Kraft": 6449,
      "OEff": 6450,
      "bedingung": 6451,
      "clo": 6452,
      "nen": 6453,
      "oberer": 6454,
      "ĠAbfahrtszeit": 6455,
      "ĠReasonOfRenegotiation": 6456,
      "ĠButtonStatusChargingFlapClass": 6457,
      "ĠREQUE": 6458,
      "tiali": 6459,
      "tierung": 6460,
      "alten": 6461,
      "ĠFreigabe": 6462,
      "essen": 6463,
      "unterer": 6464,
      "ĠCodifyEnumDataTypeVehicleMileage": 6465,
      "ĠCodifyEnumDataTypeEvent": 6466,
      "ĠCodifyEnumDataTypeReasonOfRenegotiation": 6467,
      "ĠCodifyEnumDataTypeButtonStatusChargingFlapClass": 6468,
      "PARTURE": 6469,
      "ĠIniti": 6470,
      "ĠIntell": 6471,
      "liessen": 6472,
      "NOTIFIC": 6473,
      "ĠQuVehicleMileageSegmentEnum": 6474,
      "ĠCodifyEnumDataTypeQuVehicleMileageSegmentEnum": 6475,
      "limitierung": 6476,
      "ACHED": 6477,
      "sschalten": 6478,
      "EgoMobsMu": 6479,
      "PwrMtrDisp": 6480,
      "ĠChargingQualityPlcCommunicationAvailableProtocolsEnum": 6481,
      "RED": 6482,
      "REACHED": 6483,
      "ausschalten": 6484,
      "ĠStatusCenterLockingSystemEnum": 6485,
      "ĠStatusDisconnectionSwitchLT": 6486,
      "ĠCodifyEnumDataTypeStatusCenterLockingSystemEnum": 6487,
      "ĠCodifyEnumDataTypeStatusDisconnectionSwitchLT": 6488,
      "Sho": 6489,
      "Schliessen": 6490,
      "schalten": 6491,
      "ĠVehicleMileage": 6492,
      "idxFA": 6493,
      "beendet": 6494,
      "ĠCodifyEnumDataTypeChargingQualityPlcCommunicationAvailableProtocolsEnum": 6495,
      "STED": 6496,
      "ĠLademodus": 6497,
      "ĠLadeende": 6498,
      "igente": 6499,
      "Regula": 6500,
      "PIRED": 6501,
      "einschalten": 6502,
      "Automatisch": 6503,
      "funktionale": 6504,
      "BETRIEB": 6505,
      "EXPIRED": 6506,
      "ĠEventStatusEnum": 6507,
      "starten": 6508,
      "Rahmenbedingung": 6509,
      "PROGNOS": 6510,
      "CHARGING": 6511,
      "opening": 6512,
      "ĠDEPARTURE": 6513,
      "Kraftlimitierung": 6514,
      "OEffnen": 6515,
      "closing": 6516,
      "ĠREQUESTED": 6517,
      "tialisierung": 6518,
      "ĠCodifyEnumDataTypeVehicleMileageManipulationStateEnum": 6519,
      "ĠCodifyEnumDataTypeEventStatusEnum": 6520,
      "ĠInititialisierung": 6521,
      "ĠIntelligente": 6522,
      "NOTIFICATION": 6523,
      "ĠVehicleMileageManipulationStateEnum": 6524,
      "ĠLadeendeZeit": 6525,
      "Regulaeres": 6526,
      "Rahmenbedingungen": 6527,
      "PROGNOSIS": 6528,
      "CHARGINGPLAN": 6529,
      "CC": 6530,
      "ped": 6531,
      "Eeprom": 6532,
      "Tick": 6533,
      "Action": 6534,
      "DecSp": 6535,
      "RES": 6536,
      "fClustUstuetzGrenzberchEnum": 6537,
      "QdmLefGmk": 6538,
      "Engine": 6539,
      "AVA": 6540,
      "GRENZBETRIEB": 6541,
      "Arbitration": 6542,
      "serialization": 6543,
      "FAN": 6544,
      "parser": 6545,
      "issing": 6546,
      "CODE": 6547,
      "DcrAvlMgrSt": 6548,
      "ENG": 6549,
      "Seld": 6550,
      "238": 6551,
      "Ret": 6552,
      "NotRequested": 6553,
      "ĠCodifyEnumDataTypeStatusParkingBrakeIbSmartAct": 6554,
      "ĠCodifyEnumDataTypeParkingBrakeFaultStatusIbSmartAct": 6555,
      "ĠCodifyEnumDataTypeParkingBrakeParkSupportRequestIbSmartAct": 6556,
      "ĠCodifyEnumDataTypeParkingBrakeMaintenanceState": 6557,
      "ĠCodifyEnumDataTypeParkingBrakeAssemblyState": 6558,
      "ĠCodifyEnumDataTypeParkingBrakeFaultMessageIbSmartAct": 6559,
      "ĠParkingBrakeFaultStatusIbSmartAct": 6560,
      "ĠParkingBrakeParkSupportRequestIbSmartAct": 6561,
      "ĠParkingBrakeMaintenanceState": 6562,
      "ĠParkingBrakeAssemblyState": 6563,
      "ĠParkingBrakeFaultMessageIbSmartAct": 6564,
      "DmcTqzFfydPhiHys": 6565,
      "ĠePbcParkSupportRequested": 6566,
      "ĠePbcParkSupportNotRequested": 6567,
      "UTO": 6568,
      "ash": 6569,
      "TqMaxDyn": 6570,
      "LimCalc": 6571,
      "DrvSp": 6572,
      "CoCptDrvIn": 6573,
      "Evt": 6574,
      "LdpLimTqMaxDyn": 6575,
      "Intake": 6576,
      "TmpNotAvl": 6577,
      "AVAIL": 6578,
      "^~~~~~~~": 6579,
      "Deactivation": 6580,
      "DchaHvs": 6581,
      "KooVaFkt": 6582,
      "DmcLsdFacRA": 6583,
      "DmcWcAuxStiffScxAcc": 6584,
      "connector": 6585,
      "Ġ40": 6586,
      "REIB": 6587,
      "LhmEdDiag": 6588,
      "SCHREIB": 6589,
      "IncDec": 6590,
      "ChaFlpRi": 6591,
      "SCHREIBEN": 6592,
      "NR": 6593,
      "FSP": 6594,
      "Gdn": 6595,
      "HL": 6596,
      "Nom": 6597,
      "WcMscFs": 6598,
      "Exi": 6599,
      "achs": 6600,
      "LvlShdn": 6601,
      "DcChaChgr": 6602,
      "WcCaTd": 6603,
      "Dpa": 6604,
      "DmcTqzFbyFacFfyd": 6605,
      "LgGdn": 6606,
      "DlyOnVehModeRst": 6607,
      "ThdVehModeSet": 6608,
      "ThdVehModeRst": 6609,
      "RlIntRefI": 6610,
      "Lmv": 6611,
      "LvlShdnManipVal": 6612,
      "ĠActive": 6613,
      "LongitudinalDynamicsEnum": 6614,
      "LdpTqaDampDes": 6615,
      "ApplyTargetValue": 6616,
      "DOP": 6617,
      "ĠStandstillPermantlyWithParkingBrake": 6618,
      "ControlStateTargetLongitudinalDynamicsEnum": 6619,
      "ĠActiveApplyTargetValue": 6620,
      "bzl": 6621,
      "KU": 6622,
      "Sq": 6623,
      "enn": 6624,
      "Coe": 6625,
      "139": 6626,
      "BETRIEBS": 6627,
      "VL": 6628,
      "Ġ[<": 6629,
      "142": 6630,
      "242": 6631,
      "Rbf": 6632,
      "QdmKooVAModel": 6633,
      "ĠCoCptHvs": 6634,
      "Ġcondition": 6635,
      "ĠOBDEngSignalstate": 6636,
      "Opr": 6637,
      "ĠCodifySignalOBDEngSignalstate": 6638,
      "Values": 6639,
      "ApdMMaster": 6640,
      "WraCloud": 6641,
      "ApdMMasterSm": 6642,
      "232": 6643,
      "Tx": 6644,
      "Wun": 6645,
      "Ġthermal": 6646,
      "CONDITIONSCORRECT": 6647,
      "SnsAcpdDiag": 6648,
      ">],": 6649,
      "Context": 6650,
      "CplModOffs": 6651,
      "EmuCplModOffs": 6652,
      "MISSING": 6653,
      "ABILITY": 6654,
      "VI": 6655,
      "Koorfv": 6656,
      "crash": 6657,
      "LdpTqaDesUnfild": 6658,
      "Vectdata": 6659,
      "Notification": 6660,
      "special": 6661,
      "DsAwd": 6662,
      "wwRL": 6663,
      "wwFL": 6664,
      "Messung": 6665,
      "Ġadd": 6666,
      "tegr": 6667,
      "DcrOutInit": 6668,
      "specialmode": 6669,
      "echn": 6670,
      "FLM": 6671,
      "echnung": 6672,
      "Sim": 6673,
      "PtAvl": 6674,
      "INT": 6675,
      "binlcassreal": 6676,
      "NextDcy": 6677,
      "Tp": 6678,
      "hold": 6679,
      "kenn": 6680,
      "ENUM": 6681,
      "ORY": 6682,
      "keit": 6683,
      "AxlDcha": 6684,
      "ButtonAvailable": 6685,
      "Ġ^~~~~~~~~~~~": 6686,
      "VorgabeAera": 6687,
      "kennung": 6688,
      "DecMueLo": 6689,
      "anged": 6690,
      "PmOutFcs": 6691,
      "SnsTfeZ": 6692,
      "Mean": 6693,
      "FiltQ": 6694,
      "DobsFiltQ": 6695,
      "bflftf": 6696,
      "ElHtr": 6697,
      "tun": 6698,
      "ĠAcDc": 6699,
      "ĠCodifyParameterAktHsr": 6700,
      "136": 6701,
      "ĠStatusAcDcDetectionClass": 6702,
      "ĠCodifyEnumDataTypeStatusAcDcDetectionClass": 6703,
      "Traction": 6704,
      "serkennung": 6705,
      "GenMax": 6706,
      "LdpSspPiaFunction": 6707,
      "DmcLtpMs": 6708,
      "tivities": 6709,
      "BasHvsCdngDrvg": 6710,
      "Spannungserkennung": 6711,
      "Braking": 6712,
      "ChaPoiChgrCcs": 6713,
      "ELMaFw": 6714,
      "LdpSspPiaFunctionEPB": 6715,
      "std": 6716,
      "activities": 6717,
      "Gnss": 6718,
      "148": 6719,
      "Lev": 6720,
      "93": 6721,
      "Or": 6722,
      "cv": 6723,
      "andom": 6724,
      "ils": 6725,
      "StMac": 6726,
      "DecMueHi": 6727,
      "133": 6728,
      "WcEtfSumFA": 6729,
      "WcEtfSumRA": 6730,
      "WcEtfSumRL": 6731,
      "WcEtfSumRR": 6732,
      "WcEtfSumFL": 6733,
      "WcEtfSumFR": 6734,
      "tunnel": 6735,
      "230": 6736,
      "614": 6737,
      "Vdm": 6738,
      "CHECK": 6739,
      "ĠAff": 6740,
      "MaxDiff": 6741,
      "DcrSfAxLimLimCalc": 6742,
      "AvlReaDisplay": 6743,
      "DmcTqzToKcxSp": 6744,
      "AvlSprPowertrain": 6745,
      "DmcTqzVsyIndCs": 6746,
      "HealthCheck": 6747,
      "AvlSprPowertrainHealthCheck": 6748,
      "DcdFnc": 6749,
      "AcdFnc": 6750,
      "140": 6751,
      "LimDyn": 6752,
      "RateLim": 6753,
      "ChaPortDc": 6754,
      "ChannelHandler": 6755,
      "pedal": 6756,
      "ChannelHandlerContext": 6757,
      "RADI": 6758,
      "HvsDcha": 6759,
      "Split": 6760,
      "LaneBoundary": 6761,
      "UELL": 6762,
      "Qls": 6763,
      "Ġplease": 6764,
      "Pdu": 6765,
      "TmErr": 6766,
      "WcCaFsFA": 6767,
      "Ntf": 6768,
      "Rtc": 6769,
      "cn": 6770,
      "env": 6771,
      "resi": 6772,
      "Rebound": 6773,
      "DcrLim": 6774,
      "ChaLossPred": 6775,
      "EmPt": 6776,
      "ErrDisp": 6777,
      "ManipSw": 6778,
      "ManipSx": 6779,
      "libs": 6780,
      "ReqEna": 6781,
      "NoTqReq": 6782,
      "Tire": 6783,
      "TiDis": 6784,
      "LdpCrpPiaFunction": 6785,
      "DchaLossPred": 6786,
      "ChgTrig": 6787,
      "Compression": 6788,
      "LossMax": 6789,
      "MotMax": 6790,
      "RstEna": 6791,
      "ĠCoCptHP": 6792,
      "HtrLossReq": 6793,
      "ĠAktHsrSer": 6794,
      "field": 6795,
      "EmMaxMo": 6796,
      "RlIntRefP": 6797,
      "packageSignatureSessAuthdata": 6798,
      "SftySrvReqEts": 6799,
      "CrshShdnEm": 6800,
      "MaxStatFis": 6801,
      "DtcHexEm": 6802,
      "Ntfcn": 6803,
      "NoTqReqEm": 6804,
      "LdpCrpPiaFunctionAutoHold": 6805,
      "pw": 6806,
      "prox": 6807,
      "ĠMissing": 6808,
      "124": 6809,
      "Ġmem": 6810,
      "--": 6811,
      "oid": 6812,
      "IBrake": 6813,
      "Km": 6814,
      "ydraulic": 6815,
      "FunctionEnum": 6816,
      "BrakeFunctionEnum": 6817,
      "Postcrash": 6818,
      "Progress": 6819,
      "DynamicBrakeFunctionEnum": 6820,
      "ĠHydraulic": 6821,
      "Hydraulic": 6822,
      "IBrakeEnum": 6823,
      "PostcrashIBrakeEnum": 6824,
      "HydraulicDynamicBrakeFunctionEnum": 6825,
      "fz": 6826,
      "ute": 6827,
      "Ġ~~~~~~~~~~~~~~~^~~~~~~~": 6828,
      "laufen": 6829,
      "durchlaufen": 6830,
      "scala": 6831,
      "dh": 6832,
      "PecDrvgReq": 6833,
      "DsmEna": 6834,
      "FadeGrad": 6835,
      "Mngt": 6836,
      "AFT": 6837,
      "UL": 6838,
      "Ener": 6839,
      "Hachs": 6840,
      "eff": 6841,
      "TqTnsdLim": 6842,
      "ChaReq": 6843,
      "EgoMotion": 6844,
      "STAND": 6845,
      "Strt": 6846,
      "DmcTqzFbyPdTc": 6847,
      "DmcTqzToKcxDelta": 6848,
      "Gbx": 6849,
      "Isolation": 6850,
      "WhlTq": 6851,
      "1317": 6852,
      "ZeroWhlTq": 6853,
      "Bn": 6854,
      "variable": 6855,
      "Ġmax": 6856,
      "Agw": 6857,
      "1302": 6858,
      "NA": 6859,
      "DcrCfgAvl": 6860,
      "Wunused": 6861,
      "Eh": 6862,
      "FUELL": 6863,
      "Mtl": 6864,
      "sport": 6865,
      "StatusConditionVehicle": 6866,
      "automatic": 6867,
      "DmcTqfRqAwdPa": 6868,
      "BEFUELL": 6869,
      "EmReqDyn": 6870,
      "Ehc": 6871,
      "BEFUELLUNG": 6872,
      "Ġinste": 6873,
      "IGEN": 6874,
      "FEATURE": 6875,
      "Ġinstead": 6876,
      "EIGEN": 6877,
      "Kay": 6878,
      "SAR": 6879,
      "rein": 6880,
      "lupf": 6881,
      "lowV": 6882,
      "DrvgRls": 6883,
      "Schlupf": 6884,
      "tqzs": 6885,
      "AbstractChannelHandlerContext": 6886,
      "PidScaleKi": 6887,
      "TarValTransf": 6888,
      "UTOSAR": 6889,
      "EIGENFEHLER": 6890,
      "ROM": 6891,
      "BrkOsClnObs": 6892,
      "BRU": 6893,
      "SnsDrp": 6894,
      "Left": 6895,
      "ToECU": 6896,
      "ControlToECU": 6897,
      "ABBRU": 6898,
      "ReturnControlToECU": 6899,
      "LESEN": 6900,
      "Ġ~~~~~~~~~~~~~": 6901,
      "EtsSample": 6902,
      "ABBRUCH": 6903,
      "Lng": 6904,
      "Ġmore": 6905,
      "HighVoltage": 6906,
      "Scal": 6907,
      "Tex": 6908,
      "avl": 6909,
      "ĠRecu": 6910,
      "ĠBrpd": 6911,
      "ĠDSC": 6912,
      "thint": 6913,
      "ĠPower": 6914,
      "ĠMdm": 6915,
      "DisplayRequested": 6916,
      "ĠStatusAutoHold": 6917,
      "ĠCodifyEnumDataTypeStatusAutoHold": 6918,
      "AgileAccelerationEnum": 6919,
      "AgileDecelerationEnum": 6920,
      "RecuEnum": 6921,
      "targetDisplayRequested": 6922,
      "DBC": 6923,
      "EngEnum": 6924,
      "ResponseEnum": 6925,
      "BrpdEnum": 6926,
      "ĠTC": 6927,
      "ĠActualValueMSetupSettingAgile": 6928,
      "THRV": 6929,
      "ĠCodifyEnumDataTypeActualValueMSetupSettingAgile": 6930,
      "PRUEFSTAND": 6931,
      "ROLLENPRUEFSTAND": 6932,
      "MdmEnum": 6933,
      "PRMSN": 6934,
      "ButtonAvailableEnum": 6935,
      "TractionEnum": 6936,
      "Texthint": 6937,
      "targetDisplayRequestedSpeedHDC": 6938,
      "TexthintEnum": 6939,
      "Incl": 6940,
      "PtmOpMode": 6941,
      "AccMueLo": 6942,
      "FfEolDiag": 6943,
      "WcEtfFfcFA": 6944,
      "WcEtfFfcRA": 6945,
      "WcEtfFfcRL": 6946,
      "WcEtfFfcRR": 6947,
      "WcEtfFfcFL": 6948,
      "WcEtfFfcFR": 6949,
      "HvOnPenthouse": 6950,
      "Bot": 6951,
      "Cap": 6952,
      "Optm": 6953,
      "acity": 6954,
      "WhlTick": 6955,
      "ĠCodifySignalDcrOut": 6956,
      "TherBrk": 6957,
      "KUEHL": 6958,
      "Capacity": 6959,
      "DrvCoding": 6960,
      "Lcl": 6961,
      "hot": 6962,
      "pass": 6963,
      "Ġrule": 6964,
      "MANIP": 6965,
      "Sc": 6966,
      "provi": 6967,
      "config": 6968,
      "Kop": 6969,
      "Mpl": 6970,
      "Integr": 6971,
      "AccMueHi": 6972,
      "DcrAvlMgrAb": 6973,
      "nosis": 6974,
      "ĠConfiguration": 6975,
      "DmcTqModVdLim": 6976,
      "PmOutFarCmn": 6977,
      "adp": 6978,
      "cold": 6979,
      "ForFast": 6980,
      "Ġvoid": 6981,
      "ChargingEnum": 6982,
      "StatusHighVoltage": 6983,
      "Ġ06": 6984,
      "IsoMeas": 6985,
      "MaxTrustFz": 6986,
      "StcTq": 6987,
      "AktHsrKaSync": 6988,
      "BatteryForFast": 6989,
      "Ġconditional": 6990,
      "StatusHighVoltageBatteryForFast": 6991,
      "StatusHighVoltageBatteryForFastChargingEnum": 6992,
      "Ok": 6993,
      "alb": 6994,
      "sserh": 6995,
      "ALL": 6996,
      "ausserh": 6997,
      "DcrSfDiagCcm": 6998,
      "bereichs": 6999,
      "ChaPortAc": 7000,
      "Wertebereichs": 7001,
      "gueltigen": 7002,
      "ausserhalb": 7003,
      "715": 7004,
      "UG": 7005,
      "ual": 7006,
      "ĠLe": 7007,
      "318": 7008,
      "Obd": 7009,
      "154": 7010,
      "SCHAFT": 7011,
      "158": 7012,
      "dRA": 7013,
      "BpsDisp": 7014,
      "ee": 7015,
      "rDyn": 7016,
      "AcLaden": 7017,
      "dpB": 7018,
      "ĠCodifyEnumDataTypeHvCha": 7019,
      "isMaster": 7020,
      "ErrAmp": 7021,
      "CptPron": 7022,
      "CcmEna": 7023,
      "DcrTqlWhl": 7024,
      "CntThr": 7025,
      "ToutDtc": 7026,
      "isMasterData": 7027,
      "Att": 7028,
      "uck": 7029,
      "Inh": 7030,
      "betad": 7031,
      "ATOR": 7032,
      "250": 7033,
      "DATORY": 7034,
      "PreProcessing": 7035,
      "MANDATORY": 7036,
      "FEATURES": 7037,
      "779": 7038,
      "Num": 7039,
      "QdmBsModel": 7040,
      "ElFanRqrt": 7041,
      "dPwr": 7042,
      "ception": 7043,
      "DstrTq": 7044,
      "CrtdPwr": 7045,
      "diag": 7046,
      "DcrInSm": 7047,
      "TqLimEmFA": 7048,
      "TqLimEmRA": 7049,
      "TqLimEmRL": 7050,
      "TqLimEmRR": 7051,
      "TqLimEmFL": 7052,
      "TqLimEmFR": 7053,
      "OperationMode": 7054,
      "WcCaFsRA": 7055,
      "Nds": 7056,
      "YC": 7057,
      "PmOutIpbPtm": 7058,
      "AktHsrSerErr": 7059,
      "FAHRBEREITSCHAFT": 7060,
      "ĠPro": 7061,
      "145": 7062,
      "BG": 7063,
      "Ġfa": 7064,
      "Information": 7065,
      "SfBrk": 7066,
      "LoLimd": 7067,
      "EgoOutWrRouting": 7068,
      "OPEN": 7069,
      "135": 7070,
      "Mid": 7071,
      "acvn": 7072,
      "astas": 7073,
      "sti": 7074,
      "146": 7075,
      "CFa": 7076,
      "RET": 7077,
      "eb": 7078,
      "DivC": 7079,
      "DrvCha": 7080,
      "DmcTqxSum": 7081,
      "lincp": 7082,
      "URN": 7083,
      "Ġmappings": 7084,
      "EtmcHtFctReq": 7085,
      "CFaDivC": 7086,
      "RETURN": 7087,
      "CFaDivCRa": 7088,
      "FAD": 7089,
      "DW": 7090,
      "Eps": 7091,
      "bb": 7092,
      "Ġmand": 7093,
      "atory": 7094,
      "PmOutMpl": 7095,
      "network": 7096,
      "DsRecuLimGnr": 7097,
      "Ġfeatures": 7098,
      "Ġmandatory": 7099,
      "244": 7100,
      "ĠAb": 7101,
      "DrvMin": 7102,
      "bruch": 7103,
      "ĠUnit": 7104,
      "ĠAbbruch": 7105,
      "BYP": 7106,
      "LdpLock": 7107,
      "HillCmpDn": 7108,
      "AuxCnrCns": 7109,
      "BYPASS": 7110,
      "Aag": 7111,
      "DcrInAag": 7112,
      "DmcPaTq": 7113,
      "TrtlDisp": 7114,
      "HvsCellCore": 7115,
      "bincka": 7116,
      "Bere": 7117,
      "Wo": 7118,
      "hlf": 7119,
      "uerung": 7120,
      "ĠHVS": 7121,
      "inschraenkung": 7122,
      "ente": 7123,
      "onente": 7124,
      "anste": 7125,
      "Ġport": 7126,
      "uehl": 7127,
      "icCapacity": 7128,
      "seinschraenkung": 7129,
      "Modi": 7130,
      "lization": 7131,
      "ermicCapacity": 7132,
      "omponente": 7133,
      "ĠKomponente": 7134,
      "MaxElFanRqrt": 7135,
      "ungseinschraenkung": 7136,
      "istungseinschraenkung": 7137,
      "ĠUnterer": 7138,
      "Befuell": 7139,
      "SftyMaxElFanRqrt": 7140,
      "AcoCmpr": 7141,
      "Sollanste": 7142,
      "Utilization": 7143,
      "HEATER": 7144,
      "HEATING": 7145,
      "CoLvlPlau": 7146,
      "HeatEnum": 7147,
      "VIA": 7148,
      "RADIATOR": 7149,
      "ĠLeistungseinschraenkung": 7150,
      "OperationModeHeatEnum": 7151,
      "Bereich": 7152,
      "Wohlf": 7153,
      "uehltemperaturbereich": 7154,
      "ermicCapacityUtilization": 7155,
      "Sollansteuerung": 7156,
      "Wohlfuehltemperaturbereich": 7157,
      "ermicCapacityUtilizationHvsEnum": 7158,
      "with": 7159,
      "ĠAn": 7160,
      "aly": 7161,
      "soft": 7162,
      "graded": 7163,
      "WishDyn": 7164,
      "ZEUG": 7165,
      "Lenkwnkl": 7166,
      "DrvDchaStat": 7167,
      "Sat": 7168,
      "LimDrv": 7169,
      "159": 7170,
      "FCS": 7171,
      "Ġjava": 7172,
      "less": 7173,
      "HvsCo": 7174,
      "DCDC": 7175,
      "FacDhDot": 7176,
      "Seln": 7177,
      "672": 7178,
      "Fn": 7179,
      "QUER": 7180,
      "VEL": 7181,
      "ĠConsum": 7182,
      "olic": 7183,
      "facFL": 7184,
      "ActArb": 7185,
      "RAVEL": 7186,
      "Node": 7187,
      "FcsTar": 7188,
      "FAHRZEUG": 7189,
      "DmcTqfSitComSts": 7190,
      "LAENG": 7191,
      "olicy": 7192,
      "Ssp": 7193,
      "Payload": 7194,
      "248": 7195,
      "Ġmin": 7196,
      "ĠDefaulting": 7197,
      "Cnvn": 7198,
      "ux": 7199,
      "Ġ^~~~~~~~~~~~~~~~~~~~~~~~~~~~~~~~~~~~~~~~~~~~": 7200,
      "Ġonly": 7201,
      "144": 7202,
      "247": 7203,
      "QM": 7204,
      "degraded": 7205,
      "DmcScxCmn": 7206,
      "................................": 7207,
      "Ġactual": 7208,
      "enze": 7209,
      "ftEna": 7210,
      "Grenze": 7211,
      "ShftEna": 7212,
      "bazelrc": 7213,
      "dou": 7214,
      "ApdMDiag": 7215,
      "EgoHlsDiag": 7216,
      "CYC": 7217,
      "pas": 7218,
      "Degy": 7219,
      "DcrAvlSprAcBrk": 7220,
      "Simulator": 7221,
      "SfBaEd": 7222,
      "fn": 7223,
      "chine": 7224,
      "NoTrlr": 7225,
      "SetCha": 7226,
      "HeartDia": 7227,
      "zing": 7228,
      "ComTest": 7229,
      "DmcTqzFbyErrPdFx": 7230,
      "tn": 7231,
      "ĠDEBUG": 7232,
      "Phase": 7233,
      "Ġ~~~~~~~~~~~~~~^": 7234,
      "Prognosis": 7235,
      "Turn": 7236,
      "Bld": 7237,
      "ĠRS": 7238,
      "Management": 7239,
      "CLO": 7240,
      "Fuse": 7241,
      "LCYC": 7242,
      "Strain": 7243,
      "Trct": 7244,
      "CoEmReq": 7245,
      "EmWhl": 7246,
      "EmLoss": 7247,
      "yManip": 7248,
      "ManipValue": 7249,
      "SbwHex": 7250,
      "pctFA": 7251,
      "pctRA": 7252,
      "AktHsrIn": 7253,
      "qlstemp": 7254,
      "RawManipVal": 7255,
      "RawManipSwi": 7256,
      "ĠCodifyParameterBMW": 7257,
      "Stgc": 7258,
      "qlsi": 7259,
      "HtEm": 7260,
      "DcrAvlReaReqDtc": 7261,
      "PrcHex": 7262,
      "Cnsr": 7263,
      "LimMoDsSfAccRecu": 7264,
      "DmcWcAuxLimDec": 7265,
      "PnetReqDis": 7266,
      "PnetReqTiDis": 7267,
      "EgyStHvs": 7268,
      "FlrManipVal": 7269,
      "ChirpPhase": 7270,
      "Lowpass": 7271,
      "FasAcc": 7272,
      "DmcTqfFfxCfEff": 7273,
      "Slop": 7274,
      "ConstVal": 7275,
      "NonlinD": 7276,
      "LihoManipVal": 7277,
      "TripDestdata": 7278,
      "WwWhl": 7279,
      "OPENING": 7280,
      "CLOSING": 7281,
      "DcrAvlReaReqDtcErr": 7282,
      "Beta": 7283,
      "ite": 7284,
      "orrect": 7285,
      "Ġcorrect": 7286,
      "pdt": 7287,
      "Adp": 7288,
      "Random": 7289,
      "Ġunit": 7290,
      "Ġfailed": 7291,
      "portinterfaces": 7292,
      "Rmp": 7293,
      "Vmax": 7294,
      "ChargingPlan": 7295,
      "ChargingValues": 7296,
      "Adt": 7297,
      "ĠChargingPrognosis": 7298,
      "PostProcess": 7299,
      "DerRmp": 7300,
      "Ġ~~~~~~~~~~~~~~^~~~~~~~": 7301,
      "ChargingPlanReceivedEnum": 7302,
      "ChargingValuesReceivedEnum": 7303,
      "ĠChargingPrognosisSmartCharging": 7304,
      "137": 7305,
      "ZEN": 7306,
      "Wcd": 7307,
      "ush": 7308,
      "Ġautomati": 7309,
      "Push": 7310,
      "LimUp": 7311,
      "PciMaxRng": 7312,
      "FunctionDrive": 7313,
      "cally": 7314,
      "ached": 7315,
      "ĠUnits": 7316,
      "TqwBr": 7317,
      "ROU": 7318,
      "Ġautomatically": 7319,
      "Awc": 7320,
      "121": 7321,
      "Curve": 7322,
      "TscFfc": 7323,
      "LookUpCurve": 7324,
      "Download": 7325,
      "InfrQlf": 7326,
      "LAENGS": 7327,
      "Iup": 7328,
      "lg": 7329,
      "ĠPm": 7330,
      "trans": 7331,
      "ompFlt": 7332,
      "WhlAcc": 7333,
      "Fltr": 7334,
      "Iupw": 7335,
      "Imp": 7336,
      "access": 7337,
      "QdmMueFncCloud": 7338,
      "travel": 7339,
      "Ġcached": 7340,
      "1053": 7341,
      "ForDriver": 7342,
      "EmHtr": 7343,
      "axFA": 7344,
      "axRA": 7345,
      "StandstillFunction": 7346,
      "OperationStandstillFunction": 7347,
      "RampDeltaSp": 7348,
      "ĠRequestDrivingReadiness": 7349,
      "ĠRequestEngine": 7350,
      "AFW": 7351,
      "QUAL": 7352,
      "lessMode": 7353,
      "FunctionDriveEnum": 7354,
      "ForDriverlessMode": 7355,
      "ĠRequestEngineOperationStandstillFunction": 7356,
      "Si": 7357,
      "ĠEdh": 7358,
      "QdmWsModel": 7359,
      "RampDeltaSpMode": 7360,
      "540": 7361,
      "Tension": 7362,
      "ank": 7363,
      "ĠActuator": 7364,
      "DmcTqzPa": 7365,
      "BrkMax": 7366,
      "ĠStart": 7367,
      "Strgy": 7368,
      "WcBtfFs": 7369,
      "ReasonTension": 7370,
      "ĠStatusFirstTravelLearnMVxLIN": 7371,
      "ĠCodifyEnumDataTypeStatusFirstTravelLearnMVxLIN": 7372,
      "RequestEnum": 7373,
      "Door": 7374,
      "DcrSfActInQuad": 7375,
      "TINE": 7376,
      "ActCoProlModKop": 7377,
      "LdpLimMaxDynMaxRngStrgy": 7378,
      "learned": 7379,
      "ROUTINE": 7380,
      "ReasonTensionRequestEnum": 7381,
      "239": 7382,
      "ĠDO": 7383,
      "ChaOr": 7384,
      "Strs": 7385,
      "actions": 7386,
      "ROH": 7387,
      "AxWhlLimAcc": 7388,
      "DmcLsdFfyFA": 7389,
      "DmcLsdFfyRA": 7390,
      "BpsDynDrvgStrs": 7391,
      "DcrSfAxLimOvrAcc": 7392,
      "ĠDOTO": 7393,
      "ChaOrch": 7394,
      "ML": 7395,
      "gin": 7396,
      "Ġthan": 7397,
      "ures": 7398,
      "Runnable": 7399,
      "HS": 7400,
      "vLv": 7401,
      "DcuConf": 7402,
      "Pha": 7403,
      "SpdCurv": 7404,
      "StgyLim": 7405,
      "Manual": 7406,
      "CnsSpdCurv": 7407,
      "DmcTqzFbyRelTc": 7408,
      "CsigDcuConf": 7409,
      "nv": 7410,
      "plant": 7411,
      "TEST": 7412,
      "127": 7413,
      "EdhIn": 7414,
      "plantId": 7415,
      "Pls": 7416,
      "em": 7417,
      "Ġtext": 7418,
      "ChaVehCcs": 7419,
      "track": 7420,
      "DcrAvlReaLimPwr": 7421,
      "CoCptDrvOut": 7422,
      "SetpointModi": 7423,
      "NotificationBasi": 7424,
      "ĠminLength": 7425,
      "DcrAvlReaLimPwrPt": 7426,
      "SetpointModification": 7427,
      "ĠVertical": 7428,
      "asse": 7429,
      "ChaPlugLock": 7430,
      "ĠVerticalDynamicData": 7431,
      "Ll": 7432,
      "PtMod": 7433,
      "FacFAD": 7434,
      "Ber": 7435,
      "Vcg": 7436,
      "cpdt": 7437,
      "voll": 7438,
      "BrMueHi": 7439,
      "FanUi": 7440,
      "DmcRsaFfsPa": 7441,
      "wegen": 7442,
      "vollst": 7443,
      "Sicht": 7444,
      "vom": 7445,
      "geford": 7446,
      "itf": 7447,
      "fford": 7448,
      "171": 7449,
      "WcSfWsSrm": 7450,
      "Boolean": 7451,
      "Einschaltung": 7452,
      "Einschaltau": 7453,
      "gefordert": 7454,
      "fforderung": 7455,
      "Einschaltaufforderung": 7456,
      "IZ": 7457,
      "Ġ^~~~~~~~": 7458,
      "TqzErr": 7459,
      "Age": 7460,
      "Aus": 7461,
      "wwd": 7462,
      "ActiveAge": 7463,
      "MueSplit": 7464,
      "bute": 7465,
      "LimShaftProtect": 7466,
      "83": 7467,
      "incompatible": 7468,
      "094900": 7469,
      "SYSTEMCHECK": 7470,
      "PidKp": 7471,
      "long": 7472,
      "Ġ@": 7473,
      "134": 7474,
      "FunctionCoding": 7475,
      "BpsNavChaDest": 7476,
      "QdmBamFar": 7477,
      "reifen": 7478,
      "FAHRZEUGHOEHEN": 7479,
      "fraction": 7480,
      "141": 7481,
      "type": 7482,
      "facRL": 7483,
      "094907": 7484,
      "DmcTc": 7485,
      "1254": 7486,
      "generator": 7487,
      "FaAvlSt": 7488,
      "245": 7489,
      "CoSys": 7490,
      "151": 7491,
      "DmcTqzVsyIndMs": 7492,
      "EtmcDiagCoSys": 7493,
      "^~~~": 7494,
      "nMot": 7495,
      "sers": 7496,
      "Chc": 7497,
      "DcrTqpWhl": 7498,
      "ĠCodifyMapVEC": 7499,
      "SwComponent": 7500,
      "LimGnrDsSfAccRecu": 7501,
      "094855": 7502,
      "ChdCha": 7503,
      "UseAvlMgr": 7504,
      "PsidErr": 7505,
      "CoProlReq": 7506,
      "DcrInTrigSteuern": 7507,
      "WscMaxGraDn": 7508,
      "SwComponentTypes": 7509,
      "UseAvlMgrPtErr": 7510,
      "Edr": 7511,
      "EFAN": 7512,
      "Road": 7513,
      "Berechnung": 7514,
      "Foot": 7515,
      "Kd": 7516,
      "PtDisp": 7517,
      "Loop": 7518,
      "166": 7519,
      "169": 7520,
      "StatusConditionVehicleType": 7521,
      "FootDrvr": 7522,
      "617": 7523,
      "Kom": 7524,
      "Stab": 7525,
      "manager": 7526,
      "SfSbwIn": 7527,
      "results": 7528,
      "156": 7529,
      "DID": 7530,
      "dT": 7531,
      "gith": 7532,
      "xF": 7533,
      "LenkwnklHachs": 7534,
      "github": 7535,
      "DcrInitDmcTqz": 7536,
      "stellen": 7537,
      "xweg": 7538,
      "Stfn": 7539,
      "ElChaFlpRi": 7540,
      "QdmStCluGbuFar": 7541,
      "DcrAvlSprFaAvlSt": 7542,
      "ErrorCodeDCM": 7543,
      "FasStat": 7544,
      "PecTempPlandata": 7545,
      "EEP": 7546,
      "GLE": 7547,
      "Pad": 7548,
      "agn": 7549,
      "EmErr": 7550,
      "ManipProfile": 7551,
      "grd": 7552,
      "DispDrp": 7553,
      "HiLimd": 7554,
      "NextDcyNotAvl": 7555,
      "FltrGeschw": 7556,
      "Er": 7557,
      "ĠQdmMueLin": 7558,
      "Diagnose": 7559,
      "sin": 7560,
      "ĠPAS": 7561,
      "ABGLE": 7562,
      "RaAvlSt": 7563,
      "AKTIV": 7564,
      "Neur": 7565,
      "ĠPASSED": 7566,
      "ABGLEICH": 7567,
      "Inp": 7568,
      "DcrSfActGateSpr": 7569,
      "ĠISO": 7570,
      "Bus": 7571,
      "Gain": 7572,
      "lass": 7573,
      "Ġ20240715": 7574,
      "DmcTqrDecMax": 7575,
      "Catch": 7576,
      "EmReqDynDelt": 7577,
      "eKoor": 7578,
      "inc": 7579,
      "BrMueLo": 7580,
      "RaMod": 7581,
      "SysSpannung": 7582,
      "gieKoor": 7583,
      "EnergieKoor": 7584,
      "alyzing": 7585,
      "SysSpannungEnergieKoor": 7586,
      "top": 7587,
      "ines": 7588,
      "Estd": 7589,
      "wwRR": 7590,
      "wwFR": 7591,
      "Fhr": 7592,
      "QuFn": 7593,
      "126": 7594,
      "RefComTest": 7595,
      "initialized": 7596,
      "Dump": 7597,
      "QuFnFdr": 7598,
      "225": 7599,
      "vCtrl": 7600,
      "lob": 7601,
      "Ġ^~~~~~~~~~~~~~~~~~~~~~~~~~~~~~~~~~~~~~~~~~": 7602,
      "mphome": 7603,
      "HvPthDcdc": 7604,
      "Limphome": 7605,
      "EpbAutoApply": 7606,
      "OpenPort": 7607,
      "Job": 7608,
      "DcrAvlSprRaAvlSt": 7609,
      "DmcTqrGraPa": 7610,
      "IFI": 7611,
      "QUALIFI": 7612,
      "IMax": 7613,
      "ĠHeart": 7614,
      "prd": 7615,
      "EtmcPecTCtl": 7616,
      "QdmMueWraCloud": 7617,
      "Dyno": 7618,
      "DampSlip": 7619,
      "Trq": 7620,
      "CoCptHvsSnsr": 7621,
      "SnsMassMean": 7622,
      "Comfort": 7623,
      "ISTPOS": 7624,
      "AVAILABILITY": 7625,
      "software": 7626,
      "attri": 7627,
      "ActPosn": 7628,
      "Ord": 7629,
      "RIERUNG": 7630,
      "ULATION": 7631,
      "MANIPULATION": 7632,
      "QUERBESCHLEUNIGUNG": 7633,
      "LAENGSBESCHLEUNIGUNG": 7634,
      "Order": 7635,
      "inport": 7636,
      "tedFor": 7637,
      "Inser": 7638,
      "Position": 7639,
      "UnusedInterface": 7640,
      "ImpAsg": 7641,
      "OpenPortUnusedInterface": 7642,
      "InsertedFor": 7643,
      "Kr": 7644,
      "ba": 7645,
      "diff": 7646,
      "usr": 7647,
      "bpIndex": 7648,
      "DscMod": 7649,
      "DmcTqfSitComMacTool": 7650,
      "PotMaxLvl": 7651,
      "Befuellen": 7652,
      "fied": 7653,
      "1039": 7654,
      "Ġadp": 7655,
      "AxAy": 7656,
      "Fav": 7657,
      "AfwChallenge": 7658,
      "241": 7659,
      "kg": 7660,
      "PsAutoApply": 7661,
      "ThermalManagement": 7662,
      "lex": 7663,
      "alified": 7664,
      "WerteLLP": 7665,
      "EEpromWerteLLP": 7666,
      "246": 7667,
      "Ġclass": 7668,
      "SAM": 7669,
      "utils": 7670,
      "GESAM": 7671,
      "PROZ": 7672,
      "events": 7673,
      "ThermalManagementCmn": 7674,
      "Fe": 7675,
      "sec": 7676,
      "ollow": 7677,
      "PmOutFarLhmEd": 7678,
      "BpsNavDrvgPwr": 7679,
      "diagn": 7680,
      "facFR": 7681,
      "MaxV": 7682,
      "Crm": 7683,
      "ErrSrcHex": 7684,
      "CoCptHPActr": 7685,
      "New": 7686,
      "OvbReq": 7687,
      "su": 7688,
      "ILim": 7689,
      "bei": 7690,
      "SpDecn": 7691,
      "ĠCodifySignalEgoOut": 7692,
      "LgIncl": 7693,
      "Param": 7694,
      "HvbCha": 7695,
      "abilityControl": 7696,
      "Ġdepends": 7697,
      "uecksetz": 7698,
      "zur": 7699,
      "ĠDcrInit": 7700,
      "cluding": 7701,
      "atisti": 7702,
      "ĠStatisti": 7703,
      "kwerte": 7704,
      "uecksetzen": 7705,
      "zuruecksetzen": 7706,
      "ĠStatistikwerte": 7707,
      "Vir": 7708,
      "Ġboundary": 7709,
      "Virtual": 7710,
      "ChaFlpRight": 7711,
      "RadrOut": 7712,
      "Presence": 7713,
      "Bf": 7714,
      "Lsp": 7715,
      "Lqg": 7716,
      "NMax": 7717,
      "Ol": 7718,
      "Snc": 7719,
      "VAyack": 7720,
      "dly": 7721,
      "erlaub": 7722,
      "thOrder": 7723,
      "CheckValue": 7724,
      "TqWcErr": 7725,
      "TypeEnum": 7726,
      "sopm": 7727,
      "MoDynOvwAp": 7728,
      "MoPotOvwAp": 7729,
      "MoStatOvwAp": 7730,
      "ErrChgTrig": 7731,
      "MaxAvl": 7732,
      "Touch": 7733,
      "BrkStg": 7734,
      "htcp": 7735,
      "CluPlau": 7736,
      "LashSp": 7737,
      "OpTouch": 7738,
      "cwtqw": 7739,
      "Prg": 7740,
      "SyncPecEgyOpt": 7741,
      "DmcTqfFfxDec": 7742,
      "Agwd": 7743,
      "RequestVirtual": 7744,
      "GnrDynOvwAp": 7745,
      "GnrPotOvwAp": 7746,
      "GnrStatOvwAp": 7747,
      "DefPmAxl": 7748,
      "StopCtrl": 7749,
      "WscMin": 7750,
      "qlsopm": 7751,
      "Fzd": 7752,
      "EmActDefVal": 7753,
      "tqzRA": 7754,
      "LimMaxEmMo": 7755,
      "LimMaxEmGnr": 7756,
      "SelectW": 7757,
      "SelectY": 7758,
      "NavDrvgReq": 7759,
      "DriveShaft": 7760,
      "CoplReq": 7761,
      "CoplSp": 7762,
      "PnetReqHvSys": 7763,
      "EmMoStatAp": 7764,
      "EmMoDynAp": 7765,
      "EmMoPotAp": 7766,
      "UseEmRotDirFwd": 7767,
      "FlrManipSwi": 7768,
      "CoCptDrvDiaMixVlv": 7769,
      "TherOvld": 7770,
      "RlIntObs": 7771,
      "RlIntOl": 7772,
      "ReqCoEtsManipVal": 7773,
      "ReqCoEtsManipSwi": 7774,
      "CplModGrad": 7775,
      "LashAssistRsp": 7776,
      "LashAssistLsp": 7777,
      "EmGnrStatAp": 7778,
      "EmGnrDynAp": 7779,
      "EmGnrPotAp": 7780,
      "EmDcCurActManipSwi": 7781,
      "FocReq": 7782,
      "freqFA": 7783,
      "freqRA": 7784,
      "DriverPresence": 7785,
      "EmDcCurrActManipSwi": 7786,
      "qlspct": 7787,
      "LihoManipSwi": 7788,
      "DsLdpManip": 7789,
      "NMinEmActManipVal": 7790,
      "NMinEmActManipSwi": 7791,
      "SigmaWhl": 7792,
      "PtTqWhlPotMaxHys": 7793,
      "LgGdnManip": 7794,
      "TrctnMot": 7795,
      "DoorSnsr": 7796,
      "ParamEna": 7797,
      "LqgDeact": 7798,
      "dlyp": 7799,
      "erlaubt": 7800,
      "CluPlauManip": 7801,
      "RequestVirtualDriverPresence": 7802,
      "TherOvldBrkStg": 7803,
      "Bim": 7804,
      "DcrInBim": 7805,
      "ecute": 7806,
      "RngEd": 7807,
      "HtHvs": 7808,
      "Ġremoved": 7809,
      "Stp": 7810,
      "ĠIrv": 7811,
      "Ġend": 7812,
      "divTau": 7813,
      "647": 7814,
      "facRR": 7815,
      "Call": 7816,
      "dTdivTau": 7817,
      "Ġfuture": 7818,
      "Ġfollow": 7819,
      "DcrInHdc": 7820,
      "PwrMo": 7821,
      "BpsMstSeln": 7822,
      "CTR": 7823,
      "Uk": 7824,
      "Ġtok": 7825,
      "arate": 7826,
      "AxDrvSp": 7827,
      "Axinc": 7828,
      "DcrDiagSTATUS": 7829,
      "DgAxDrvSp": 7830,
      "AxlDeac": 7831,
      "ĠAUTOSAR": 7832,
      "Neural": 7833,
      "ght": 7834,
      "1035": 7835,
      "ValQlf": 7836,
      "BrkAct": 7837,
      "place": 7838,
      "quence": 7839,
      "QdmMueFs": 7840,
      "115": 7841,
      "Sequence": 7842,
      "CoCptHvsActr": 7843,
      "Ġincluding": 7844,
      "Exception": 7845,
      "NAME": 7846,
      "149": 7847,
      "Inv": 7848,
      "Ġnee": 7849,
      "Ġprevent": 7850,
      "Ġsep": 7851,
      "Ġconsistency": 7852,
      "1038": 7853,
      "asures": 7854,
      "slower": 7855,
      "Ġmeasures": 7856,
      "ĠEntrypoint": 7857,
      "Ġprovide": 7858,
      "Ġrunnable": 7859,
      "DispSptInfoTemp": 7860,
      "EnvCdn": 7861,
      "BufferCheck": 7862,
      "Ġroutings": 7863,
      "Ġfastest": 7864,
      "ĠConsuming": 7865,
      "RunnableSequence": 7866,
      "Ġneeded": 7867,
      "Ġseparate": 7868,
      "Ġrunnables": 7869,
      "RunnableSequenceBufferCheck": 7870,
      "Under": 7871,
      "DeCalc": 7872,
      "StatusPark": 7873,
      "DrvDyn": 7874,
      "VehicleAnd": 7875,
      "Ġdirec": 7876,
      "Aptivdaten": 7877,
      "DefCalc": 7878,
      "DmcLsdTqw": 7879,
      "DcrSfAxLimCrp": 7880,
      "CompVal": 7881,
      "TstrJob": 7882,
      "OverBrake": 7883,
      "Ġextra": 7884,
      "DebDefCalc": 7885,
      "ActValTransf": 7886,
      "DmcTqfFfxCfPa": 7887,
      "SteuernEeprom": 7888,
      "PotArydata": 7889,
      "GovDeMonAllwdDeCalc": 7890,
      "GovDeMonAllwdDebDefCalc": 7891,
      "AktHsrKaSyncSollwert": 7892,
      "Ġtokens": 7893,
      "VehicleAndSteering": 7894,
      "Ġdirective": 7895,
      "AptivdatenWerkmodus": 7896,
      "DmcLsdTqwRaMod": 7897,
      "249": 7898,
      "Verb": 7899,
      "inv": 7900,
      "esystem": 7901,
      "converter": 7902,
      "QdmMsDiag": 7903,
      "Brakesystem": 7904,
      "138": 7905,
      "NIC": 7906,
      "WAN": 7907,
      "Tqc": 7908,
      "ABSO": 7909,
      "StartAdaptivdaten": 7910,
      "TqLimShaftProtect": 7911,
      "ERRATE": 7912,
      "GIERRATE": 7913,
      "NICKRATE": 7914,
      "WANKRATE": 7915,
      "ABSOLUT": 7916,
      "StartAdaptivdatenWerkmodus": 7917,
      "125": 7918,
      "AyAck": 7919,
      "ZEIT": 7920,
      "147": 7921,
      "stEm": 7922,
      "WcLock": 7923,
      "DmcTqzQuFnFdr": 7924,
      "CatchUp": 7925,
      "Ġ37": 7926,
      "Ġbelong": 7927,
      "ChaTi": 7928,
      "ChaInfo": 7929,
      "102": 7930,
      "FacT": 7931,
      "WcAxcOp": 7932,
      "ChaInfoChd": 7933,
      "Hard": 7934,
      "Ush": 7935,
      "aking": 7936,
      "RAB": 7937,
      "269": 7938,
      "BrkOsRAB": 7939,
      "152": 7940,
      "ocity": 7941,
      "Idcc": 7942,
      "agwd": 7943,
      "rvSp": 7944,
      "PtModCord": 7945,
      "FacFADrvSp": 7946,
      "GESAMT": 7947,
      "ĠIrvRead": 7948,
      "Execut": 7949,
      "AbkLade": 7950,
      "220": 7951,
      "Shr": 7952,
      "eren": 7953,
      "Deak": 7954,
      "zeu": 7955,
      "IsoDiagnose": 7956,
      "tivieren": 7957,
      "HvOnFuelCellSystem": 7958,
      "CoCptHvsDiaMixVlv": 7959,
      "CoCptHPDiaMixVlv": 7960,
      "HvIlockPth": 7961,
      "Executor": 7962,
      "Shrd": 7963,
      "Deaktivieren": 7964,
      "IsoDiagnoseDeaktivieren": 7965,
      "Rpm": 7966,
      "yFast": 7967,
      "ĠCodifyFunction": 7968,
      "EmDisp": 7969,
      "CtrlErr": 7970,
      "BSW": 7971,
      "sys": 7972,
      "JerkUp": 7973,
      "JerkDwn": 7974,
      "MeasHvsAct": 7975,
      "VeryFast": 7976,
      "ĠCodifyFunctionCall": 7977,
      "WE": 7978,
      "extra": 7979,
      "ChargingEndTrigger": 7980,
      "ChargingEndTriggers": 7981,
      "bFild": 7982,
      "ieb": 7983,
      "TqbFild": 7984,
      "SafeShrd": 7985,
      "belieb": 7986,
      "Stuetz": 7987,
      "includedPdu": 7988,
      "AdtLg": 7989,
      "beliebig": 7990,
      "Stuetzstellen": 7991,
      "MIT": 7992,
      "Upp": 7993,
      "alloc": 7994,
      "unce": 7995,
      "1844": 7996,
      "Velocity": 7997,
      "Lft": 7998,
      "Ġline": 7999,
      "CoCptHvsIn": 8000,
      "Engines": 8001,
      "mu": 8002,
      "AvlDcdcLv": 8003,
      "DgMueHi": 8004,
      "Bed": 8005,
      "brid": 8006,
      "plus": 8007,
      "Ġconversion": 8008,
      "Ġtargets": 8009,
      "ĠCodifySignalEdh": 8010,
      "OvbRstrn": 8011,
      "DcrAvlReaReqFcrDmc": 8012,
      "Dl": 8013,
      "ĠTargetOperatingModeFuelCellSystem": 8014,
      "ĠCodifyEnumDataTypeTargetOperatingModeFuelCellSystem": 8015,
      "binlcauint": 8016,
      "ology": 8017,
      "Ġcc": 8018,
      "1215": 8019,
      "188": 8020,
      "QuadLoss": 8021,
      "Secu": 8022,
      "mueHigh": 8023,
      "mueLow": 8024,
      "ĠPmIn": 8025,
      "Symphony": 8026,
      "kappa": 8027,
      "Chil": 8028,
      "Any": 8029,
      "rieb": 8030,
      "SocHvs": 8031,
      "HK": 8032,
      "Backend": 8033,
      "SnsDirDrp": 8034,
      "Gi": 8035,
      "Lh": 8036,
      "Mpo": 8037,
      "Pdr": 8038,
      "Vdc": 8039,
      "msNo": 8040,
      "binlcartb": 8041,
      "DcrDiagDcrAvlMgrCwDsRaw": 8042,
      "LashOffset": 8043,
      "CcmTrtl": 8044,
      "LtWwWhl": 8045,
      "GrdDds": 8046,
      "DrpDrv": 8047,
      "ManVal": 8048,
      "CblDer": 8049,
      "LOCK": 8050,
      "AccrSnsrHex": 8051,
      "CoCptDrvDiaElCoPmp": 8052,
      "DmcTqzFbyFacFfys": 8053,
      "BpsRemDpt": 8054,
      "ĠCodifyEntrypointLhmEd": 8055,
      "DmcTqfFlCal": 8056,
      "ĠCodifyParameterAktHsrFs": 8057,
      "AnyCblPlgd": 8058,
      "919": 8059,
      "LoLim": 8060,
      "Ġfollowing": 8061,
      "Hist": 8062,
      "Hyst": 8063,
      "Fix": 8064,
      "Eing": 8065,
      "PD": 8066,
      "mcal": 8067,
      "HvSystem": 8068,
      "etzer": 8069,
      "EmMin": 8070,
      "asr": 8071,
      "chaetzer": 8072,
      "ApdMChallenge": 8073,
      "SfSbwOut": 8074,
      "DcrSfTqzLimBInd": 8075,
      "DcrSfTenLimFct": 8076,
      "ETH": 8077,
      "160": 8078,
      "Verf": 8079,
      "918": 8080,
      "Has": 8081,
      "ination": 8082,
      "AcoHex": 8083,
      "Params": 8084,
      "binckpa": 8085,
      "STATISTIC": 8086,
      "AdaptivdatenRuecksetzen": 8087,
      "DcrAvlReaDynEvaPt": 8088,
      "KALIBRIERUNG": 8089,
      "SkeletonFieldParams": 8090,
      "Ld": 8091,
      "DrvgTmpNotAvl": 8092,
      "aded": 8093,
      "cafe": 8094,
      "CoCptHPIn": 8095,
      "LesenAfwActivation": 8096,
      "153": 8097,
      "fort": 8098,
      "constan": 8099,
      "Sgn": 8100,
      "Qualified": 8101,
      "Detd": 8102,
      "WcCaPv": 8103,
      "SECURE": 8104,
      "TherEvt": 8105,
      "BpsBasDrvgPwr": 8106,
      "PtAcceNotAvl": 8107,
      "Ġ~~~~~~~~~~~~~~~~~~~~~~~~~": 8108,
      "parameter": 8109,
      "DcrInitCoding": 8110,
      "Ct": 8111,
      "CAN": 8112,
      "Ġasil": 8113,
      "Stru": 8114,
      "CalRun": 8115,
      "DcrTqpCptPron": 8116,
      "AckMueHiDds": 8117,
      "AckMueLoDds": 8118,
      "HOLD": 8119,
      "WscMaxGradUp": 8120,
      "ĠActualValueCurrentValve": 8121,
      "THRES": 8122,
      "actualValueCurrentValve": 8123,
      "damperValvesQualified": 8124,
      "KappaMin": 8125,
      "ĠCodifyParameterBMWpci": 8126,
      "PROZENT": 8127,
      "MITTE": 8128,
      "DcrTqpCptPronShaft": 8129,
      "THRESHOLD": 8130,
      "Found": 8131,
      "anca": 8132,
      "Emgy": 8133,
      "drv": 8134,
      "Build": 8135,
      "SfAccRecuBrk": 8136,
      "BackendInterface": 8137,
      "Tqr": 8138,
      "DmcTqzSq": 8139,
      "DmcTqzFbyDcy": 8140,
      "Api": 8141,
      "PsiP": 8142,
      "FixVd": 8143,
      "DmcTqzSqInit": 8144,
      "AY": 8145,
      "sqli": 8146,
      "NOSE": 8147,
      "LdpSscLimphome": 8148,
      "anning": 8149,
      "DIAGNOSE": 8150,
      "AffWrAMDrift": 8151,
      "sqlite": 8152,
      "Agb": 8153,
      "Pass": 8154,
      "Rec": 8155,
      "ThDes": 8156,
      "Ġnamespace": 8157,
      "AccSp": 8158,
      "TOL": 8159,
      "iuzl": 8160,
      "HvChaInNon": 8161,
      "DcrTqlEmFA": 8162,
      "DcrTqlEmRA": 8163,
      "DcrTqlEmRL": 8164,
      "DcrTqlEmRR": 8165,
      "DcrTqlEmFL": 8166,
      "DcrTqlEmFR": 8167,
      "ĠTaking": 8168,
      "ĠFieldConfig": 8169,
      "TurnOff": 8170,
      "ROHWERTE": 8171,
      "FzdCat": 8172,
      "Ġbelongs": 8173,
      "HvChaInNonHvm": 8174,
      "Temporary": 8175,
      "Mth": 8176,
      "Six": 8177,
      "WD": 8178,
      "ef": 8179,
      "sint": 8180,
      "ĠDownload": 8181,
      "linux": 8182,
      "Sixt": 8183,
      "Nss": 8184,
      "dic": 8185,
      "NotFound": 8186,
      "Ġ^~~~~~~~~~~~~~~~~~~~~~~~~~~~~~~~~~~~~~~~~~~": 8187,
      "Fhl": 8188,
      "tage": 8189,
      "rems": 8190,
      "Reif": 8191,
      "Remote": 8192,
      "Pwf": 8193,
      "FanUii": 8194,
      "HardReq": 8195,
      "Fhlr": 8196,
      "150": 8197,
      "Ha": 8198,
      "ACCharging": 8199,
      "CifACCharging": 8200,
      "entral": 8201,
      "FhlrAmp": 8202,
      "609": 8203,
      "Rr": 8204,
      "Tpl": 8205,
      "PreHt": 8206,
      "RecuFnc": 8207,
      "LdpSspEval": 8208,
      "DchaStgyLim": 8209,
      "GschwSchwelle": 8210,
      "TherBrkOvld": 8211,
      "KomFehler": 8212,
      "GschwSchwelleFehler": 8213,
      "ĠDriving": 8214,
      "BpsIn": 8215,
      "QdmEvDiag": 8216,
      "FileNotFound": 8217,
      "Ġ~~~~~~~~~~~~~~~~~~~~~~~~~^~~~": 8218,
      "FileNotFoundException": 8219,
      "ntu": 8220,
      "ubu": 8221,
      "yEscapeFunction": 8222,
      "CheckControl": 8223,
      "INE": 8224,
      "Abo": 8225,
      "DmcTqzFbyErrPdTc": 8226,
      "FaultyEscapeFunction": 8227,
      "CheckControlMessageType": 8228,
      "LdpSfStsBrk": 8229,
      "SPE": 8230,
      "AndParkingBrake": 8231,
      "ĠActualStateStandstillFunctionsEnum": 8232,
      "ĠStandstillPermanentlyFaultyEscapeFunction": 8233,
      "ĠCodifyEnumDataTypeActualStateStandstillFunctionsEnum": 8234,
      "ĠStandstillPermanentlyWithEscapeFunction": 8235,
      "Messagedata": 8236,
      "ĠStandstillPermanentlyWithParkingLockAndParkingBrake": 8237,
      "Factor": 8238,
      "ubuntu": 8239,
      "CheckControlMessagedata": 8240,
      "bit": 8241,
      "MaxReset": 8242,
      "Step": 8243,
      "DiffAbs": 8244,
      "Zev": 8245,
      "PtmPwrDist": 8246,
      "DiffAbsMaxReset": 8247,
      "Duration": 8248,
      "warning": 8249,
      "ĠNot": 8250,
      "Reku": 8251,
      "VehCog": 8252,
      "Tee": 8253,
      "DgMueLo": 8254,
      "Upr": 8255,
      "Ġ404": 8256,
      "ĠDispSpt": 8257,
      "switch": 8258,
      "DcrDiagStatus": 8259,
      "ANN": 8260,
      "BpsNavChaRls": 8261,
      "Hoch": 8262,
      "BpsManChaRls": 8263,
      "FT": 8264,
      "Rty": 8265,
      "Upl": 8266,
      "VR": 8267,
      "client": 8268,
      "thod": 8269,
      "AvlEm": 8270,
      "ActDrp": 8271,
      "PwrData": 8272,
      "EgoSafeSens": 8273,
      "box": 8274,
      "fenBerechnung": 8275,
      "LLPStu": 8276,
      "Ġreturned": 8277,
      "Uplg": 8278,
      "LLPStufenBerechnung": 8279,
      "912": 8280,
      "schaltung": 8281,
      "erkan": 8282,
      "SOLL": 8283,
      "DmcLsdFacFA": 8284,
      "SBW": 8285,
      "sWeight": 8286,
      "xplus": 8287,
      "ench": 8288,
      "Ġlo": 8289,
      "CtrlOffset": 8290,
      "DmcTqzFbyB": 8291,
      "NoCtrlOffset": 8292,
      "SigsWeight": 8293,
      "FacSlp": 8294,
      "QdmLefAwc": 8295,
      "IntLife": 8296,
      "FbyLim": 8297,
      "QDMFLM": 8298,
      "CycRead": 8299,
      "NonlinI": 8300,
      "DmcLsdLimFA": 8301,
      "DmcLsdLimRA": 8302,
      "DcrSfAxLimOvrBrk": 8303,
      "SpDecnDrvr": 8304,
      "SigsWeighting": 8305,
      "IntLifeCycRead": 8306,
      "norm": 8307,
      "div": 8308,
      "AdasDrvr": 8309,
      "andbox": 8310,
      "WkuSrc": 8311,
      "BlendAdasDrvr": 8312,
      "ErrDzMueHi": 8313,
      "SKR": 8314,
      "0749": 8315,
      "Bpf": 8316,
      "Gsd": 8317,
      "Qli": 8318,
      "yframe": 8319,
      "DcrTc": 8320,
      "TqEm": 8321,
      "DmcTqzRel": 8322,
      "SfPtLimMo": 8323,
      "SfPtLimGnr": 8324,
      "ĠKon": 8325,
      "DcuCfg": 8326,
      "TarManipVal": 8327,
      "TarManipSwi": 8328,
      "DefSt": 8329,
      "ErrSrcManipVal": 8330,
      "ErrSrcManipSwi": 8331,
      "Wir": 8332,
      "AcvnBom": 8333,
      "SpdThd": 8334,
      "ManHvsCdngCha": 8335,
      "AbstractFuture": 8336,
      "NavChaDest": 8337,
      "GRAD": 8338,
      "ChirpStart": 8339,
      "ChirpEnd": 8340,
      "ChirpAmp": 8341,
      "ChirpDuration": 8342,
      "qlswwRL": 8343,
      "qlswwFL": 8344,
      "ratFA": 8345,
      "ratRA": 8346,
      "EntLvl": 8347,
      "GetConfig": 8348,
      "GetDefault": 8349,
      "ChaPerStr": 8350,
      "ChaPerEnd": 8351,
      "GrdMaxAbs": 8352,
      "IvldChk": 8353,
      "qlspwr": 8354,
      "HvsHtMngt": 8355,
      "SoftReq": 8356,
      "ExiLvl": 8357,
      "LmvZfm": 8358,
      "CcmEnaSpdThd": 8359,
      "CntThrHys": 8360,
      "ErrSrcHexRstEna": 8361,
      "Ukf": 8362,
      "WkuSrcLock": 8363,
      "GsdZfm": 8364,
      "DmcTqzRelTc": 8365,
      "GetDefaultValue": 8366,
      "SI": 8367,
      "QDMSKR": 8368,
      "Ġ^~~~~~~~~~~~~~~": 8369,
      "fq": 8370,
      "Rollerb": 8371,
      "DynamicApply": 8372,
      "ĠCodifyEnumDataTypeParkingBrakeApplyReleaseRequest": 8373,
      "ĠCodifyEnumDataTypeParkingBrakeTestMode": 8374,
      "ĠCodifyEnumDataTypeParkingBrakeDriveAwayIntention": 8375,
      "ĠParkingBrakeApplyReleaseRequest": 8376,
      "ĠParkingBrakeTestMode": 8377,
      "ĠParkingBrakeDriveAwayIntention": 8378,
      "ParkApply": 8379,
      "ĠePbcApplyReleaseRequestHold": 8380,
      "ĠePbcApplyReleaseRequestPad": 8381,
      "ĠePbcApplyReleaseRequestRollerb": 8382,
      "ĠePbcApplyReleaseRequestDynamicApply": 8383,
      "ĠePbcApplyReleaseRequestParkApply": 8384,
      "logs": 8385,
      "Attn": 8386,
      "DstrTqAxl": 8387,
      "enchApply": 8388,
      "ĠePbcApplyReleaseRequestHoldApply": 8389,
      "ĠePbcApplyReleaseRequestPadAdjustment": 8390,
      "ĠePbcApplyReleaseRequestRollerbenchApply": 8391,
      "143": 8392,
      "AxlMax": 8393,
      "Hw": 8394,
      "KEIT": 8395,
      "ĠAl": 8396,
      "Ġinternal": 8397,
      "Changed": 8398,
      "101": 8399,
      "DynCord": 8400,
      "347": 8401,
      "Intp": 8402,
      "DrpN": 8403,
      "EEPROM": 8404,
      "MITTEL": 8405,
      "ĠAlso": 8406,
      "Fdou": 8407,
      "Ss": 8408,
      "msBrk": 8409,
      "LdpTqaDampIn": 8410,
      "CheckControlMessages": 8411,
      "LdpSscCtrlAct": 8412,
      "adaptive": 8413,
      "ErrDzMueLo": 8414,
      "ker": 8415,
      "Mov": 8416,
      "mand": 8417,
      "ayload": 8418,
      "server": 8419,
      "Rueck": 8420,
      "DcrAvlReaReqFcrAwd": 8421,
      "AktHsrInHsr": 8422,
      "155": 8423,
      "1037": 8424,
      "163": 8425,
      "library": 8426,
      "170": 8427,
      "EgoSafeMon": 8428,
      "bounce": 8429,
      "SrvReqSn": 8430,
      "SD": 8431,
      "Vale": 8432,
      "eder": 8433,
      "ADING": 8434,
      "KOMM": 8435,
      "Ġmembers": 8436,
      "DmcTqxSumSsc": 8437,
      "Valet": 8438,
      "mance": 8439,
      "formance": 8440,
      "Schaetzer": 8441,
      "fake": 8442,
      "ĠPdc": 8443,
      "ChaAcv": 8444,
      "StabilityControl": 8445,
      "TEE": 8446,
      "DmcTqzFbyTc": 8447,
      "PreCalc": 8448,
      "Destination": 8449,
      "780749": 8450,
      "ĠRUN": 8451,
      "23091": 8452,
      "PidKpEm": 8453,
      "mapped": 8454,
      "model": 8455,
      "LdpTqaDesStatus": 8456,
      "CnsEd": 8457,
      "Ipn": 8458,
      "Tyre": 8459,
      "5172": 8460,
      "KINE": 8461,
      "ssAs": 8462,
      "DmcCmn": 8463,
      "TqMo": 8464,
      "TqGnr": 8465,
      "ATA": 8466,
      "ADDATA": 8467,
      "202": 8468,
      "READDATA": 8469,
      "AffDk": 8470,
      "formed": 8471,
      "Manager": 8472,
      "ReibwertNormDatdata": 8473,
      "AktHsrKaSollwert": 8474,
      "SteuernAxAy": 8475,
      "ENERGY": 8476,
      "LnkSfty": 8477,
      "ReibwertNormDatADdata": 8478,
      "RAVELED": 8479,
      "FavFnc": 8480,
      "KINETIC": 8481,
      "KL": 8482,
      "UNDE": 8483,
      "DvMueHi": 8484,
      "DvMueLo": 8485,
      "unsigned": 8486,
      "MapEngines": 8487,
      "ĠFunctional": 8488,
      "Ġcounter": 8489,
      "SnsRcLcRL": 8490,
      "SnsRcLcRR": 8491,
      "SnsRcLcFL": 8492,
      "SnsRcLcFR": 8493,
      "243": 8494,
      "arf": 8495,
      "256": 8496,
      "host": 8497,
      "LimnFrontAxle": 8498,
      "ĠReading": 8499,
      "Mil": 8500,
      "sed": 8501,
      "we": 8502,
      "DcPlau": 8503,
      "Ġbeing": 8504,
      "ComErr": 8505,
      "DynMo": 8506,
      "ĠCodifySignalReadData": 8507,
      "DmcTqzFbyIndSte": 8508,
      "DmcTqzVsyIndSte": 8509,
      "DcrAvlMgrQcLdpLock": 8510,
      "IvtrDcPlau": 8511,
      "DmcTqzSprIndSte": 8512,
      "IndSteSta": 8513,
      "Ġmapdal": 8514,
      "ĠReadData": 8515,
      "sysroot": 8516,
      "237": 8517,
      "Sref": 8518,
      "LockFA": 8519,
      "LockRA": 8520,
      "QdmLefFs": 8521,
      "franca": 8522,
      "allocator": 8523,
      "SrefMax": 8524,
      "Resl": 8525,
      "ErrFis": 8526,
      "ErrorDetection": 8527,
      "SyncAgb": 8528,
      "DmcTqxAxlDeac": 8529,
      "RecuMod": 8530,
      "BrkOsOut": 8531,
      "ASW": 8532,
      "AcoHtr": 8533,
      "NegDampRecuMod": 8534,
      "AvlSprErrorDetection": 8535,
      "PtmFcsTar": 8536,
[...]
