{"seconds": 43968, "eness": 14186, "should": 17276, "%": 207, "ed": 196, "build": 23411, "159": 27129, "Time": 14699, "param": 46669, "\u0120Test": 4500, "Right": 13984, "OTHER": 30991, "614": 40082, "884": 40903, "EW": 15251, "\u0120value": 923, "step": 13975, "Scale": 43737, "load": 16204, "amera": 39194, "Mil": 28151, "line": 1902, "161": 28490, "Ali": 37358, "volt": 28989, "Or": 11094, "dir": 41292, "\u0120set": 278, "Fan": 41300, "ming": 7059, "dd": 16134, "\u0120service": 544, "Start": 33724, "\u012080": 1812, "820": 34212, "cluding": 19586, "erer": 7160, "unique": 34755, "abe": 5084, "\u0120extr": 36786, "AA": 5596, "028": 40709, "Hyd": 44537, "NR": 17085, "Report": 20697, "arn": 4422, "pub": 22478, "\u0120contains": 6308, "ai": 1439, "\u0120ident": 26702, "stand": 8490, "pp": 3807, "444": 29903, "stat": 24344, "\u0120consolidate": 19752, "451": 36860, "026": 40521, "WN": 29722, "288": 29443, "\u0120mapped": 33493, "Task": 47744, "\u0120Action": 5828, "space": 25414, "metadata": 43702, "147": 26629, "\u0120generate": 5368, "extra": 30842, "ate": 877, "Wr": 44142, "ben": 5720, "\u0120Direction": 29332, "\u0120stable": 4375, "ab": 873, "\u0120functionality": 14749, "\u012083": 8101, "\u0120Total": 5480, "Disk": 43766, "lab": 31479, "309": 31573, "\u0120libraries": 18146, "\u0120No": 440, "\u0120manifest": 19318, "header": 24419, "tor": 10321, "offset": 48025, "event": 21680, "\u0120represented": 4625, "itch": 3239, "ipment": 39737, "\u0120HTTPS": 45217, "data": 23687, "correct": 36064, "AX": 26624, "qualified": 26505, "TC": 6078, "012": 37524, "VALUE": 49313, "uring": 5206, "\u0120session": 1852, "518": 33213, "340": 24334, "\u0120Veh": 45967, "angs": 16917, "fe": 7068, "FIR": 39679, "\u0120Log": 9359, "IND": 13796, "ape": 5776, "\u0120def": 3816, "aws": 17415, "\u0120132": 19376, "EG": 7170, "563": 39032, "\u0120branches": 9836, "\u0120Lin": 9252, "tta": 16597, "CON": 15299, "22": 2036, "lol": 46078, "que": 3407, "install": 39567, "Ide": 42233, "\u0120differ": 10356, "dem": 12789, "iu": 9060, "\u0120Method": 16410, "tu": 10109, "2016": 9029, "506": 36647, "Z": 1301, "json": 40962, "379": 34309, "\u0120255": 28080, "At": 3750, "fee": 33763, "pd": 10398, "Customer": 44799, "inished": 45581, "\u0120PAR": 16083, "86": 5334, "EM": 5330, "\u0120op": 5963, "Gener": 40025, "alpha": 29135, "root": 29059, "Hum": 40022, "\u0120provide": 694, "E": 717, "833": 39134, "JO": 39131, "\u0120Reading": 4913, "ari": 1512, "374": 35208, "\u0120several": 484, "And": 2409, "ocol": 23558, "304": 31276, "\u0120supp": 32535, "google": 39367, "O": 673, "bi": 5605, "\u0120T": 255, "Moving": 41780, "\u0120highest": 1609, "\u0120such": 215, "758": 37073, "\u012087": 8176, "192": 29362, "Info": 39863, "VA": 9788, "\u0120front": 760, "ented": 9663, "Route": 43929, "bird": 15886, "ission": 27042, "\u0120instance": 4327, "\u0120specific": 2167, "\u0120Err": 47311, "pattern": 43106, "\u0120always": 460, "Hom": 37778, "\u0120did": 222, "Tool": 46620, "\u0120Power": 3029, "TYPE": 48710, "WD": 18101, "JECT": 33302, "\u0120cases": 1200, "\u0120102": 12747, "]:": 42645, "\u0120exce": 24395, "ial": 2617, "193": 30995, "LOAD": 27822, "\u0120/": 1589, "zen": 7889, "\u0120expression": 8151, "FM": 16523, "\u0120sil": 11052, "atio": 42623, "\u0120loaded": 7973, "OU": 5061, "GW": 32880, "\u0120339": 36885, "\u0120199": 29272, "ength": 49426, "times": 14616, "aa": 6621, "THER": 38421, "24": 1978, "internal": 37559, "osite": 42934, "786": 38925, "mr": 35685, "4": 306, "leg": 4308, "\u0120ones": 1980, "68": 4671, "RT": 13963, "9": 466, "\u012019": 753, "collection": 44443, "nam": 8697, "\u0120149": 24621, "\u0120lambda": 49027, "a": 102, "Random": 45134, "\u0120rel": 6258, "\u012037": 2908, ".<": 49069, "UTE": 38300, "ema": 8557, "\u0120trace": 13946, "hh": 36646, "verage": 33943, "Element": 46331, "795": 36346, "137": 25319, "Acc": 36984, "\u0120analyzed": 13773, "\u0120knowledge": 2655, "690": 33636, "Be": 9325, "Way": 24450, "61": 5606, "\u0120directive": 16924, "have": 11990, "490": 30881, "\u0120103": 13156, "\u0120390": 35058, "\u0120Download": 9147, "498": 37412, "\u0120Read": 1163, "\u0120stack": 17709, "088": 40892, "\u0120313": 32706, "private": 22891, "ared": 6537, "1960": 41355, "lam": 5112, "207": 22782, "\u0120[-": 48906, "zing": 10293, "413": 36108, "316": 35092, "\u0120symbol": 7648, "exit": 44054, "\u0120{}": 49153, "BL": 7976, "`.": 49024, "agement": 19660, "erver": 39540, "\u0120returned": 1835, "rat": 6528, "\u0120detected": 12333, "\u0120opt": 7996, "\u0120[/": 48651, "\u0120ver": 4342, "Trans": 19163, "inking": 18957, "546": 39405, "ARY": 10760, "202": 25155, "ake": 5113, "ument": 18816, "shared": 42502, "Nav": 42051, "ZE": 33288, "Status": 47731, "Life": 12116, "jar": 11978, "supp": 16714, "\u0120Provider": 31314, "Ts": 38516, "\u0120pack": 6356, "trigger": 45043, "lon": 10849, "python": 49119, "\u0120Fa": 16125, "10000": 47303, "\u0120950": 33702, "get": 6460, "\u0120feature": 1905, "obs": 14247, "660": 31412, "\u0120one": 65, "\u012091": 8301, "exe": 45911, "\u0120START": 33714, "\u0120artifacts": 23150, "USA": 9080, "\u0120Sample": 16269, "886": 40294, "568": 40204, "\u0120PATH": 43627, "HD": 13022, "bind": 41744, "cl": 3998, "133": 25037, "anes": 11372, "466": 38620, "756": 39755, "\u0120QU": 16944, "\u01202024": 15294, "-----": 46343, "674": 38715, "result": 43155, "wind": 9428, "246": 30676, "\u012097": 8783, "warning": 43395, "\u0120CTR": 46824, "basic": 42607, "`": 12905, "stri": 25354, "Tw": 23638, "None": 29802, "ogle": 32507, "yle": 14143, "kit": 23199, "URE": 12435, "679": 38770, "ASE": 24199, "lan": 6847, "\u0120yet": 648, "Spring": 32858, "305": 27062, "Ok": 26752, "809": 36621, "FD": 24667, "\u012086": 8162, "ART": 11328, "\u0120unknown": 4727, "factor": 31192, "ustom": 46278, "\u0120227": 30398, "\u0120atomic": 21495, "sr": 37959, "\u0120parameter": 43797, "Um": 42025, ">.": 48691, "fan": 19302, "\u0120clock": 6700, "576": 39617, "icro": 46473, "459": 36022, "elf": 24973, "ister": 4742, "HE": 17779, "\u0120196": 31057, "raw": 9056, "\u0120deprecated": 48500, "UL": 6597, "\u0120future": 499, "LOCK": 45268, "pointer": 10475, "\u0120lock": 7014, "script": 32761, "\u012050": 654, "uture": 47028, "access": 28300, "ream": 26930, "Init": 49368, "value": 19434, "\u0120FIL": 28392, "\u0120418": 42928, "tim": 10519, "Range": 43430, "after": 10669, "\u0120than": 87, "md": 26296, "\u0120use": 304, "\u0120fit": 2564, "common": 27278, "\u0120sensor": 9626, "\u0120353": 41005, "\u0120Issues": 28827, "IDs": 43452, "\u0120have": 33, "core": 7293, "gz": 45328, "\u0120down": 159, "Individual": 43174, "Ele": 28888, "701": 39293, "Remove": 47583, "April": 13949, "\u0120black": 909, "tery": 13237, "\u0120[": 646, "ho": 5410, "\u0120needed": 956, "\u0120explanation": 8257, "pt": 3320, "LB": 29920, "T": 565, "09": 3546, "\u0120Cluster": 41261, "615": 36227, "DIR": 47992, "417": 36711, "\u0120368": 42100, "conv": 40474, "217": 30003, "ipped": 8246, "\u0120410": 27393, "stall": 33401, "\u0120every": 358, "ype": 37356, "2002": 31099, "\u0120pattern": 6184, "keys": 18161, "bel": 8494, "Hit": 40900, "SK": 17342, "Cache": 48572, "OW": 4581, "ses": 24151, "\u0120internal": 3425, "speed": 8619, "\u01200": 321, "\u0120209": 28036, "\u0120par": 2242, "870": 36079, "sp": 4182, "\u012067": 5545, "PAR": 14280, "\u0120Ke": 3350, "authorized": 42067, "\u0120[]": 48081, "Hill": 32911, "lua": 47132, "ger": 2403, "Dat": 43703, "verified": 37451, "leton": 9991, "STR": 30549, "\u012032": 2107, "ABLE": 13732, "WORK": 45213, "\u0120oversized": 24901, "Override": 49116, "\u0120337": 36205, "-": 12, "Software": 45752, "885": 37634, "\u0120Product": 7702, "NOR": 25565, "tests": 47173, "sized": 8407, "pre": 5234, "ul": 922, "ocity": 36139, "Exc": 42765, "\u0120us": 201, "sil": 26239, "\u0120267": 37000, "iq": 19582, "\u0120HTTP": 44454, "198": 28773, "182": 27127, "bl": 3662, "\u0120uses": 2939, "\u0120see": 192, "\u0120targets": 3247, "ers": 268, "\u0120402": 39827, "stream": 8656, "\u0120Op": 7286, "\u0120keyword": 36585, "502": 35537, "ton": 1054, "Alpha": 35776, "\u0120List": 9527, "131": 25433, "409": 34295, "\u0120470": 35041, "its": 2629, "max": 29459, "196": 30137, "\u0120Transform": 41792, "as": 281, "allel": 44682, "REL": 39444, "059": 41873, "Gl": 16389, "model": 21818, "reference": 45927, "OVER": 36933, "Pa": 28058, "\u0120message": 1579, "concept": 38498, "real": 8726, "omp": 7474, "FU": 36693, "ssl": 48264, "Viol": 40883, "364": 34639, "420": 23537, "\u0120207": 27354, "degree": 5743, "\u0120119": 16491, "travel": 28881, "bench": 31240, "em": 991, "Level": 38809, "TE": 6433, "fac": 33492, "287": 30928, "ging": 3923, "valid": 42679, "\u0120boot": 9759, "FILE": 19572, "Ec": 44220, "FIG": 46741, "\u012063": 5549, "140": 14753, "\u0120Exec": 20297, "ore": 1688, "Origin": 47651, "tax": 11755, "Ax": 39884, "MAC": 41458, "Lev": 41157, "Ka": 34118, "af": 2001, "cluded": 26441, "Due": 28084, "\u01201": 112, "Store": 40266, "\u0120correct": 4577, "765": 35632, "cell": 7841, "Ra": 27625, "Numbers": 47395, "342": 33192, "REF": 45935, "\u0120Proxy": 45571, "762": 38997, "\u0120pro": 1759, "\u0120ignored": 8266, "\u0120An": 660, "pl": 2911, "\u0120still": 202, "\u0120final": 507, "arch": 13161, "486": 37202, "\u0120p": 181, "Mem": 35038, "view": 5877, "fre": 18178, "\u0120struct": 29916, "\u0120three": 130, "Limit": 47593, "req": 47278, "Mix": 45628, "AI": 15238, "Reg": 23007, "between": 25784, "onse": 33098, "NING": 19990, "Soc": 29971, "cn": 24240, "405": 31191, "170": 16218, "din": 27228, "\u0120Cache": 42285, "lat": 12805, "Virtual": 46138, "394": 35705, "Ther": 43958, "vi": 6873, "\u0120args": 49503, "\u0120compatible": 16632, "\u0120315": 29534, "64": 4027, "Re": 9064, "fig": 22699, "407": 34539, "\u0120compilation": 32245, "252": 29911, "Cr": 29792, "\u0120server": 10228, "\u0120Sch": 1811, "\u0120184": 29546, "fr": 12997, "Temp": 47971, "alone": 22446, "186": 29024, "\u0120Aut": 9496, "Bound": 46827, "acy": 5073, "new": 4651, "\u0120fails": 10578, "apps": 32733, "ini": 2531, "th": 212, "050": 25423, "ich": 1725, "089": 41485, "\u0120Flex": 19948, "925": 34825, "hill": 9583, "Home": 19457, "After": 4993, "OWN": 14356, "functional": 38922, "igh": 8774, "Ste": 21426, "233": 29291, "fo": 21466, "ERN": 29092, "ente": 8530, "ritten": 40251, "Bed": 44391, "\u0120480": 26754, "<s>": 0, "dates": 19718, "artifacts": 49504, "mb": 6648, "aste": 14631, "ids": 7823, "ive": 2088, "NT": 16966, "independent": 32982, "disk": 47340, "\u0120parameters": 17294, "GBT": 47872, "connected": 21618, "j": 267, "track": 16026, "directory": 48626, "\u0120172": 28628, "103": 18159, "annel": 28189, "003": 33490, "two": 7109, "\u0120signed": 1419, "\u012049": 2766, "Inf": 31288, "\u0120Units": 24525, "tmp": 48743, "245": 24990, "Hard": 31574, "\u0120its": 63, "\u0120AM": 3326, "ANG": 9298, "PUT": 42030, "Cal": 15117, "Lower": 44620, "Pers": 43020, "cil": 17286, "\u0120actions": 2163, "acl": 40054, "exec": 22342, "ached": 12552, "Transaction": 48132, "https": 13082, "Tact": 48013, "ach": 1488, "itted": 16430, "nor": 21651, "\u0120whole": 1086, "atory": 5257, "\u0120408": 31060, "308": 31335, "gear": 34020, "Block": 38866, "DO": 19174, "text": 29015, "\u0120r": 910, "\u0120Project": 3728, "Pac": 35625, "cold": 33912, "aw": 1584, "16": 1549, "tip": 39080, "Engine": 13929, "\u0120col": 11311, "proc": 46799, "\u0120implement": 5731, "\u0120NO": 8228, "enn": 4734, "Method": 47967, "size": 10799, "iste": 18495, "312": 29930, "tn": 33768, "abil": 14148, "\u0120specification": 30643, "\u0120Running": 15552, "Construct": 48402, "rit": 3961, "\u0120297": 40588, "tele": 35336, "292": 31707, "tainment": 43427, "ute": 4467, "al": 337, "Street": 24265, "990": 27204, "input": 46797, "ign": 4932, "\u0120here": 259, "elle": 6591, "\u0120single": 881, "main": 17894, "rad": 7822, "pu": 30738, "selection": 44209, "Comp": 24699, "aul": 6695, "wd": 41564, "porting": 18311, "minimum": 43410, "1991": 42478, "Occ": 45549, "ange": 10987, "crypt": 44675, "\u0120mock": 16177, "Machine": 46100, "\u0120constraint": 39816, "ified": 3786, "\u0120right": 235, "HR": 16271, "\u0120Ko": 8723, "lower": 29668, "\u0120any": 143, "440": 26634, "\u0120Pre": 5048, "Active": 42586, "\u0120RS": 15388, "ME": 6570, "ception": 20900, "\u0120mode": 5745, "ities": 2192, "outing": 25754, "\u0120Bus": 6926, "Health": 13716, "NET": 13548, "\u0120allow": 1157, "errors": 48487, "Bo": 18935, "oster": 13991, "\u0120signature": 6543, "Release": 45036, "\u0120OUT": 14662, "223": 27996, "Ws": 41951, "\u0120served": 1665, "329": 33269, "\u012011": 365, "\u0120test": 1296, "stant": 20034, "\u0120operation": 2513, "561": 39345, "110": 11670, "682": 39593, "\u0120System": 5149, "Ver": 21119, "135": 18508, "ector": 26997, "Ed": 5404, "product": 20565, "bound": 4092, "\u0120correctly": 12461, "\u0120S": 208, "tp": 43379, "\u0120packages": 8368, "sum": 18581, "ING": 1862, "fal": 32783, "circ": 31362, "Type": 40118, "\u0120locate": 12982, "644": 36520, "Crypt": 44623, "DD": 27140, "Tx": 46634, "ability": 4484, "scope": 39576, "LI": 27049, "utton": 18589, "Future": 37577, "Sen": 24365, "951": 40464, "mis": 21363, "\u0120640": 37101, "\u0120open": 490, "ca": 3245, "SA": 3603, "180": 14515, "fs": 17884, "simple": 41918, "wr": 26522, "\u0120Standard": 5787, "71": 5339, "hend": 21150, "con": 3865, "iction": 26579, "fort": 12322, "205": 22814, "box": 8304, "030": 37332, "ta": 4349, "Spawn": 49475, "cb": 38133, "opt": 19693, "].": 8174, "\u0120max": 19220, "\u0120377": 37494, "551": 38749, "\u012006": 15007, "ation": 1258, "ni": 5107, "verting": 40606, "\u0120id": 13561, ":[": 48554, "B": 387, "arp": 11230, "\u0120String": 26602, "\u0120221": 31488, "ations": 1635, "kind": 11584, "fill": 29238, "coded": 43301, "ker": 5029, "fact": 24905, "\u00c3\u00bcr": 5172, "INESS": 28275, "wall": 12764, "\u0120Int": 7299, "95": 4015, "\u0120realize": 4883, "558": 38578, "090": 37767, "\u0120850": 24137, "owned": 4447, "\u0120parse": 43756, "199": 21118, "ede": 12820, "ww": 33130, "\u0120RX": 31946, "986": 40558, "235": 23821, "106": 18427, "ator": 2630, "\u0120Const": 11242, "\u0120problem": 936, "include": 47209, "302": 29187, "//": 42326, "enum": 46284, "\u0120as": 25, "\u0120Generator": 44750, "\u0120char": 16224, "\u0120restricted": 9393, "itude": 11964, "Ear": 45813, "\u0120er": 3335, "se": 1090, "\u0120float": 15754, "Best": 19183, "lock": 8292, "lang": 32373, "trace": 46373, "users": 31964, "V": 846, "Th": 11329, "\u0120collect": 5555, "Can": 10836, "\u0120Encounter": 44492, "*": 3226, "Create": 44758, "request": 16604, "olicy": 48892, "28": 2517, "\u012052": 3135, "91": 6468, "ride": 23167, "\u0120>": 8061, "heart": 12690, "level": 4483, "ula": 5571, "\u0120implemented": 6264, "545": 36751, "310": 23417, "REM": 41548, "sym": 45266, "sie": 28692, "\u0120ensure": 1306, "ci": 2520, "\u0120build": 1119, "lines": 11723, "\u012008": 12112, "\u012005": 15786, "\u0120copying": 34236, "round": 3431, "187": 30024, "ah": 895, "\u0120FULL": 25054, "Sa": 33457, "456": 34781, "vis": 9578, "\u0120152": 23902, "\u0120named": 1440, "cmd": 48211, "inner": 12247, "\u0120Abs": 23709, "014": 37631, "tails": 36784, "\u0120amb": 13569, "Sp": 12582, "miss": 17745, "File": 9966, "ks": 2258, "\u0120\"/": 48789, "\u0120JSON": 47192, "\u0120junction": 23043, "321": 30111, "software": 41038, "354": 34615, "Aw": 38145, "map": 32557, "285": 26373, "eu": 25171, "048": 40976, "remove": 46327, "157": 27489, "orted": 25654, "\u0120then": 172, "IR": 5216, "\u0120waste": 3844, "ILE": 30354, "etry": 21262, "282": 31219, "Unknown": 44241, "Test": 34603, "\u0120den": 3069, "\u0120event": 515, "oken": 22036, "oll": 3937, "\u0120Central": 1505, "Self": 39762, "en": 225, "Est": 27602, "database": 48094, "Ba": 34535, "Between": 37257, "service": 11131, "anger": 8395, "\u0120v": 748, "293": 32329, "ds": 11622, "Update": 39962, "UP": 9673, "23": 1922, "\u0120FOR": 5089, "stre": 24769, "sole": 37870, "istic": 5580, "127": 24174, "wards": 17337, "Man": 6407, "collect": 32177, "shed": 43914, "ENG": 25049, "essage": 49528, "Sk": 29186, "ql": 44306, "465": 33544, "BE": 8827, "\u0120configured": 36614, "\u0120U": 121, "Wire": 22120, "ority": 30969, "ine": 833, "\u0120451": 40212, "\u0120243": 35412, "older": 33780, "\u0120referenced": 19800, "\u0120warnings": 8383, "395": 31330, "dr": 10232, "\u0120debugging": 47021, "\u0120299": 35768, "unch": 11842, "\u0120migrated": 34163, "\u0120Main": 4326, "Pass": 20340, "\u0120shall": 5658, "small": 23115, "509": 37046, "\u012093": 8060, "105": 15274, "\u0120SY": 18132, "\u0120configure": 39693, "Under": 17245, "\u0120output": 4195, "\u0120O": 384, "\u0120Model": 7192, "\u0120currently": 855, "022": 39549, "ories": 9023, "\u0120182": 25669, "\u0120281": 36716, "143": 26332, "625": 27786, "lr": 35265, "\u0120Logic": 35078, "\u0120unused": 23797, "Component": 48767, "\u0120fetch": 23366, "286": 30168, "ym": 8307, "LG": 38820, "ils": 5290, "anch": 10459, "cm": 13753, "\u0120cd": 45584, "IZE": 41697, "condition": 27503, "390": 27873, "show": 12005, "\u0120Ab": 2060, "buf": 48939, "LR": 33919, "::": 38304, "Position": 46884, "PU": 16821, "oute": 33514, "\u0120lines": 2301, "\u0120so": 98, "good": 8396, "\u0120OTHER": 16536, "\u0120split": 3462, "658": 36688, "\u0120follow": 1407, "socket": 48154, "ash": 1671, "aky": 18162, "ric": 4063, "Veh": 45691, "\u0120not": 45, "Station": 41925, "machine": 37556, "Feed": 37464, "\u0120unsigned": 39023, "du": 6588, "\u0120194": 31300, "Un": 9685, "\u0120provider": 3696, "NS": 6949, "\u0120ON": 5121, "Non": 33239, "VAL": 39766, "witch": 32984, "site": 11953, "ings": 1033, "boot": 40571, "alloc": 48429, "574": 39629, "atform": 47346, "ant": 927, "158": 26758, "\u0120Se": 1608, "testing": 33959, "\u0120Could": 9918, "qi": 26017, "Intern": 46652, "\u0120home": 184, "ame": 4344, "~~": 48256, "\u0120addressing": 6477, "gh": 4147, "pad": 19320, "528": 38440, "hd": 35905, "\u0120Key": 4300, "\u0120mul": 22582, "audio": 24846, "\u0120176": 28558, "NA": 4444, "\u0120Taking": 10883, "frames": 42786, "DI": 10063, "\u0120Status": 17058, "\u0120116": 15966, "Done": 45978, "\u0120similar": 1122, "XX": 18313, "\u0120To": 598, "sample": 14029, "\u01201500": 18597, "ber": 1943, "Save": 30940, "\u0120Tr": 2393, "Ill": 24873, "MM": 16261, "label": 33480, "Gas": 34974, "down": 3955, "existing": 19865, "ait": 5236, "ipp": 5600, "254": 30959, "298": 32646, "470": 29748, "Nick": 25602, "orr": 33085, "essment": 38170, "Aff": 41085, "our": 2126, "\u0120trigger": 7691, "236": 29936, "909": 39517, "eta": 8152, "1993": 41655, "\u0120Inher": 46645, "Cold": 38191, "FL": 7613, "\u0120Ag": 3303, "57": 4390, "rect": 41087, "ecast": 34989, "disc": 18909, "perty": 49328, "CV": 35433, "tle": 12607, "324": 35225, "\u0120py": 19290, "SC": 3632, "BIT": 5871, "Line": 18997, "\u0120get": 120, "\u0120context": 5377, "\u0120387": 43366, "elt": 6607, "multi": 42274, "optional": 42029, "85": 4531, "Pref": 48670, "\u0120skipping": 26756, "responsible": 37581, "checked": 41641, "\u0120further": 617, "\u0120pat": 10512, "\u0120works": 1364, "esi": 20046, "\u0120286": 38708, "nell": 13957, "\u0120Be": 1456, "\u0120W": 305, "\u0120208": 26703, "state": 4897, "\u0120met": 1145, "\u0120236": 34962, "win": 5640, "\u0120427": 41518, "LV": 19996, "\u0120555": 28581, "head": 3628, "har": 4759, "cc": 7309, "YC": 37074, "623": 39196, "ur": 710, "\u012079": 7589, "PS": 3888, "ba": 3178, "_": 1215, "\u0120argument": 4795, "CR": 9822, "dis": 7779, "Mi": 39168, "\u0120525": 38305, "medium": 37661, "date": 10672, "I": 100, "\u0120L": 226, "Found": 29991, "ases": 9354, "Disc": 41615, "}.": 48634, "\u0120only": 129, "aly": 7776, "\u0120if": 114, "nc": 11326, "\u0120writing": 2410, "686": 37289, "fin": 13597, "cor": 7215, "log": 12376, "HI": 15473, "607": 32774, "ags": 8299, "\u0120uint": 49315, "160": 13726, "lambda": 49744, "write": 29631, "706": 34993, "39": 3416, "ava": 8604, "\u0120retrieve": 22661, "verb": 37644, "\u0120At": 497, "maybe": 31501, "319": 33410, "\u0120operations": 1414, "Connector": 49605, "sw": 4184, "\u0120cluster": 18016, "\u0120source": 1300, "\u012060": 1191, "Byte": 47447, "ALE": 13812, "ubuntu": 48099, "vol": 13728, "KR": 13797, "~~~~": 49130, "osi": 15879, "name": 13650, "331": 34071, "353": 27044, "}": 24303, "515": 36565, "780": 33066, "Process": 46202, "tile": 47693, "center": 15497, "performance": 15526, "Rem": 31157, "alid": 29849, "\u0120SET": 30229, "\u0120key": 762, "ver": 2802, "425": 28171, "sim": 13092, "Topic": 48931, "\u0120instead": 1386, "gui": 42299, "Side": 42530, "env": 41124, "Wi": 42756, "tx": 43820, "56": 4419, "levels": 44280, "\u012070": 1510, "typ": 38321, "Charge": 44136, "etch": 29094, "\u0120proxy": 16453, "urrent": 41937, "336": 27624, "addr": 49439, "\u0120means": 839, "hen": 2457, "ffic": 22968, "del": 10273, "ETH": 31076, "426": 37911, "070": 37905, "ies": 918, "windows": 47748, "Par": 22011, "etr": 17985, "\u0120bec": 44949, "045": 39664, "\u0120372": 41717, "connect": 24501, "ues": 3663, "SET": 45099, "\u0120Found": 11911, "Wra": 48265, "\u0120env": 16028, "cfg": 49174, "\u0120must": 531, "Fake": 38193, "\u0120747": 34523, "Primary": 46604, "oci": 17641, "Kind": 39126, "893": 40663, "icked": 14851, "\u0120already": 416, "\u0120Display": 17091, "Add": 20763, "15": 996, "};": 49423, "id": 808, "ga": 2538, "29": 2890, "Rev": 38494, "er": 254, "592": 39642, "net": 4135, "535": 37020, "Eng": 35180, "drive": 19306, "747": 38886, "501": 36144, "\u012082": 7383, "fast": 16963, "setting": 19624, "258": 26866, "\u0120es": 2714, "Hash": 45620, "OT": 3293, "\u0120behave": 18871, "\u0120Not": 1491, "asu": 30007, "Ct": 47413, "\u0120Ak": 3773, "ea": 13184, "olic": 12589, "355": 29794, "\u0120Sensor": 34066, "\u0120Critical": 31725, "Min": 20086, "Still": 31133, "\u0120UE": 37084, "775": 28801, "END": 9309, "accept": 35468, "PC": 4794, "por": 12150, "exp": 18793, "\u0120logger": 37764, "tion": 24659, "Maximum": 48089, "\u0120allowed": 1220, "ry": 1506, "\u0120266": 37286, "\u0120successfully": 5116, "qq": 31341, "Definition": 47926, "diagn": 37445, "\u0120422": 41977, "500": 1497, "777": 33416, "930": 35493, "SY": 21134, "lif": 26264, "Ro": 27110, "Is": 6209, "fil": 18419, "variable": 48123, "\u0120sc": 2850, "Hand": 21292, "orter": 10679, "\u0120ep": 14887, "Inter": 26267, "isting": 15528, "uel": 8129, "mess": 38177, "contin": 27887, "\u0120include": 680, "\u0120403": 35611, "225": 18614, "0002": 42436, "important": 23022, "\u0120min": 5251, "164": 28988, "ILD": 27391, "PRO": 32863, "\u0120package": 3737, "ued": 6796, "atis": 27048, "MAP": 43861, "\u0120bu": 10306, "TW": 29334, "inite": 42524, "11": 1225, "\u0120outside": 751, "iling": 7022, "\u0120direct": 2228, "322": 34411, "244": 30043, "rust": 23705, "gorith": 45909, "\u0120Settings": 29020, "\u0120173": 30011, "limited": 27829, "images": 39472, "\u0120virtual": 6229, "modules": 48666, "patch": 40353, "tical": 39267, "Mac": 17049, "ix": 3181, "402": 34324, "\u0120ports": 9507, "ml": 18517, "102": 17024, "ways": 5924, "names": 37815, "AM": 2620, "atic": 5183, "MIN": 24765, "\u0120Node": 44058, "conservative": 36947, "\u0120model": 1421, "\u0120symbolic": 16868, "linux": 47694, "860": 34009, "usion": 15727, "ension": 17699, "\u0120396": 43075, "229": 26957, "ma": 1916, "lev": 9525, "760": 31222, "698": 38080, "wn": 11538, "eps": 26378, "ify": 4591, "\u0120associ": 40274, "ct": 3894, "VER": 9847, "Token": 45643, "Manager": 44854, "\u0120check": 1649, "565": 37402, "Ko": 42362, "Links": 45603, "ttp": 48741, "obj": 46134, "Cont": 26412, "Prev": 48521, "\u0120infrastructure": 2112, "\u0120initial": 2557, "Tab": 45561, "\u0120lane": 6625, "token": 46657, "actions": 28929, "expected": 10162, "\u0120remove": 3438, "Turn": 30093, "\u0120present": 1455, "231": 29949, "hist": 32001, "2008": 27418, "tf": 41407, "\u0120169": 28222, "\u0120108": 13955, "\u0120MOD": 35179, "237": 30069, "\u0120a": 10, "798": 40141, "755": 36434, "Lv": 46771, "850": 19270, "284": 32769, "\u0120365": 19671, "996": 39659, "asp": 9331, "\u0120runtime": 44190, "So": 2847, "\u0120190": 17235, "\u0120Value": 11714, "025": 36453, "\u0120soon": 1010, "reports": 13685, "313": 32827, "Fu": 43829, "400": 4017, "Handle": 48678, "LS": 10463, "Fil": 36361, "124": 22960, "DC": 5949, "Do": 8275, "UD": 13083, "257": 31297, "run": 2962, "It": 243, "Go": 11478, "igen": 8554, "hash": 25903, "her": 1843, "By": 2765, "\u0120might": 429, "utation": 31320, "Mc": 13564, "analy": 31111, "\u0120token": 19233, "VW": 41399, "tar": 11404, "\u0120384": 41285, "\u0120220": 14576, "ics": 2857, "RED": 36015, "\u012088": 7953, "IM": 3755, "xc": 45421, "MENT": 12613, "Controller": 48321, "G": 534, "\u0120identifiers": 46033, "725": 33741, "Tra": 24523, "214": 27153, "\u0120181": 30085, "\u0120report": 266, "\u0120entry": 3555, "YP": 41603, "643": 37853, "CPU": 47378, "used": 6199, "\u0120457": 42346, "707": 34877, "Slow": 43725, "Ser": 28498, "139": 25488, "123": 19644, "522": 38348, "jobs": 41207, "\u0120MAT": 25899, "lane": 21765, "\u0120been": 57, "\u0120428": 42829, "da": 6106, "cycles": 43407, "\u0120252": 34660, "165": 21933, "\u0120Ad": 1614, "52": 4429, "ecycle": 35296, "ford": 1891, "central": 16620, "AR": 2747, "107": 19000, "Us": 16419, "Po": 26170, "2013": 10684, "store": 8005, "\u0120Use": 7627, "Secret": 42592, "Contact": 43354, "desktop": 47912, "hard": 9635, "\u0120outputs": 39512, "51": 4708, "499": 26518, "??": 28749, "Http": 49549, "Version": 47322, "ulk": 16260, "Sound": 40866, "ick": 1758, "format": 34609, "\u0120default": 6814, "ven": 2987, "\u0120305": 29114, "ud": 1906, "oping": 12232, "Warning": 43370, "throw": 26003, "import": 41975, "34": 3079, "\u0120455": 40840, "\u0120download": 4016, "Race": 40246, "limit": 42425, "rets": 33064, "\u012027": 974, "\u0120hig": 46519, "\u0120content": 1383, "learn": 38229, "\u0120doesnt": 47320, "Vi": 43640, "Vari": 48269, "ful": 2650, "su": 9228, "\u0120transformation": 7791, "\u0120N": 234, "imal": 16980, "time": 958, "\u0120contained": 5558, "stone": 4670, "\u0120By": 870, "Field": 27780, "OC": 4571, "BG": 33887, "\u0120Aff": 11176, "\"-": 34133, "\u0120Un": 1890, "BAT": 41558, "\u0120F": 274, "ind": 2028, "\u0120336": 34454, "oti": 10939, "\u0120265": 26022, "ret": 4903, "void": 47908, "ASS": 17042, "ns": 6852, "case": 11173, "\u0120other": 97, "\u0120sh": 1481, "\u0120Get": 2315, "\u0120lam": 24160, "HS": 6391, "Factor": 43622, "\u0120Command": 9539, "ota": 6804, "NG": 5054, "integer": 49465, "test": 21959, "\u012015": 379, "Parameters": 49725, "687": 37399, "\u0120Fixed": 28092, "249": 25048, "\u0120master": 4710, "street": 20521, "H": 725, "\u0120htt": 49805, "ingle": 18768, "10": 698, "Bel": 19877, "[": 10975, "54": 4283, "Search": 39954, "\u0120WARNING": 16774, "\u0120import": 6595, "Kal": 32604, "ST": 4014, "\u0120better": 357, "special": 19423, "IN": 2444, "uments": 30179, "\u012018": 504, "\u0120failed": 1447, "618": 33225, "\u012075": 3337, "CSS": 47394, "315": 28355, "ep": 2462, "na": 2133, "\u0120OK": 4954, "\u0120Con": 2585, "Top": 14323, "\u0120143": 22726, "hz": 39569, "sta": 24981, "Thread": 47563, "With": 3908, "ats": 2923, "ang": 1097, "AC": 2562, "\u0120resolved": 8179, "Sport": 19451, "295": 27319, "PER": 21260, "806": 38717, "\u0120danger": 4854, "\u0120Tag": 12650, "rf": 29898, "dep": 17272, "\u0120representation": 8985, "\u0120update": 2935, "Exception": 48847, "Bus": 30840, "\u0120For": 286, "\u0120complete": 1498, "Cert": 44229, "inf": 9433, "240": 18847, "540": 31394, "Compare": 45448, "W": 771, "\u0120Make": 5293, "too": 15605, "Text": 39645, "602": 36094, "416": 30950, "rr": 28015, "\u0120recent": 485, "213": 29127, "etary": 33267, "Fac": 46166, "586": 38014, "bin": 9413, "Ti": 42631, "ceiver": 44168, "Port": 22117, "695": 34684, "Comm": 33479, "WER": 45117, "\u0120le": 2084, "Mu": 38448, "675": 32103, "\u0120enum": 49562, "Sync": 41342, "\u0120static": 25156, "HO": 30542, "matched": 38331, "\u0120Writing": 8123, "\u0120Information": 3522, "tal": 29420, "\u012013": 508, "driving": 10241, "8": 398, "\u0120new": 92, "\u0120te": 3055, "\u0120Vector": 40419, "rar": 17254, "uid": 29897, "den": 3898, "OME": 25073, "width": 36097, "\u0120157": 26289, "copy": 44273, "AME": 30104, "\u0120UN": 2604, "Flow": 41779, "\u0120display": 2332, "369": 34248, "\u0120it": 24, "dB": 45189, "ac": 1043, "ATION": 6034, "787": 38444, "iliary": 34114, "ously": 9412, "poll": 23605, "save": 31575, "259": 29961, "277": 31262, "93": 6478, "erv": 8649, "--------------------------------": 46939, "\u0120^": 37249, "due": 17193, "reach": 18645, "ique": 5150, "ide": 1949, "cal": 11762, "\u0120249": 36202, "angle": 14982, "form": 3899, "iqu": 9071, "448": 36246, "\u0120.": 479, "kt": 7282, "\u0120174": 28816, "picking": 39470, "017": 35142, "\u0120consolid": 24707, "181": 30818, "Dynamic": 47515, "07": 3570, "\u0120357": 41512, "Mass": 20999, "VI": 15176, "asking": 30954, "771": 40652, "\u0120fr": 6664, "\u0120292": 37299, "set": 8738, "810": 35269, "az": 1222, "\u0120missing": 1716, "Change": 36657, "Sub": 23055, "Sim": 29656, "compliance": 33182, "eff": 29678, "atal": 14720, "Hel": 31680, "SO": 14587, "ving": 6645, "CC": 3376, "tc": 42988, "\u0120input": 8135, "lass": 27355, "ORY": 26116, "sers": 48756, "\u0120191": 31487, "word": 14742, "\u0120134": 23006, "put": 9179, "\u0120define": 9914, "Access": 35505, "LE": 3850, "processor": 45309, "platform": 29912, "\u012094": 8940, "storage": 39675, "ave": 4097, "75": 2545, "alled": 9315, "ets": 2580, "Dem": 24658, "\u0120Basic": 17255, "Auto": 40845, "Lock": 37668, "Generic": 49144, "Send": 42735, "Multi": 46064, "\u0120python": 39825, "perties": 48525, "sd": 28045, "\u0120conditional": 23431, "TED": 43036, "STER": 32866, "\u0120Ge": 4177, "ploy": 27877, "inv": 24701, "\u0120messages": 3731, "sat": 39544, "default": 43234, "511": 38900, "\u0120specified": 17966, "\u012098": 8757, "Diff": 45985, "Ref": 31842, "460": 30875, "526": 30359, "\u0120Adding": 16304, "mal": 10417, "414": 35980, "Frames": 49361, "\u0120P": 221, "\u0120proper": 4692, "AMS": 31864, "529": 37261, "\u0120volatile": 9234, "Grid": 41831, "-------------": 39550, "Short": 34256, "color": 21685, "olean": 48547, "eh": 14897, "950": 24378, "arg": 5384, "011": 35620, "\u0120two": 80, "\u0120aware": 2542, "Enable": 48688, "\u0120platform": 1761, "\u0120position": 737, "soc": 32460, "reason": 41995, "session": 39035, "diff": 32278, "\u0120relevant": 4249, "known": 6421, "automatic": 27106, "Mess": 40169, "151": 27761, "Wait": 36446, "****": 30115, "ection": 20970, "BT": 13269, "\u0120`": 22209, "activate": 44410, "Work": 21461, "external": 43166, "fw": 44860, "\u0120458": 42513, "card": 6940, "UTION": 34058, "\u0120See": 4250, "end": 1397, "239": 29561, "\u0120rebuild": 9648, "mon": 5806, "\u0120measures": 1797, "\u0120module": 20686, "AD": 2606, "\u0120Sever": 26132, "ected": 21722, "rical": 36057, "Feature": 47702, "\u0120107": 13674, "pping": 5435, "git": 20901, "light": 6991, "694": 39688, "\u0120delete": 17462, "tun": 24641, "33": 3103, "DP": 5174, "MB": 8651, "ICAL": 24308, "\u0120third": 371, "\u0120exist": 5152, "NE": 9009, "struct": 25384, "[]": 48992, "\u0120Missing": 23632, "ale": 1627, "xp": 44813, "Inc": 34366, "495": 30973, "generation": 11092, "Duration": 49404, "total": 30033, "\u0120following": 511, "Display": 47254, "\u0120assigned": 5530, "\u0120column": 6730, "\u0120interface": 12332, "\u0120361": 41765, "www": 1401, "knowledge": 44228, "351": 35340, "third": 12347, "\u0120Yo": 17514, "\u0120180": 8963, "bc": 23219, "173": 30664, "mo": 4992, "\u0120determin": 26948, "\u0120343": 34016, "Gi": 40405, "\u0120->": 43839, "\u0120Ending": 38202, "eng": 3314, "ori": 6249, "Buffer": 49334, "ear": 4352, "\u0120algorithm": 17194, "1988": 42853, "metry": 42600, "OUT": 29891, "backs": 6205, "ome": 4399, "148": 26300, "ev": 3623, "rend": 10082, "Character": 48116, "tec": 26838, "\u0120void": 13842, "construct": 42843, "Count": 23329, "\u0120probably": 1153, "759": 39055, "packages": 48324, "Yo": 33543, "\u0120Request": 18593, "Gr": 15536, "ceive": 6550, "Dr": 14043, "ut": 1182, "Prov": 35746, "\u0120out": 66, "isted": 15346, "LIN": 13748, "reen": 22500, "Ge": 20981, "events": 28615, "703": 37106, "998": 39101, "654": 38138, "North": 11073, "press": 13447, "pb": 45306, "635": 38027, "\u0120macro": 12303, "peed": 39640, "467": 35400, "opping": 26307, "442": 35739, "152": 27097, ":\\": 48347, "\u0120th": 3553, "route": 37745, "inst": 16063, "project": 28258, "\u0120may": 189, "\u0120y": 1423, "Camera": 46839, "373": 34099, "Act": 26880, "Uk": 40264, "Def": 17425, "change": 14035, "CT": 7164, "\u01209": 361, "\u012090": 1814, "\u0120Interface": 39322, "\u012081": 7694, "43": 3897, "\u0120Field": 4754, "\u0120sw": 3514, "768": 37293, "115": 15314, "\u0120cannot": 1395, "Az": 25165, "{": 45152, ".............": 49170, "\u0120since": 187, "define": 47634, "431": 39015, "null": 15755, "RI": 6934, "\u0120151": 25936, "875": 29271, "Cor": 15228, "am": 424, "\".": 845, "\u0120comp": 7753, "Ability": 47685, "ld": 4779, "\u0120Patch": 19749, "icht": 5398, "Pres": 28917, "LCS": 34311, "jc": 36699, "frame": 26061, "FW": 18514, "hw": 30826, "sn": 22617, "ory": 4405, "\u0120CSS": 39887, "anca": 19740, "\u0120vi": 12987, "KT": 33893, "defined": 30764, "play": 5785, "df": 36807, "mph": 17055, "roll": 9671, "\u0120mod": 11134, "uit": 6439, "aten": 26511, "ri": 1069, "Pop": 30255, "TI": 13216, "ne": 858, "\u0120}": 35524, "\u0120###": 22560, "rite": 36500, "\u012044": 3550, "\u012029": 1132, "\u0120105": 11061, "\u0120ID": 4576, "\u0120104": 13259, "ents": 4189, "Names": 47995, "Recent": 39936, "y": 219, "\u0120issues": 743, "each": 37782, "\u0120defin": 32888, "Cand": 41309, "010": 30583, "77": 4718, "riend": 36619, "\u0120res": 5032, "ilot": 20366, "69": 4563, "rec": 13139, "\u0120iso": 47191, "able": 868, "party": 6493, "\u0120Save": 11873, "\u0120Process": 19149, "\u0120lo": 4600, "ha": 1999, "/": 73, "--": 5579, "ji": 5186, "\u0120Short": 7787, "MER": 26011, "zer": 6403, "Country": 36735, "ans": 1253, "\u0120files": 6773, "\u0120Comfort": 30202, "vironment": 49225, "Wo": 44055, "\u0120requires": 3441, "UF": 29457, "ko": 3852, "\u0120SIL": 38322, "\u0120models": 3092, "enge": 20526, "all": 1250, "\u0120Change": 7229, "oks": 17015, "camera": 25092, "Runner": 45163, "without": 19010, "BUS": 22295, "Stre": 44382, "\u0120Custom": 16583, "\u0120c": 740, "el": 523, "\u0120declaration": 9394, "seed": 28067, "loader": 45910, "FI": 14071, "487": 37795, "320": 17655, "IENT": 44735, "997": 39970, "\u0120class": 1380, "ONG": 9672, "26": 2481, "\u012062": 5356, "When": 1779, "uri": 6151, "\u0120Stack": 31197, "Assembly": 45580, "erate": 45329, "\u0120from": 31, "\u0120parser": 48946, "Then": 12948, "\u0120h": 1368, "\u0120note": 1591, "\u0120133": 21448, "446": 33973, "Three": 15622, "AS": 2336, "\u0120case": 403, "Read": 25439, "IZ": 17045, "\u0120coun": 30335, "context": 46796, "Neg": 37128, "\u0120be": 28, "ONY": 32205, "setup": 48672, "utz": 17602, "gor": 26084, "\u0120601": 37753, "481": 34490, "\u01207": 262, "Ass": 26039, "ices": 6355, "Bat": 43852, "interface": 47888, "\u0120sure": 686, "return": 30921, "viation": 46021, "FC": 5268, "Smart": 25415, "Que": 31178, "send": 37785, "\u0120ap": 6256, "\u012010": 158, "\u0120ego": 21450, "check": 15954, "created": 27367, "\u0120Parking": 23304, "606": 36101, "04": 3387, "bd": 35470, "dm": 43604, "cf": 19911, "\u0120li": 16787, "Night": 31765, "ucer": 43886, "post": 7049, "MON": 20911, "\u0120Errors": 46357, "shoot": 26286, "br": 3809, "year": 180, "Average": 46315, "\u0120ab": 4091, "021": 41656, "047": 41782, "\u0120do": 109, "\u0120XML": 46917, "\u0120naming": 14221, "\u0120byte": 47893, "fu": 23359, "\u0120config": 40220, "\u0120Building": 6919, "im": 757, "arf": 21377, "Split": 46744, "218": 30487, "ee": 1942, "BM": 13386, "Trigger": 48339, "!!": 12846, "Id": 28081, "UG": 13644, "va": 3952, "Ren": 34837, "EE": 9993, "334": 33325, "384": 35324, "TS": 2685, "share": 12689, "\u0120tree": 3907, "Cloud": 14438, "security": 15506, "Dur": 38178, "\u0120113": 14881, "ata": 2186, "\u0120via": 1241, "io": 1020, "Return": 42555, "gb": 19562, "non": 13424, "\u0120230": 16242, "\u0120itself": 1495, "\u0120tests": 3457, "voc": 31375, "\u0120can": 64, "\u0120CL": 5289, "going": 12891, "D": 495, "\u0120name": 766, "\u0120prefix": 46622, "Central": 25674, "\u0120Transformation": 32742, "PO": 14465, "tt": 5967, "gro": 15821, "\u0120links": 5678, "leted": 36140, "Pad": 28874, "Shut": 42147, "\u0120possible": 678, "dimension": 47987, "\u0120because": 142, "Temperature": 48533, "gre": 28819, "hu": 6455, "changes": 34980, "quad": 41666, "ather": 13860, "group": 13839, "sup": 35901, "ative": 3693, "ts": 1872, "\u0120Please": 3401, "559": 38012, "Entity": 49448, "\u0120347": 40199, "emp": 37655, "vari": 41554, "\u0120logical": 16437, "aus": 7743, "\u0120Sym": 23052, "rn": 27771, "\u0120Verify": 47076, "\u012046": 4059, "imum": 40133, "register": 29662, "fm": 40523, "\u0120A": 83, "178": 28799, "\u0120mark": 2458, "\u0120issue": 696, "825": 34715, "coord": 39219, "\u0120125": 10529, "\u0120empty": 5802, "\u0120bit": 828, "\u0120Mod": 10274, "Tur": 38110, "VID": 43814, "Model": 45149, "\u0120there": 89, "uss": 4781, "659": 38223, "645": 33611, "Fi": 9474, "678": 37628, "Register": 44539, "365": 24406, "En": 16040, "writer": 9408, "\u0120move": 517, "736": 39619, "Bridge": 34206, "\u0120expected": 421, "Operation": 35360, "985": 38848, "\u0120com": 3137, "Debug": 49714, "NO": 13449, "ult": 6070, "builders": 32798, "xml": 47858, "ASC": 40230, "zu": 18372, "DL": 26109, "standard": 21993, "650": 16316, "received": 33979, "\u0120ch": 1855, "ort": 2723, "oy": 2160, "activ": 34276, "\u0120wh": 8401, "DT": 23858, "ient": 4843, "KEN": 41138, "EV": 19896, "ellen": 12128, "o": 139, "EL": 3721, "\u0120ss": 43987, ",-": 45693, "parts": 41466, "/*": 49051, "\u0120https": 1205, "eding": 13118, "\u0120order": 645, "enes": 39268, "\u0120gener": 20181, "shield": 44656, "\u0120workspace": 39603, "Not": 7199, "Exec": 46891, "BA": 3813, "hon": 16769, "\u0120sig": 17224, "\u0120definition": 8515, "Subscribe": 41848, "pe": 2379, "554": 38500, "elli": 13750, "framework": 48019, "ption": 24802, "park": 15129, "ZA": 22447, "\u0120800": 5735, "Rot": 44497, "agn": 11244, "scripts": 45930, "Dist": 42390, "Creating": 44308, "\u0120sim": 16207, "\u0120Delay": 44137, "Until": 22392, "\u0120multiple": 1533, "Ble": 40370, "Foot": 43244, "ui": 3371, "side": 3730, "1001": 45792, "\u012030": 389, "\u0120101": 6560, "Weight": 42158, "Raw": 40039, "search": 21061, "ic": 636, "\u0120Resource": 13877, "Auth": 44298, "neg": 23156, "!!!": 16506, "7": 406, "432": 37296, "\u0120counter": 3231, "\u0120Support": 7737, "112": 17729, "\u0120??": 42254, "\u0120written": 1982, "\u0120Governor": 3383, "hn": 10245, "Ar": 8138, "IT": 2068, "Wheel": 43560, "Er": 28012, "const": 20836, "Inv": 42782, "261": 32972, "ERE": 23142, "146": 27457, "jected": 31899, "361": 33736, "\u0120Jul": 9654, "jack": 23018, "Key": 28152, "\u0120:": 4832, "\u0120415": 34885, "14": 1570, "ulator": 26122, "224": 28835, "Cell": 40216, "Domain": 48527, "Mat": 30121, "015": 33279, "ohn": 17648, "silver": 40706, "\u0120un": 542, "\u0120belongs": 12918, "\u0120Tra": 8221, "graded": 9471, "\u012058": 4893, "ular": 8244, "144": 25208, "\u0120Ap": 8712, "Gra": 42997, "\u0120code": 3260, "Dep": 29774, "Ev": 25377, "\u012007": 13470, "763": 39850, "at": 415, "rl": 41857, "530": 30224, "Fa": 44663, "SEC": 21536, "pic": 19017, "tur": 18346, "ny": 2855, "\u0120started": 554, "Index": 45673, "unk": 6435, "\u0120fe": 10668, "Ak": 33282, "fb": 36028, "maps": 44754, "ines": 3141, "UE": 9162, "\u0120FORM": 45460, "\u0120Implementation": 39046, "\u0120OP": 24839, "317": 32072, "struction": 41287, "disable": 48986, "ER": 2076, "\u0120holds": 3106, "util": 32843, "Memory": 47184, "over": 2137, "aking": 7520, "514": 39335, "289": 28390, "details": 45839, "w": 605, "\u0120Finished": 42960, "Wall": 28216, "\u012066": 5138, "\u0120GET": 7777, "div": 26037, "\u0120behavior": 3650, "\u0120840": 41714, "549": 36476, "C": 347, "\u0120Elements": 40322, "TF": 20249, "\u0120star": 999, "td": 26767, "620": 32994, "ek": 1951, "atures": 15488, "\u0120Customer": 19458, "\u0120204": 28325, "\u0120CI": 19104, "\u0120Work": 6011, "queue": 48702, "Ins": 19751, "\u0120sk": 2972, "\u0120Directory": 44366, "efficient": 24645, "81": 6668, "155": 21403, "nd": 1187, "\u0120number": 346, "222": 16986, "\u0120syn": 17796, "Bas": 40258, "Async": 49636, "648": 36491, "Activity": 47874, "916": 40299, "MP": 7629, "ob": 2413, "ing": 154, "flow": 19322, "vice": 36237, "temp": 47946, "\u012055": 3490, "ates": 1626, "\u0120lin": 24248, "720": 29721, "par": 5489, "DM": 25652, "\u0120refer": 9115, "ites": 5110, "dist": 17165, "ainer": 22022, "\u0120textual": 46478, "\u00bf": 9470, "city": 14853, "ero": 5160, "worker": 23589, "def": 9232, "\u0120241": 35752, "\u0120extra": 1823, "\u011b": 50135, "Current": 42124, "\u0120description": 8194, "Phase": 45657, "cause": 27037, "704": 37871, "Sat": 29918, "Ch": 4771, "iary": 17174, "386": 34109, "counter": 24774, "\u0120State": 331, "sy": 8628, "\u0120Pool": 13906, "770": 35061, "968": 41258, "~~~~~~~~": 49364, "aries": 5119, "\u0120Pass": 7124, "MAL": 43602, "compatible": 41799, "rift": 23203, "\u0120ens": 23974, "equal": 30349, "gger": 36690, "ital": 8632, "31": 2983, "\u0120DO": 14010, "118": 21369, "\u0120store": 1400, "\u0120info": 8574, "mm": 5471, "\u0120adapt": 9037, "block": 16776, "frequency": 36274, "573": 38992, "adas": 13920, "019": 36632, "421": 38785, "\u0120once": 683, "\u0120warning": 2892, "\u0120he": 37, "\u0120tokens": 22121, "uced": 33862, "mine": 13523, "\u0120DEBUG": 49692, "\u0120Channel": 5331, "TT": 14543, "oid": 12572, "0000000": 45121, "andom": 46861, "frac": 48877, "5": 245, "\u0120common": 1537, "chain": 26149, "\u0120Send": 10683, "activation": 45888, "GY": 21661, "Clock": 45918, "acted": 29179, "232": 28503, "\u0120Passenger": 32763, "Usage": 49270, "445": 34964, "osis": 13310, "Stop": 22174, "883": 40714, "..": 7586, "Without": 20867, "\u0120identifier": 45261, "ew": 2753, "or": 368, "\u0120ass": 8446, "552": 35544, "\u0120rc": 48047, "Above": 42599, "working": 10733, "Collection": 48426, "WE": 9112, "\u0120Re": 1223, "ounce": 15810, "services": 28023, "653": 38616, "mill": 15466, "\u012001": 9465, "\u0120375": 29672, "digital": 29563, "os": 366, "sl": 9996, "adow": 26726, "\u0120introduces": 22007, "month": 2151, "zh": 13808, "\u0120User": 27913, "Success": 42697, "rs": 4926, "Rel": 29806, "\u0120tr": 2664, "LOG": 45403, "EH": 38832, "luster": 48202, "\u0120DS": 22338, "tenance": 42192, "engineering": 36904, "\u0120359": 40598, "OH": 11979, "Sample": 47241, "clock": 17036, "\u0120private": 940, "consumer": 31666, "\u0120hit": 478, "\u0120signals": 8724, "024": 40044, "\u0120or": 50, "\u0120except": 4682, "channel": 27681, "beat": 13825, "\u0120Error": 37943, "oling": 31992, "OK": 9335, "\u0120TN": 18671, "557": 38781, "\u0120Loading": 11414, "Name": 31723, "\u0120610": 33253, "tag": 10058, "889": 40027, "6": 401, "Vector": 48417, "SN": 12436, "2004": 34972, "echo": 45276, "\u0120Exit": 28705, "mark": 6920, "eder": 11736, "detail": 41467, "\u0120mand": 17047, "ls": 6634, "orting": 23817, "tions": 31291, "211": 30050, "\u0120o": 1021, "\u0120compiler": 44904, "\u0120expressions": 17528, "577": 36447, "\u0120Qu": 3232, "\u0120Container": 37424, "228": 29185, "Account": 43767, "riter": 37124, "Changed": 49108, "ceed": 32326, "\u0120Over": 2306, "216": 26912, "SE": 3388, "655": 35300, "\u0120specify": 17151, "empty": 41486, "ern": 3281, "Socket": 49019, "char": 24262, "\u0120white": 1104, "ll": 890, "arning": 47433, "Same": 42271, "ract": 15664, "Input": 48214, "Context": 48522, "Out": 14944, "derived": 38871, "HER": 21770, "WAY": 33520, "436": 38324, "esm": 47263, "Array": 48222, "\u0120109": 14512, "package": 46181, "\u0120503": 34531, "\u0120Br": 2265, "\u0120line": 516, "BO": 7997, "\u0120reference": 5135, "\u0120110": 8017, "940": 36509, "ressor": 45401, "ause": 17498, "443": 35741, "cod": 29659, "COM": 10370, "reg": 4950, "threat": 25836, "\u0120coordinate": 18251, "693": 40379, "Os": 11078, "2014": 16310, "Filter": 47625, "\u0120im": 4356, "\u0120given": 576, "iled": 6691, "checks": 28511, "production": 22862, "nm": 28235, "written": 23460, "Ru": 36439, "arge": 16347, "kh": 8467, "\u0120anywhere": 4558, "phase": 35483, "BER": 11126, "nan": 10197, "Fix": 35660, "Documents": 47722, "onic": 10003, "Elect": 31824, "\u0120en": 1177, "\u0120Co": 944, "point": 2300, "\u0120mandatory": 8549, "\u0120Infrastructure": 13469, "against": 22268, "reflect": 39878, "\u0120tried": 1381, "uch": 4272, "click": 23008, "Pot": 35516, "\u0120int": 6979, "\u0141": 4333, "\u0120,": 2156, "\u0120d": 385, "508": 36911, "Order": 45613, "BR": 7202, "clear": 18763, "\u0120Fields": 15502, "ak": 677, "trans": 9981, "\u0120u": 1717, "356": 32760, "\u0120incompatible": 37228, "PORT": 20275, "\u0120Vehicle": 16730, "Node": 48271, "itu": 15998, "onomous": 24239, "lus": 23761, "STATE": 45380, "Apply": 47456, "\u0120base": 1542, "types": 41817, "Ke": 19226, "\u0120exec": 26126, "zip": 39017, "zl": 30094, "\u0120433": 42617, "FACE": 47031, "ard": 1120, "\u0120Rec": 7382, "Gu": 14484, "design": 23414, "THE": 13354, "upp": 12151, "Back": 19085, "Most": 2895, "\u0120RUN": 35557, "\u0120release": 800, "60": 2466, "report": 7415, "\u0120SAM": 23978, "Native": 45339, "\u0120retain": 7615, "\u0120Stat": 15420, "\u0120720": 26180, "rop": 6884, "\u0120*": 1009, "\u0120impl": 12956, "449": 32940, "ATOR": 39261, "349": 27758, "70": 3083, "Global": 18811, "\u0120340": 26227, "\u0120St": 312, "\u0120setting": 2749, "953": 41663, "\u0120bad": 1099, "136": 25966, "\u0120requesting": 14030, "....": 17220, "553": 39252, "rule": 28523, "execute": 48592, "clude": 46962, "awn": 11716, "595": 35305, "grad": 18252, "cel": 9736, "\\": 37457, "\u012042": 3330, "642": 36159, "ong": 1657, "01": 2663, "self": 13367, "find": 26559, "\u0120represent": 3594, "family": 12368, "isi": 8539, "only": 8338, "366": 34357, "Standard": 35167, "complete": 27527, "OD": 7111, "maximum": 41976, "scription": 25120, "loop": 31290, "PH": 7561, "UID": 46508, "\u0120fi": 13383, "NI": 17640, "CS": 6842, "TR": 6997, "\u0120invalid": 21567, "424": 35784, "ritical": 46492, "570": 32976, "wash": 31441, "Setup": 49398, "\u0120Properties": 13094, "\u0120connecting": 9809, "\u0120fa": 18363, "075": 36754, "175": 16925, "IO": 6454, "Round": 41061, "\u0120404": 37014, "Sel": 39736, "550": 17953, "lor": 10159, "677": 38434, "agi": 18879, "est": 990, "\u0120Output": 38252, "\u0120Event": 11373, "2010": 24789, "bar": 4901, "676": 39071, "ost": 2603, "Front": 35985, "sys": 43103, "ression": 21791, "vision": 14675, "423": 34986, "@": 1039, "He": 894, "Failure": 45723, "ICLE": 45544, "\u0120modules": 22744, "z": 329, "709": 38139, "Scope": 45190, "PD": 6153, "om": 1075, "weather": 21693, "\u0120indicator": 9189, "ity": 1571, "375": 21353, "Lt": 45105, "QU": 15513, "Hor": 39389, "resp": 36217, "://": 640, "626": 37190, "\u0120list": 889, "tracking": 29978, "bo": 3983, "Sensor": 48733, "uration": 27975, "\u0120Serving": 35586, "\u0120430": 29670, "\u0120Global": 1849, "right": 4070, "formation": 26941, "\u0120when": 77, "Al": 7083, "roup": 20833, "ext": 16435, "\u0120sp": 2292, "Na": 30612, "eg": 3733, "\u0120!": 27785, "\u0120750": 16725, "dn": 26812, "\u0120included": 1165, "cas": 20363, "spe": 18462, "RESULTS": 49043, "\u0120both": 258, "ref": 13043, "parse": 48778, "domain": 46400, "\u0120counterpart": 10255, "\u0120Thermal": 38137, "138": 25352, "rate": 7954, "\u0120C": 230, "142": 26738, "\u0120296": 40625, "true": 29225, "ions": 2485, "\u0120ip": 36180, "\u0120run": 422, "Drive": 29279, "783": 40184, "uth": 5914, "user": 12105, "\u0120the": 5, "347": 32532, "Qual": 42170, "ding": 11303, "220": 16846, "Command": 46785, "\u0120G": 272, "UT": 6972, "driver": 32265, "\u0120246": 35303, "move": 30191, "CP": 7496, "Cs": 31229, "\u0120developing": 2623, "980": 36824, "gon": 14601, "36": 3367, "gy": 4740, "usive": 30225, "Age": 39006, "\u0120Copy": 22279, "\u0120interfaces": 33285, "162": 29899, "512": 35033, "Loading": 46691, "\u0120Coun": 10047, "Pro": 10653, "Dust": 44291, "\u0120points": 332, "\u0120That": 280, "335": 28020, "338": 32088, "OB": 7912, "581": 39263, "\u0120186": 30509, "Path": 42119, "bit": 5881, "Call": 20653, "ast": 1988, "\u012053": 4268, "WA": 8460, "956": 41632, "address": 44547, "\u0120344": 40761, "align": 44022, "ble": 5225, "\u0120Nexus": 28645, "Ent": 30495, "ei": 13862, "Stream": 36757, "ams": 7042, "onym": 41433, "AB": 4546, "*****": 40255, "\u0120In": 96, "ield": 8363, "atch": 11175, "Down": 17853, "Multiple": 43253, "264": 29137, "121": 22388, "Im": 20470, "commun": 27217, "\u0120comparison": 6676, "1007": 47281, "\u0120DE": 5885, "very": 5525, "ELL": 25322, "um": 783, "\u0120Ex": 3015, "uction": 27345, "li": 3572, "http": 8166, "TEXT": 49347, "\u0120Import": 20891, "Static": 48927, "oled": 30304, "\u01208": 290, "\u0120separate": 2559, "key": 5282, "194": 30548, "DEV": 47233, "\u0120overflow": 34391, "523": 39864, "Ber": 26795, "iti": 4933, "----": 44259, "\u0120member": 919, "BY": 19058, "\u0120179": 29189, "\u0120commit": 6225, "\u0120ac": 4285, "797": 40065, "\u0120Description": 33425, "Les": 35057, "adapt": 43199, "Free": 18074, "oder": 15362, "fat": 19987, "ould": 25513, "Pi": 42293, "\u0120Loaded": 45759, "failed": 38323, "FIELD": 19095, "\u0120332": 37811, "TOP": 28332, "\u0120Sk": 4058, "\u0120Beta": 25905, "det": 17701, "\u0120STAT": 27023, "141": 27142, "NP": 10949, "\u0120sho": 14172, "497": 38143, "\u0120[[": 48395, "Build": 36590, "02": 4197, "ystem": 37693, "GP": 12694, "\u0120link": 3104, "437": 38999, "\"\"": 48149, "\u0120137": 22619, "yu": 29159, "strument": 41392, "Near": 46034, "\u012069": 5913, "arget": 45358, "Copy": 48233, "norm": 42258, "micro": 35228, "\u0120fully": 1950, "\u0120328": 37428, "\u0120385": 39794, "ZI": 40195, "poly": 42460, "\u0120support": 323, "\u0120on": 15, "ath": 2681, "88": 4652, "\u012025": 564, "\u0120different": 430, "\u0120Sum": 9430, "132": 24083, "Transform": 44820, "Plot": 48812, "motion": 35474, "301": 28167, "secure": 34153, "\u0120Address": 17416, "health": 14388, "\u0120312": 32490, "pri": 13718, "\u0120Those": 2246, "\u0120ma": 9131, "\u0120INTER": 20281, "float": 46349, "Crit": 46517, "Using": 36949, "877": 27806, "Safe": 32356, "415": 30092, "F": 597, "READ": 29825, "SI": 6850, "Any": 11913, "\u0120External": 25468, "697": 38719, "energy": 18261, "_.": 47426, "MD": 12550, "Conn": 19730, "vec": 25369, "--------": 49198, "\u0120Messages": 34692, "Initial": 46187, "abs": 10155, "\u0120Sm": 4966, "05": 2546, "Ag": 19897, "\u0120Supp": 13256, "CF": 25388, "\u0120coding": 25776, "tri": 21237, "IB": 8863, "343": 31920, "1800": 38510, "watch": 11018, "Den": 27267, "\u0120Update": 14686, "Exp": 39891, "IK": 20458, "policy": 34571, "478": 37664, "\u0120121": 18872, "ten": 3869, "Area": 42895, "false": 22303, "06": 4124, "section": 22580, "Management": 43266, "~~~~~~~~~~~~~~~~": 48936, "ann": 2279, "tl": 34842, "ze": 2158, "126": 24108, "145": 16504, "\u0120me": 162, "905": 38893, "30": 541, "\u0120330": 21006, "dk": 43357, "stage": 10850, "Download": 44514, "\u0120is": 16, "Format": 48587, "Events": 43248, "summary": 48600, "tern": 18995, "\u0120cre": 8633, "nis": 10892, "DW": 39751, "345": 26868, "Plug": 48022, "\u0120Fr": 4967, "istance": 32556, "Percent": 48497, "VERSION": 48195, "ik": 967, "shop": 22799, "\u0120actual": 3031, "tg": 42698, "\u0120Heart": 6924, "ight": 5971, "bable": 44230, "\u0120b": 741, "\u0120Operator": 7854, "\u0120\"": 22, "Pay": 24522, "\u0120Rest": 8426, "ANC": 9363, "pack": 12486, "496": 37770, "INT": 17831, "\u0120222": 25884, "spl": 34282, "\u0120436": 43319, "invoke": 49573, "igr": 23704, "INE": 13974, "Aug": 20415, "\u0120218": 28405, ".": 4, "byte": 47692, "969": 40996, "bf": 36920, "fi": 9169, "Loop": 47736, "planned": 23648, "ARD": 11250, "\u0120NOT": 8127, "346": 34088, "comp": 11828, "Grad": 44908, "Va": 25546, "ico": 2684, "engine": 23403, "trl": 48385, "Files": 14824, "705": 35278, "Dash": 43653, "\u0120x": 3023, "\u0120Bam": 23871, "Cra": 47137, "phi": 32079, "za": 2478, "403": 34030, "points": 21996, "ray": 5022, "\u0120162": 25728, "AN": 1889, "d": 417, "binding": 28378, "ensor": 35354, ".....": 38917, "\u00bc": 4394, "Le": 10350, "Per": 20823, "\u0120Another": 2044, "\u0120mo": 7458, "tered": 10001, "BF": 21265, "ech": 7529, "RM": 28580, "pol": 19028, "pm": 1685, "wo": 14869, "str": 6031, "SUP": 45531, "\u0120CSI": 31888, "Gen": 15887, "2005": 32857, "GE": 8800, "\u0120CRC": 43444, "pi": 19581, "Typ": 47572, "base": 11070, "\u0120Function": 42419, "ground": 13981, "326": 35766, "Plus": 27576, "772": 38949, "smart": 22914, "401": 33871, "mp": 6195, "46": 3761, "mat": 9244, "344": 31907, "363": 34401, "Session": 48171, "ded": 17452, "True": 36948, "Priv": 47494, "37": 3272, "\u0120129": 21234, "vor": 23690, "pas": 28466, "wp": 12251, "create": 32845, "mask": 43776, "201": 16295, "Boot": 46689, "ranged": 46993, "none": 39763, "^": 35227, "error": 44223, "urance": 12590, "Missing": 45104, "sent": 19530, "hest": 20921, "ef": 4550, "OM": 3765, "rieg": 38569, "uint": 47157, "\u0120Energy": 2169, "STEM": 43896, "mit": 8974, "on": 261, "\u0120248": 31490, "484": 37810, "power": 11017, "lo": 4082, "component": 46362, "under": 5087, "ced": 7618, "kg": 9043, "\u0120<": 28696, "\u0120\"\"": 41039, "vl": 41350, "MAT": 41229, "473": 37887, "ONE": 16646, "avior": 47475, "LL": 6006, "Track": 39901, "\u0120425": 32968, "low": 5481, "\u0120conversion": 10012, "El": 9682, "BLE": 30876, "White": 15725, "EP": 9662, "\u0120determine": 3094, "116": 22418, "alysis": 45253, "226": 29190, "273": 26273, "Impl": 48455, "610": 33375, "rol": 9396, "erm": 8362, "\u0120defined": 6533, "\u0120km": 6301, "\u0120state": 194, "De": 13365, "752": 39738, "virtual": 42084, "AK": 7140, "Handler": 49191, "477": 20811, "start": 13124, "Unit": 43980, "Close": 42841, "r": 338, "\u0120LA": 5168, "TM": 14386, "cpp": 49317, "aer": 27075, "TABLE": 46859, "Pr": 21077, "\u0120startup": 9143, "$": 1629, "\u0120Control": 6007, "MIC": 45717, "\u0120Element": 35871, "module": 48095, "aster": 8831, "Interest": 44468, "formed": 10312, "In": 1121, "\u0120processes": 5588, "\u0120cp": 46247, "Invalid": 49695, "\u0120method": 5448, "\u0120Ins": 6326, "\u0120Property": 10491, "Road": 32009, "Running": 42900, "ub": 1792, "yi": 28831, "911": 37157, "Fast": 35515, "As": 1620, "ither": 15027, "\u0120170": 12641, "version": 21747, "Det": 43170, "zed": 16317, "\u0120Active": 14818, "aro": 5191, "\u0120map": 5456, "\u0120Starting": 11677, "\u0120src": 47215, "Forward": 43057, "Example": 48837, "100": 1866, "418": 37182, "wh": 11613, "slow": 33234, "IER": 35875, "Abs": 43610, "dump": 46593, "is": 354, "\u0120Option": 28316, "ge": 1899, "\u0120TP": 31847, "high": 3530, "way": 1970, "CAP": 28494, "ys": 2459, "ules": 17773, "tr": 4328, "970": 35115, "FS": 7881, "Provider": 48903, "\u0120Driver": 16870, "we": 1694, "Buff": 42021, "wrong": 35621, "\u012024": 706, "\u0120matched": 9184, "\u0120elements": 4785, "values": 43994, "184": 29023, "local": 18076, "\u0120737": 22300, "\u0120connection": 2748, "\u0120**": 13540, "S": 104, "\u0120array": 8932, "\u0120e": 364, "My": 2387, "ir": 853, "Wh": 14447, "ite": 1459, "broken": 15894, "476": 33981, "array": 30766, "emon": 34344, "\u0120root": 9749, "700": 5987, "171": 29572, "\u0120product": 1152, "\u0120permitted": 11047, "\u012068": 5595, "txt": 46795, "519": 39327, "look": 13724, "Rec": 21109, "65": 3506, "mand": 14785, "\u0120condition": 1881, "DIT": 45509, "Mom": 29390, "results": 38547, "onal": 20171, "\u0120client": 3653, "eral": 6653, "Long": 21001, "802": 37674, "\u0120local": 400, "Stat": 41706, "\u0120scanning": 24333, "357": 30628, "conn": 22854, "ences": 8457, "\u0120Extended": 36358, "sis": 20394, "order": 10337, "Heart": 28285, "130": 11343, "can": 7424, "332": 33911, "\u0120Path": 16234, "\u0120UTC": 33440, "ode": 4636, "turn": 15922, "Only": 19933, "ostic": 31831, "now": 8310, "nosis": 32444, "AIN": 33178, "\u0120Consumer": 7653, "\u0120...": 1666, "\u0120read": 1166, "Su": 20689, "ults": 34869, "Em": 16750, "unsigned": 49418, "mod": 14377, "DATA": 48242, "reader": 40536, "U": 791, "/**": 49795, "open": 12592, "\u0120219": 30419, "call": 16395, "ohm": 43275, "767": 38504, "Light": 31091, "684": 37821, "441": 36011, "reme": 21612, "774": 39786, "PRE": 43869, "\u0120dependencies": 45371, "250": 5714, "bs": 4311, "ever": 6294, "ench": 24071, "Q": 1864, "yes": 10932, "ily": 5846, "era": 3843, "strom": 10544, "691": 40572, "definition": 38835, "safe": 22725, "391": 35848, "Six": 27696, "ational": 5033, "AL": 2118, "Body": 41024, "add": 4917, "Electric": 40906, "\u0120personal": 1081, "sk": 7771, "Button": 48053, "\u0120Str": 5997, "hr": 5039, "504": 36131, "conf": 17075, "608": 36874, "\u0120540": 31366, "609": 37295, "Select": 45356, "ag": 1073, "156": 27915, "587": 38878, "function": 35435, "\u0120part": 233, "ec": 3204, "OFF": 32794, "\u0120Number": 12270, "query": 48360, "662": 36577, "\u0120arguments": 7576, "lean": 21926, "\u0120FIN": 20381, "Dom": 39914, "Eva": 46672, "\u0120into": 88, "ild": 9683, "MODE": 49523, "Client": 47952, "\u012038": 2843, "\u0120detection": 12673, "gp": 44191, "atomic": 45826, "comm": 24302, "loaded": 24919, "circle": 44467, "LAB": 44435, "ache": 7374, "\u0120CBS": 3710, "Co": 8739, "ITE": 12946, "\u01204": 204, "BC": 3573, "mary": 22501, "View": 22130, "464": 38888, "\u0120Dem": 5245, "public": 15110, "\u0120DATA": 35900, "DCS": 47791, "ISO": 43535, "\u0120Bundle": 40876, "asse": 10627, "Zero": 38423, "entric": 44581, "INFO": 48050, "Code": 41555, "\u0120el": 1615, "507": 38235, "cross": 15329, "squ": 30919, "243": 30320, "Issue": 47676, "555": 33772, "region": 37140, "ategy": 41220, "andro": 22967, "Obs": 40089, "\u0120variables": 25083, "termin": 42985, "listed": 11301, "ursive": 47779, "HM": 35441, "**": 12606, "flags": 46760, "\u0120used": 341, "\u0120take": 185, "flag": 30160, "ycle": 44397, "class": 4684, "Set": 28512, "anka": 14391, "h": 298, "oring": 5137, "Open": 25266, "amd": 45594, "CRE": 45503, "79": 5220, "\u0120therefore": 3891, "OTE": 28002, "wi": 16631, "]-": 48520, "op": 1517, "fire": 7051, "avi": 11132, "stable": 33435, "ors": 994, "\u0120software": 2257, "\u0120of": 9, "291": 33657, "\u0120with": 19, "Base": 34164, "message": 44773, "Default": 48398, "nz": 22973, "WARNING": 46112, "\u0120trans": 6214, "Air": 17906, "880": 32954, "263": 29969, "Lib": 37688, "\u0120branch": 6084, "32": 2881, "323": 32624, "onent": 40400, "0001": 27623, "\u0120assert": 18088, "ARA": 19142, "212": 22145, "pos": 11474, "Sit": 44683, "\u0120Waiting": 34844, "management": 14668, "\u0120All": 404, "Parameter": 49752, "\u0120cache": 30283, "Rain": 23074, "stack": 41590, "/.": 11665, "776": 39402, "cha": 7794, "element": 46168, "sections": 45022, "032": 40935, "hold": 4208, "428": 38151, "signed": 29328, "681": 38149, "\u0120results": 775, "\u0120{": 25522, "268": 31145, "480": 27018, "loc": 26516, "\u0120expl": 22907, "Av": 23389, "Gate": 37155, "oth": 6157, "Always": 37478, "ly": 352, "\u012021": 733, "\u0120mem": 26012, "Att": 28062, "\u012089": 8572, "\u0120encrypted": 25972, "pa": 6709, "ain": 1851, "stab": 41842, "most": 7877, "\u0120termin": 19022, "1000": 20078, "Band": 36283, "029": 41168, "position": 14413, "\u0120copied": 15443, "\u0120&&": 48200, "wa": 2739, "global": 9424, "167": 25540, "\u0108": 50116, "670": 34148, "\u0120json": 49133, "Red": 15638, "\\\\": 48669, "\u0120aut": 7241, "\u0120164": 27983, "hour": 4509, "21": 2146, "ference": 23861, "FOR": 27201, "</s>": 2, "ical": 3569, "ress": 5224, "models": 43457, "TOR": 18861, "Sleep": 44108, "488": 36120, "Configuration": 49602, "ruck": 20777, "\",": 1297, "303": 29274, "strip": 34216, "android": 47899, "\u0120st": 1690, "\u0120t": 326, "chron": 30630, "\u0120pointer": 41515, "\u0120construct": 12558, "comment": 44951, "system": 19675, "Ze": 39516, "DOM": 45092, "864": 40093, "\u0120networks": 4836, "\u0120___": 2165, "x": 1178, "\u012076": 5553, "\u0120Li": 5991, "LO": 19787, "t": 90, "19": 1646, "\u0120Mo": 3713, "aka": 5870, "Prep": 44165, "790": 34504, "zz": 7399, "337": 32620, "rough": 10344, "234": 28621, "\u0120namespace": 49010, "1994": 41525, "LESS": 43023, "keleton": 44869, "189": 28945, "Aut": 37434, "\u0120forecast": 1914, "pc": 17426, "72": 4956, "\u0120dangerous": 2702, "328": 35252, "\u0120true": 1528, "000": 151, "ifier": 24072, "communication": 24741, "Trust": 18823, "ram": 4040, "\u0120None": 9291, "\u0120Release": 15781, "896": 41256, "\u0120270": 18673, "otal": 35067, "Activ": 43034, "reply": 48317, "ros": 3985, "\u0120bytes": 46487, "\u0120Byte": 46594, "733": 38765, "001": 19089, "96": 5607, "Fest": 27170, "525": 29451, "initial": 45696, "\u0120group": 333, "ITY": 8662, "tes": 12782, "lib": 34748, "Fr": 29220, "otion": 19187, "location": 41829, "Builder": 45200, "\u0120terminated": 18450, "Mis": 44089, "safety": 29926, "works": 11655, "Delta": 38816, "ent": 1342, "resolution": 29646, "\u0120Spec": 33534, "040": 36016, "po": 5873, "vere": 12081, "lect": 17601, "\u0120members": 453, "629": 39681, "Sh": 3609, "ffer": 23926, "entry": 12595, "q": 1343, "essen": 24439, "\u0120279": 37191, "\u0120M": 256, "und": 3194, "\u0120proto": 43835, "ged": 4462, "bat": 12161, "handler": 45291, "73": 5352, "vm": 38486, "ML": 10537, "\u0120Ec": 19722, "200000": 49044, "ANN": 15118, "king": 7037, "\u0120incremental": 16548, "pkg": 48481, "Safety": 40592, "atibility": 46318, "PM": 5683, "\u0120289": 39613, "ACH": 11083, "tool": 43342, "08": 3669, "Hold": 12250, "bda": 48631, "Ho": 29729, "Offline": 49238, "kl": 16291, "556": 37305, "ALL": 7981, "589": 40017, "97": 6750, "\u0120you": 47, "ANCE": 15255, "\u012040": 843, "Vel": 44522, "Last": 10285, "relevant": 41017, "ami": 5602, "\u0120E": 381, "ID": 2688, "\u0120Target": 8506, "\u0120124": 19446, "board": 4929, "\u0120timeout": 25386, "uro": 7367, "899": 36681, "She": 2515, "soft": 24810, "ESS": 12147, "ACT": 13709, "TAIN": 23177, "ilar": 16813, "Hu": 39087, "db": 33845, "Weather": 29840, "656": 36431, "Transfer": 46552, "\u012059": 5169, "\u0120342": 28911, "94": 6405, "\u0120Pilot": 22231, "\u012065": 3620, "578": 38588, "\u0120finished": 1550, "\u0120TX": 12031, "\u0120real": 588, "ince": 15062, "moving": 19838, "ird": 8602, "GET": 18760, "feld": 12706, "********": 44116, "nen": 19596, "WOR": 42204, "eth": 4774, "\u0120f": 856, "ready": 16402, "\u0120upper": 2853, "\u0120num": 15009, "ark": 3994, "raft": 13001, "fall": 7349, "BD": 18941, "\u0120900": 10742, "PP": 5756, "oding": 19519, "ph": 3792, "Di": 29038, "IP": 3808, "RE": 4629, "SB": 12380, "\u0120111": 11571, "\u0120option": 1973, "\u0120Shadow": 19194, "inc": 3976, "\u0120Try": 11087, "quality": 8634, "\u0120Stand": 13371, "\u0120mac": 13418, "RAM": 19496, "rm": 22900, "rent": 9854, "\u0120http": 2054, "atcher": 43824, "\u0120match": 914, "ung": 1545, "\u0120Current": 9149, "qu": 2253, "\u0120Resources": 5187, "rea": 9891, "Small": 34647, "360": 14586, "Kay": 28421, "617": 39372, "\u0120202": 22991, "OF": 21600, "HL": 8064, "\u0120w": 885, "\u0120providers": 4898, "\u0120225": 15751, "eret": 28290, "fab": 36636, "nv": 37594, "yn": 3892, "mem": 25683, "WS": 13691, "oc": 1975, "ptr": 43880, "ification": 5000, "318": 34025, "part": 7755, "vable": 43149, "Secure": 44381, "mk": 43503, "855": 33450, "\u0120Service": 1841, "\u0120ISO": 26553, "\u0120external": 6731, "\u0120Default": 35364, "enth": 28249, "\u0120141": 23580, "\u0120123": 17072, "STE": 40340, "\u0120_": 18134, "805": 34249, "FR": 5499, "Han": 39531, "794": 40528, "954": 40893, "wait": 37405, "\u0120ph": 7843, "13": 1558, "lip": 33330, "\u0120Using": 8630, "ler": 1371, "779": 38759, "\u0120302": 31773, "Package": 48680, "Parser": 49707, "\u0120From": 1740, "rom": 5638, "683": 39062, "dt": 38585, "atz": 15586, "327": 35253, "\u0120docker": 48133, "IG": 5969, "447": 35337, "OND": 7054, "Sc": 12645, "\u0120surround": 21104, "ledge": 21945, "gorithm": 47549, "Iterator": 49981, "\u0120This": 152, "apsed": 40925, "\u0120took": 362, "Stats": 45285, "Application": 46345, "\u0120146": 24543, "ating": 1295, "Policy": 46159, "pro": 4892, "Battery": 47795, "\u0120Do": 1832, "688": 37199, "about": 9006, "\u0120unlikely": 3752, "availability": 39798, "\u0120safety": 1078, "398": 35556, "Tank": 46192, "Ctrl": 48719, "Cut": 40992, "Men": 17762, "002": 19130, "\u0120115": 12312, "\u0120Despite": 2285, "DEBUG": 49837, "\u0120dont": 33976, "actual": 44033, "Pl": 16213, "ION": 7744, "CHA": 32812, "ution": 15175, "acing": 7575, "472": 37401, "750": 10569, "irs": 21098, "lear": 35467, "033": 40958, "\u0120Team": 2711, "Bal": 35917, "]": 742, "deg": 28904, "flex": 34739, "DN": 40795, "SW": 11871, "##": 48342, "RO": 8727, "\u0120file": 2870, "\u0120Configuration": 47048, "Sl": 26724, "\u0120properly": 5083, "ff": 3145, "olds": 10736, "ible": 4748, "\u0120cached": 47622, "993": 41455, "271": 32145, "gu": 5521, "\u0120Unable": 39226, "Lim": 44222, "RL": 17868, "TIME": 39007, "482": 37385, "vel": 5536, "pose": 21519, "resources": 40897, "direction": 42184, "671": 39392, "\u0120implementation": 5574, "SD": 6243, "table": 14595, "\u0120Reason": 31613, "physical": 41359, "Ord": 43670, "\u0120secure": 2823, "Serial": 47070, "Tag": 45650, "\u0120Progress": 11679, "\u0120generating": 10846, ">,": 48077, "ges": 5641, "\u0120duplicate": 33196, "src": 45692, "Term": 23036, "bn": 6316, "\u0120that": 14, "template": 48790, "\u0120skipped": 22904, "ord": 3109, "u": 257, "timer": 36588, "icit": 17022, "ocket": 31629, "ascal": 40657, "CHAR": 29146, "041": 41450, "781": 40149, "\u012043": 3557, "url": 6423, "AE": 16329, "\u0120changed": 1714, "Move": 41389, "cd": 28690, "ply": 26308, "992": 40235, "\u0120140": 9680, "RC": 5199, "Spl": 43899, "ahl": 9791, "491": 37676, "ery": 4270, "\u0120Warning": 21505, "Support": 38873, "\u0120settings": 9629, "On": 4148, "\u0120303": 31218, "network": 34728, "\u0120Radar": 23606, "BW": 42150, "663": 39505, "coming": 7936, "Row": 43277, "\u0120expect": 1057, "poses": 38395, "Root": 46606, "Ped": 39690, "89": 5046, "404": 32957, "Pe": 23029, "amp": 3914, "binary": 40155, "\u0120applicable": 10404, "\u0120There": 345, "03": 3933, "197": 30586, "\u0120Build": 15195, "457": 34916, "KA": 14559, "562": 36950, "\u0120created": 1412, "Driver": 46022, "ste": 6526, "\u0120<<": 48188, "LA": 8272, "hm": 13492, "duct": 43518, "Information": 38741, "Poll": 42845, "\u0120user": 3018, "ends": 8845, "ilation": 29357, "pod": 40762, "wheel": 13630, "num": 42666, "\u012026": 973, "Park": 25130, "\u0120return": 671, "ss": 7485, "080": 32089, "Ray": 24185, "No": 3084, "\u0120handling": 5516, "no": 2362, "\u0120compile": 33172, "\u0120338": 39344, "887": 40793, "\u0120size": 1836, "Pos": 42848, "\u012054": 4431, "Each": 20319, "\u0120listed": 3147, "\u0120--": 480, "CN": 29990, "Beh": 47001, "\u0120Fix": 25088, "art": 2013, "ROM": 41944, "an": 260, "647": 36603, "Pan": 34263, "ading": 8423, "429": 31877, "Des": 28324, "dl": 30469, "Loc": 45062, "281": 32071, "392": 36350, "WARN": 48976, "top": 8766, "1016": 45820, "\u0120add": 1606, "\u0120112": 12730, "\u0120and": 8, "276": 31782, "day": 1208, "185": 23334, "\u0120Editor": 8627, "HA": 6826, "489": 37900, "\u0120configuration": 20393, "90": 3248, "ell": 1641, "\u0120150": 3982, "fixes": 48044, "ittance": 35926, "Cl": 11428, "mer": 2089, "category": 42747, "\u0120You": 370, "*,": 36592, "apping": 12040, "\u0120container": 11255, "v": 705, "quarter": 4409, "Lo": 25419, "434": 38063, "FA": 5944, "switch": 43067, "If": 1106, "\u0120done": 626, "987": 40366, "character": 23375, "monitor": 38575, "\u0120Di": 3643, "FIN": 25623, "NULL": 49728, "solid": 34887, "\u0120Merge": 46417, "\u0120generation": 2706, "rix": 15072, "options": 45012, "URN": 28267, "work": 6014, "\u0120write": 3116, "Adapter": 49617, "read": 12745, "Entry": 46640, "\u0120sever": 20242, "Dis": 26402, "\u0120references": 13115, "amb": 3146, "kil": 15870, "achine": 47480, "Bit": 36918, "but": 4297, "ULL": 25792, "Date": 39525, "\u0120artifact": 43260, "etc": 42624, "Old": 26605, "920": 29099, "462": 37045, "\u0120WARN": 47612, "station": 30650, "rors": 38505, "Counter": 44057, "ollow": 40686, "Ang": 25441, "Storage": 46656, "\u0120Note": 6068, "bas": 15609, "\u0120Gain": 17191, "processing": 39221, "quest": 23627, "spot": 27840, "\u0120command": 5936, "docker": 49335, ".*": 26487, "steps": 27091, "3000": 31640, "ED": 1691, "209": 27434, "668": 37867, "sin": 20338, "TION": 10263, "urs": 4668, "Object": 46674, "\u0120exceeds": 23984, "\u0120checking": 8405, "ering": 2961, "gen": 4138, "tools": 46200, "915": 38405, "ng": 2590, "\u0120178": 29065, "Col": 18551, "ae": 4791, "SH": 10237, "Table": 41836, "\u0120Max": 4471, "Summary": 47977, "168": 25676, "Emergency": 40638, "alt": 3967, "codes": 43892, "\u0120logging": 19980, "\u0120found": 303, "188": 28871, "Control": 43405, "009": 37892, "CHECK": 48692, "ols": 11925, "\u0120task": 3685, "auer": 9994, "ECD": 43663, "mented": 19601, "600": 4697, "\u0120251": 35048, "sf": 26649, "\u0120TO": 3842, "1987": 43587, "ORT": 12154, "nos": 29708, "\u0120CO": 6247, "Against": 41634, "Request": 45589, "666": 34364, "\u0120171": 29810, "period": 28030, "\u0120automatically": 6885, "\u0120$": 68, "Tar": 42183, "792": 39739, "aint": 12042, "ET": 3935, "\u0120execution": 7356, "required": 44240, "12": 1092, "delete": 46888, "Ah": 17986, "plus": 7269, "allow": 25487, "503": 38071, "ize": 2072, "\u0120export": 5376, "tz": 12527, "280": 21070, "\u0120project": 695, "\u0120148": 24646, "list": 8458, "qual": 27702, "ometer": 12687, "stop": 8287, "\u0120__": 27148, "98": 5208, "BU": 19159, "video": 14406, "anced": 16325, "\u0120domain": 11170, "\u0120Clear": 11381, "control": 17665, "Rad": 28243, "gener": 20557, "Motor": 39482, "it": 405, "limits": 38942, "Error": 30192, "45": 1898, "952": 39918, "ote": 6457, "\u0120333": 30242, "Disable": 49392, "son": 1478, "Ne": 14563, "UTC": 41934, "gin": 11405, "was": 7325, "parser": 49743, "\u0120FA": 6236, "classic": 41755, "sch": 12265, "bytes": 46823, "\u0120complex": 2632, "Cons": 24514, "arate": 29585, "\u0120Forbidden": 45076, "533": 38037, "inate": 13014, "direct": 27555, "\u0120range": 1186, "\u0120parsing": 46563, "rt": 9713, "Box": 26621, "710": 36867, "\u0120106": 13442, "boost": 33934, "378": 34890, "Mode": 47062, "tags": 35103, "Day": 10781, "\u0120total": 746, "\u0120Level": 12183, "intern": 44115, "\u0120]": 27779, "\u0120Check": 4254, "1981": 44582, "dy": 7180, "034": 41401, "043": 41665, "\u012061": 5659, "mel": 17170, "\u0120tri": 7182, "brid": 21676, "\u0120Min": 3635, "\u0120pid": 46616, "An": 4688, "INTER": 46170, "593": 39785, "\u012039": 3191, "\u0120Cha": 18606, "Ext": 40884, "KY": 11490, "Switch": 45112, "AMP": 20014, "console": 48028, "cv": 38635, "ke": 1071, "20": 844, "Security": 36090, "remote": 46310, "\u0120Unit": 7545, "Values": 48738, "179": 26340, "code": 20414, "objects": 48450, "195": 23688, "\u0120ignor": 45513, "ped": 9700, "args": 48204, "\u0120boundary": 16358, "\u0120patterns": 8117, "149": 22928, "\u0120using": 634, "80": 2940, "\u0120explicit": 16045, "master": 12974, "\u0120401": 17936, "atible": 45740, "ainment": 26741, "757": 38127, "ssh": 47833, "1986": 43479, "\u0120Execution": 44396, "\u0120process": 609, "scribe": 36037, "acc": 7904, "DIS": 37056, "State": 13360, "tin": 24276, "Action": 36082, "\u0120handle": 3679, "der": 3624, "808": 31731, "\u0120merged": 21379, "cision": 37938, "\u0120PAT": 28284, "\u01202": 132, "Flags": 48167, "\u0120./": 48630, "\u0120201": 21458, "\u0120Symphony": 18972, "params": 49237, "\u0120120": 5962, "scan": 43511, "Check": 26615, "Ban": 33809, "ce": 1755, "re": 241, "ower": 8285, "pull": 35514, "rid": 10505, "172": 29250, "\u0120317": 35183, "\u0120126": 18461, "sing": 26058, "mc": 29297, "372": 34322, "profile": 7221, "fy": 24382, "P": 510, "SU": 10466, "\u0120overhead": 15258, "ule": 7590, "uct": 21491, "\u0120wrong": 1593, "bh": 22549, "Month": 43299, "archive": 46862, "\u0120Domain": 37291, "463": 36611, "255": 22260, "\u0120197": 31633, "\u0120repe": 25633, "\u0120SIG": 38499, "Remote": 46866, "bing": 6721, "\u012074": 6657, "Internal": 47666, "122": 21948, "\u0120Handle": 44883, "Boost": 43389, "ALTH": 33086, "Sec": 33099, "ck": 2420, "ser": 12778, "internet": 42182, "User": 44518, "Met": 25869, "stan": 22398, "ert": 2399, "aut": 4255, "\u0120fatal": 6484, "Full": 31440, "onom": 20890, "active": 12228, "Ds": 32634, "ior": 7375, "\u0120TEST": 41759, "NN": 20057, "055": 39558, "585": 34921, "static": 42653, "__": 30529, "range": 9435, "fl": 4825, "CW": 36840, "host": 11438, "mun": 20614, "269": 31416, "gnu": 49022, "upper": 34849, "438": 37736, "\u0120revoked": 19358, "aded": 7560, "352": 33674, "\u0120oper": 19470, "ere": 2816, "\u0120adaptive": 28760, "657": 38530, "ifest": 42076, "\u0120//": 21277, "Imp": 30281, "auth": 46217, "\u0120DEM": 33474, "\u0120null": 23796, "Hist": 38657, "mom": 27363, "\u0120159": 28083, "ve": 548, "\u0120text": 2788, "fit": 14307, "\u0120Th": 2032, "Spr": 45165, "\u0120resolve": 5728, "large": 11802, "\u0120#": 849, "651": 39060, "arter": 24391, "\u0120fixing": 15435, "<pad>": 1, "gradation": 47055, "\u0120numerical": 37920, "......": 43796, "672": 39259, "\u0120Ser": 6251, "Int": 22886, "\u012034": 2631, "swe": 35047, "orig": 34188, "ith": 3432, "ier": 906, "dc": 34836, "risk": 10848, "protect": 35174, "Adapt": 46874, "J": 863, "\u0120Reset": 45144, "ill": 1873, "err": 14385, "hal": 11124, "616": 39352, "455": 31546, "\u01206": 231, "Sup": 41192, "\u0120300": 2993, "HK": 24917, "183": 30662, "190": 20109, "Response": 47806, "ais": 5655, "\u0120tim": 15679, "example": 46781, "\u0120running": 878, "distance": 27861, "ADD": 37705, "Connection": 48467, "export": 38099, "\u0120keys": 10654, "release": 27561, "\u0120being": 145, "bro": 7450, "sync": 45176, "itt": 2582, "headers": 47288, "FF": 7389, "k": 330, "ku": 8644, "\u0120465": 40525, "ar": 271, "ACC": 21678, "\u0120shortest": 28617, "ipping": 11813, "oss": 5434, "before": 23033, "393": 35408, "87": 5677, "client": 38557, "\u012077": 6791, "\u0120exclude": 18717, "537": 39155, "\u0120seconds": 2397, "641": 39138, "Windows": 43815, "\u0120receive": 1325, "35": 2022, "Pri": 38817, "\u0120502": 39179, "ting": 2577, "RON": 37043, "Ms": 13123, "Second": 32703, "113": 19547, "\u0120short": 765, "\u0120proble": 35006, "From": 7605, "reset": 45703, "\u0120contain": 5585, "\u0120File": 8655, "ork": 9657, "696": 36999, "ters": 2696, "603": 37663, "397": 34991, "\u0120excluded": 15298, "MR": 12642, "umber": 9936, "rh": 20378, "ual": 5564, "661": 37499, "\u0120template": 27663, "saf": 43425, "830": 35781, "2019": 10626, "\u0120HTML": 23669, "uc": 3964, "Vol": 30616, "1027": 48636, "Common": 40437, "Meta": 48454, "\u0120s": 579, "red": 2050, "atur": 8367, "country": 12659, "\u0120Mode": 22158, "\u0120SH": 4584, "source": 17747, "\u0120WHITE": 38503, "task": 45025, "IST": 11595, "Rate": 45630, "initialized": 49722, "166": 27855, "Points": 46340, "Care": 16431, "feature": 44565, "gel": 24612, "fail": 37694, "\u0120in": 11, "once": 25252, "ars": 2726, "784": 40729, "support": 22930, "\u0120One": 509, "\u012010000": 45563, "github": 48340, "clean": 28401, "\u0120repository": 30076, "\u0120al": 1076, "lu": 6487, "388": 34067, "BS": 3297, "\u0120connections": 7070, "\u0120which": 61, "\u0120Failed": 44216, "\u0120pl": 2968, "\u0120Consider": 13626, "\u012033": 2357, "six": 13664, "Norm": 46333, "Speed": 35295, "\u0120fur": 15503, "\u0120356": 39935, "Obj": 49062, "\u0120End": 4680, "MA": 5273, "mn": 17673, "Launch": 47269, "Load": 47167, "Reference": 45963, "Description": 41602, "ward": 7767, "ication": 14086, "amer": 8015, "ample": 29069, "\u0120road": 921, "\u0120Po": 6002, "com": 175, "\u0120remote": 6063, "\u0120185": 21358, "std": 47717, "PL": 7205, "output": 46234, "111": 17500, "AUT": 42575, "he": 700, "expl": 23242, "\u0120Safety": 5264, "GR": 11621, "enter": 11798, "\u0120some": 103, "spec": 38928, "La": 10766, "Num": 48184, "\u0120routing": 33819, "PAC": 35765, "673": 38508, "AND": 5945, "427": 36610, "\u0120are": 32, "Value": 33977, "\u0120dropping": 6614, "\u0120function": 5043, "\u0120Integer": 47927, "\u0120Access": 8076, "\u0120starting": 1158, "anding": 20515, "\u0120319": 37964, "WIND": 44815, "Char": 42379, "marks": 23959, "widget": 48972, "angles": 38756, "R": 500, "ask": 4970, "graph": 44143, "Map": 41151, "\u0120runner": 7449, "989": 40391, "\u0120Id": 10367, "\u0120Cre": 12022, "\u0120full": 455, "Variable": 49029, "East": 17577, "\u0120Fore": 6311, "object": 40412, "\u012045": 2248, "TER": 7831, "536": 39147, "230": 20352, "AG": 3450, "vin": 6320, "\u0120Tee": 33698, "Source": 7061, "\u012092": 8403, "ived": 19133, "states": 26947, "949": 35862, "99": 2831, "Classic": 44950, "next": 25616, "Ta": 38495, "OR": 3411, "last": 13751, "inal": 6204, "major": 25430, "\u0120264": 36223, "035": 39141, "\u0120321": 36219, "Doc": 42291, "ux": 7073, "N": 487, "Msg": 49680, "KO": 21738, "FIL": 46008, "Amb": 36376, "\u0120Server": 30472, "\u0120AT": 3263, "\u0120130": 8325, "\u0120exception": 8219, "435": 33115, "image": 20094, "dom": 12623, "?": 116, "hot": 10120, "Exit": 46072, "013": 37129, "End": 18547, "ti": 8063, "opening": 12211, "cu": 16312, "ALT": 18119, "LIB": 46690, "\u0120signal": 6029, "controller": 45294, "387": 32498, "................................................................": 48371, "TP": 15993, "382": 35178, "cycle": 23060, "\u0120En": 2271, "Off": 22985, "of": 1116, "\u0120200": 1878, "ade": 1829, "Result": 48136, "zy": 5144, "\u0120locally": 8094, "aze": 10129, "\u0120INFO": 42962, "Left": 39961, "index": 18480, "\u0120through": 149, "CLASS": 47986, "\u0120970": 34429, "sel": 5317, "Directory": 49226, "la": 2560, "1024": 47477, "\u0120loc": 18327, "8000": 42412, "tree": 21512, "453": 35261, "\u0120system": 467, "death": 24483, "The": 133, "Kenn": 39361, "linear": 43871, "ATURE": 35576, "bb": 14141, "han": 4134, "248": 28654, "Resp": 44036, "\u0120EX": 10649, "469": 37665, "\u012022": 820, "whe": 28884, "\u0120444": 37067, "afe": 20120, "\u0120time": 86, "Sw": 15417, "129": 21867, "ully": 19678, "Sys": 45438, "Rat": 40855, "ps": 3275, "960": 35154, "Mon": 17312, "Dev": 30504, "ap": 1115, "Ay": 41585, "Clear": 18938, "901": 40197, "\u0120SAF": 30334, "412": 31185, "button": 32135, "\u0120io": 46155, "ently": 7240, "................................": 46082, "\u0120cc": 41754, "Soft": 38805, "008": 37277, "try": 33869, "\u0120160": 10572, "\u0120Entity": 46718, "APP": 17167, "\u0120Ac": 6208, "MET": 43543, "\u0120connector": 34538, "plant": 19520, "799": 33333, "208": 26919, "path": 22609, "library": 31674, "\u0120Ver": 3060, "Const": 35319, "ch": 611, "\u0120same": 276, "\u0120J": 344, "men": 2262, "78": 5479, "DF": 9380, "Avg": 48929, "Dim": 45137, "104": 17573, "classes": 44770, "GB": 4377, "runtime": 49600, "\u0120more": 55, "f": 506, "building": 11557, "\u012057": 4981, "ymph": 36935, "\u0120long": 251, "\u0120excludes": 26807, "\u0120bo": 5276, "ali": 3644, "Reason": 48147, "sc": 3866, "ated": 1070, "~": 34437, "\u0120203": 23041, "\u0120351": 40296, "from": 7761, "\u0120MAP": 36890, "ECTION": 44583, "Y": 975, "ay": 857, "fa": 12010, "630": 31181, "ager": 6988, "mic": 15796, "\u0120374": 42309, "X": 1000, "\u0120incon": 27493, "zone": 13930, "ENT": 5382, "og": 2154, "00": 612, "\u0120rules": 1492, "HY": 32288, "jac": 39066, "\u0120%%": 49893, "iz": 1210, "omic": 30344, "\u0120re": 769, "CE": 8041, "\u0120SOME": 41812, "utils": 49320, "ken": 6944, "UM": 5725, "cli": 48556, "pass": 10212, "333": 25631, "433": 38514, "\u0120object": 7626, "azel": 43874, "\u0120cont": 8541, "Aid": 33263, "pec": 26512, "response": 41510, "\u0120amp": 28127, "\u0120help": 244, "\u0120490": 40569, "Make": 18114, "His": 9962, "oot": 9210, "\u0120challenge": 1539, "assis": 39363, "l": 462, "598": 38097, "rity": 38039, "Der": 34788, "charging": 22874, "\u0120partial": 9801, "DS": 5433, "\u0120/*": 48565, "meter": 15139, "ro": 1001, "ware": 10680, "deb": 25607, "\u0120kind": 761, "Ten": 28612, "\u0120NOTE": 26099, "\u0120PM": 2784, "\u0120coefficient": 45979, "\u0120difference": 2249, "Rod": 30055, "RA": 4396, "sight": 32764, "sa": 11146, "Summer": 30913, "ited": 4560, "\u0120technical": 3165, "667": 29312, "ot": 1242, "VE": 8856, "bed": 5134, "rog": 10191, "\u0120100": 727, "lash": 42044, "method": 45416, "Year": 22004, "\u012009": 12087, "M": 448, "cert": 25782, "27": 2518, "Ty": 36639, "second": 10815, "Of": 10643, "\u0120Package": 31948, "\u0120changes": 1022, "Mot": 41676, "MAX": 30187, "\u0120consumed": 13056, "Services": 39868, "split": 44154, "vert": 9942, "uter": 13080, "],": 7479, "making": 5349, "\u0120qualifier": 18008, "System": 36383, "ands": 8771, "\u0120ms": 43601, "\u0120debug": 47423, "\u0120Generation": 17362, "\"": 113, "Ari": 30195, "VL": 38813, "153": 27982, "560": 30207, "buffer": 47438, "TAG": 46985, "VERS": 34213, "lim": 10839, "hat": 8849, "203": 25534, "\u0120consumer": 2267, "Cause": 43326, "St": 5320, "AGE": 14426, "Direct": 33038, "027": 40819, "aration": 36466, "uld": 29982, "408": 32303, "Alt": 41622, "Net": 15721, "\u0120&": 359, "\u0120The": 20, "ECT": 15004, "\u0120520": 35390, "KEY": 33754, "........": 42514, "\u0120>>": 8488, "Struct": 44523, "verse": 15189, "upload": 47571, "FO": 7942, "<": 41552, "OP": 5733, "ara": 1742, "82": 6551, "\u0120Load": 38355, "comfort": 42250, "lich": 9182, "Press": 20142, "long": 3479, "513": 39337, "action": 10845, "\u0120imp": 4023, "\u0120change": 464, "random": 45041, "Bench": 46131, "osc": 17591, "Pod": 29138, "ision": 10699, "\u0120now": 122, "IAN": 10296, "cker": 8956, "STRUCT": 45302, "\u0120Die": 6817, "262": 29630, "\u0120293": 38485, "unit": 19304, "Nor": 29723, "ter": 1334, "594": 38911, "325": 24133, "\u0120290": 28482, "]]": 48392, "275": 21138, "\u012071": 6121, "til": 31387, "0000": 14200, "assert": 46346, "251": 32306, "\u0120will": 40, "AY": 2547, "718": 38590, "uff": 5865, "685": 36766, "572": 39190, "995": 30739, "\u0120belong": 9943, "150": 6115, "es": 293, "580": 31663, "\u0120last": 94, "270": 21063, "538": 38425, "\u0120values": 3266, "Mo": 17357, "cies": 32510, "\u0120310": 25444, "\u0120workflow": 32209, "command": 41483, "Profile": 47555, "cp": 30216, "Class": 21527, "Crash": 46856, "582": 38020, "West": 9634, "\u0120358": 40156, "Mer": 24291, "3": 246, "748": 39373, "579": 37534, "DH": 38462, "Energy": 30189, "beh": 24170, "duration": 41218, "\u0120978": 42154, "Enhanced": 47349, "AT": 2571, "\u0120attributes": 16763, "\u0120exceed": 11514, "\u0120Def": 7858, "\u0120below": 874, "\u0120193": 29021, "org": 1957, "Window": 48098, "Flash": 42748, "\u0120282": 37988, "Cond": 43597, "\u0120KE": 37112, "\u0120diagn": 25378, "\u00bd": 10809, "Conservative": 43381, "inter": 8007, "\u0120prevent": 2097, "Log": 23345, "\u0120string": 6755, "ull": 5023, "\u01201050": 43504, "Main": 31359, "las": 15086, "\u0120620": 35794, "alth": 29547, "\u0120240": 15452, "\u0120topic": 5674, "Network": 40283, "pper": 5961, "eb": 3209, "shape": 43882, "\u0120139": 24404, "act": 7257, "nt": 3999, "\u0120350": 10088, "Roll": 35436, "\u0120BM": 25289, "gt": 19377, "guard": 12984, "\u0120environment": 1737, "\u012047": 4034, "AW": 10751, "ack": 2990, "behavior": 40397, "ios": 4544, "708": 36814, "\u0120Memory": 25940, "\u0120324": 36593, "New": 4030, "tra": 9738, "Output": 48293, "020": 33783, "Dir": 47608, "\u0120des": 2694, "less": 1672, "except": 26837, "LINE": 28302, "\u0120tags": 19445, "\u0120type": 1907, "cur": 17742, "\u0120plugins": 44645, "807": 38633, "Sharp": 45949, "Cat": 34440, "Host": 40534, "\u0120Start": 2776, "339": 31994, "ATE": 8625, "s": 29, "\u01201000": 10775, "ypes": 48951, "\u0120call": 486, "803": 39440, "\u0120assign": 28467, "\u0120i": 939, "Use": 34447, "iam": 6009, "Com": 14721, "\u0120all": 70, "enario": 34135, "\u0120177": 28664, "rection": 45447, "\u0120und": 2432, "2018": 2464, "strong": 8355, "\u0120420": 26748, "\u0120Generic": 43411, "izer": 6315, "iss": 3006, "ax": 3631, "App": 19186, "\u0120Front": 7204, "\u0120conn": 39277, "\u0120copy": 5375, "etz": 13126, "ignore": 47072, "ow": 1722, "War": 20096, "liter": 19402, "moderate": 19397, "even": 12963, "iner": 5101, "itudinal": 46212, "based": 805, "oked": 17477, "548": 38714, "st": 620, "Shift": 45161, "download": 41536, "341": 34801, "\u0120leave": 989, "\u0120false": 3950, "\u0120find": 465, "\u0120411": 37793, "apt": 14455, "ra": 763, "ende": 14537, "instance": 48768, "840": 34243, "count": 11432, "->": 46613, "available": 34659, "orrect": 42892, "pr": 4862, "KS": 18307, "\u0120AWS": 26177, "DER": 28073, "191": 31080, "lb": 17243, "POST": 47060, "n": 282, "DR": 10644, "stra": 10750, "Job": 43128, "Part": 4741, "ures": 4123, "\u0120assignment": 11717, "greg": 40745, "314": 35111, "olog": 8982, "train": 21714, "\u0120ENTER": 37924, "Progress": 43881, "pen": 9675, "tm": 26989, "Mal": 18764, "MIT": 36548, "acer": 11937, "680": 32036, "\u0120super": 2422, "\u0120co": 1029, "\u0120denied": 2296, "Number": 43623, "\u0120sec": 15636, "692": 39311, "266": 31353, "leep": 45841, "\u0120Loss": 19700, "lement": 13767, "amily": 32455, "LD": 18048, "492": 38852, "\u012099": 6705, "cpu": 49345, "\u0120153": 25758, "350": 10056, "47": 3706, "status": 29552, "roups": 46898, "RR": 25733, "Service": 32537, "gn": 16993, "ential": 12986, "fol": 22588, "Pre": 22763, "Get": 14181, "25": 1244, "OL": 3384, "\u0120congr": 41645, "\u0120related": 1330, "Ac": 26145, "Up": 10926, "Me": 5096, "1200": 36643, "ius": 6125, "\u0120supports": 4548, "\u0120114": 15900, "sit": 23428, "\u0120KEY": 23993, "Mor": 30019, "\u0120directories": 44472, "Te": 16215, "\u0120*/": 48404, "\u0120Checking": 44237, "container": 46367, "\u0120per": 228, "\u0120query": 25860, "attribute": 49202, "ank": 3153, "asures": 42832, "wei": 21225, "2009": 23301, "fer": 6646, "\u0120features": 1575, "Bu": 37602, "pool": 10416, "EU": 14707, "\u0120gen": 12358, "language": 19527, "Bl": 12654, "forward": 16135, "\u0120consistency": 12787, "description": 42739, "YY": 40969, "math": 40051, "494": 38249, "flash": 39837, "\u0120no": 117, "inks": 12935, "Heat": 44644, "006": 38049, "\u0120stop": 912, "utor": 35853, "ane": 1728, "field": 1399, "make": 19746, "ye": 4717, "Gb": 43608, "Ma": 25447, "\u0120start": 386, "alle": 11186, "inder": 7026, "impl": 38731, "\u0120dependency": 31492, "by": 1409, "face": 9021, "\u0120due": 528, "mu": 24249, "\u012078": 7004, "rpm": 43773, "\u0120strip": 9572, "227": 29240, "acity": 18583, "\u0120429": 40567, "Del": 21502, "Export": 47671, "866": 30205, "ATA": 25912, "\u0120std": 49008, "\u0120Limit": 34741, "\u0120frame": 5120, "pipe": 30131, "\u0120version": 1732, "nel": 18902, "\u0120Frame": 37280, "dad": 27398, "177": 28129, "POS": 42740, "isation": 3258, "!": 328, "msg": 48593, "\u0120600": 5594, "bol": 18217, "Flag": 46191, "enable": 30743, "\u0120K": 229, "\u0120executed": 9390, "ens": 1290, "minute": 4530, "299": 23942, "92": 6617, "\u0120while": 150, "Fe": 29037, "Helper": 48825, "\u0120156": 25664, "Next": 19192, "fen": 22132, "\u0120IP": 6442, "off": 1529, "links": 40822, "EF": 22390, "depth": 11583, "EC": 3586, "\u0120const": 10759, "1985": 42770, "\u0120bounded": 43490, "\u0120%": 7606, "bers": 9569, "ynchron": 47999, "\u0120migr": 30034, "Val": 20320, "exclusive": 38347, "\u0120activities": 1713, "hl": 11639, "server": 33806, "us": 687, "\u0120161": 27965, "Dest": 42551, "ession": 21308, "rics": 18715, "\u0120Left": 10039, "\u0120VER": 37616, "uple": 45926, "ad": 625, "Physical": 46577, "174": 29221, "Look": 15833, "\u0120::": 35965, "Win": 27189, "both": 17143, "591": 40284, "Content": 45463, "aux": 8624, "my": 4783, "groups": 36378, "283": 32307, "stem": 40859, "mission": 12478, "fixed": 43713, "Condition": 48156, "\u0120Source": 4253, "ATED": 5161, "\u0120Assuming": 29175, "c": 438, "holder": 14074, "Product": 41257, "iler": 10329, "protected": 37659, "issues": 40512, "\u0120250": 5773, "\u0120auto": 4485, "UST": 11120, "keep": 27390, "API": 40104, "Message": 42394, "started": 33437, "Vert": 42195, "#": 10431, "\u0120first": 78, "778": 35534, "\u0120determined": 3030, "669": 36400, "\u0120Set": 8504, "Server": 47576, "___": 42593, "Mid": 30238, "orage": 46293, "ND": 13457, "Prof": 42133, "\u0120Inc": 603, "DEP": 41372, "mid": 16079, "Comb": 42606, "Cast": 28605, "take": 16111, "\u0120Switch": 11171, "PI": 11337, "beta": 44263, "Monitor": 45015, "led": 1329, "Pat": 18276, "oper": 8428, "\u0120233": 31738, "since": 30117, "ise": 1496, "e": 242, "1500": 36559, "773": 39094, "TING": 36595, "sv": 36245, "rypt": 39801, "rastructure": 43455, "\u0120required": 1552, "\u0120analysis": 1966, "256": 24554, "append": 48696, "int": 2544, "job": 30056, "\u0120276": 36803, "\u0120388": 41109, "creator": 37652, "290": 24675, "bu": 9519, "Run": 33177, "\u0120po": 4202, "Consumer": 42909, "ELD": 34816, "and": 463, "................": 47793, "\u0120l": 784, "Icon": 45686, "ht": 6083, "timeout": 49109, "AST": 10388, "\u0120318": 37207, "mi": 5408, "Hot": 27735, "272": 30687, "994": 40690, "Users": 46110, "record": 14760, "\u0120port": 4103, "cess": 19348, "py": 17163, "un": 879, "USE": 27291, "\u0120provided": 1286, "42": 3714, "iverse": 32273, "\u0120Te": 2941, "istry": 20217, ";": 131, "Over": 10777, "ition": 7469, "other": 7443, "DE": 10089, "018": 33352, "atus": 29913, "etic": 15557, "\u0120target": 1002, "SOURCE": 48560, "rency": 48787, "link": 12139, "\u0120920": 37543, "ITION": 25815, "\u0120coverage": 1953, "FE": 10885, "Config": 48836, "\u0120temp": 32196, "ms": 4339, "Power": 20645, "\u0120ec": 20508, "Link": 17860, "\u0120excluding": 12556, "410": 31132, "\u0120removed": 2928, "ony": 6119, "connection": 41011, "multiple": 34654, "\u0120529": 37822, "di": 7506, "lust": 27682, "out": 995, "461": 37381, "US": 3048, "\u0120fastest": 6273, "ination": 8111, "afety": 46467, "\u0120exactly": 2230, "rd": 2586, "\u0120health": 474, "\u0120resources": 1915, "260": 21566, "Size": 45698, "Chain": 32267, "\u012056": 4772, "ICH": 11938, "to": 560, "Prot": 41377, "\u01201024": 46959, "\u0120DT": 22603, "SP": 4186, "Sch": 18077, "terior": 33989, "\u0120removal": 7129, "367": 34036, "String": 34222, "ports": 8303, "052": 40717, "<mask>": 50264, "999": 16692, "\u0120117": 16662, "wire": 11208, "\u0120D": 211, "during": 37460, "665": 35321, "/_": 48119, "L": 574, "\u0120too": 350, "UR": 2492, "Length": 48739, "Li": 41198, "Ap": 36675, "17": 1360, "];": 44082, "\u0120460": 33888, "204": 27508, "cht": 8797, "524": 38803, "712": 40944, "Protect": 41357, "\u0120maximum": 4532, "single": 25382, "MI": 7539, "044": 40847, "Esc": 42950, "\u0120characters": 3768, "\u012096": 8971, "Cmd": 49530, "ace": 4450, "76": 5067, "\u0120Functional": 43082, "84": 6232, "Total": 37591, "\u0120directory": 31826, "process": 31931, "home": 8361, "A": 250, "ril": 20447, "PT": 10311, "\u0120pass": 1323, "128": 21540, "Cro": 36537, "rieve": 20080, "Seg": 42775, "ous": 1827, "wl": 42448, "\u0120pre": 1198, "operation": 20829, "Project": 33347, "Tex": 40175, "generated": 21842, "\u012072": 4801, "\u0120org": 31118, "\u0120for": 13, "Res": 20028, "DEC": 44579, "Es": 15286, "510": 32380, "\u0120@": 787, "\u0120278": 37481, "\u0120364": 38930, "\u0120thermal": 17210, "\u0120cert": 21045, "pid": 43708, "\u0120ret": 5494, "lay": 8433, "\u0120another": 277, "cast": 5182, "DK": 44097, "\u0120primitive": 36005, "18": 1366, "files": 42018, "\u0120length": 5933, "48": 3818, "CM": 18814, "Fre": 35673, "\u0120500": 1764, "tell": 26316, "analysis": 31116, "ex": 3463, "Pred": 45408, "Ant": 18348, "380": 19148, "590": 33933, "ULT": 25938, "\u0120bool": 49460, "atable": 18564, "\u0120R": 248, "ess": 3361, "old": 279, "be": 1610, "installed": 39161, "icon": 17505, "730": 34795, "ty": 2553, "ati": 3648, "IL": 3063, "Simple": 45093, "\u0120end": 253, "uck": 5858, "RS": 8105, "882": 40178, "Sym": 46994, "\u0120repo": 27640, "978": 40583, "One": 3762, "ust": 4193, "Now": 5975, "\u0120lar": 42405, "units": 46210, "rx": 45766, "bil": 25799, "ster": 3121, "Car": 9518, "rc": 22393, "\u0120sed": 10195, "java": 43830, "Frame": 46766, "ality": 6948, "front": 9289, "\u0120mean": 1266, "362": 35665, "\u0120active": 2171, "036": 41424, "\u0120BMW": 8588, "120": 10213, "815": 38828, "password": 46880, "\u0120DW": 24193, "\u0120Index": 4648, "eren": 8663, "iever": 38579, "ology": 4383, "PE": 16035, "\u012064": 4430, "lected": 17970, "ject": 21517, "arks": 15921, "601": 38613, "KE": 6961, "uti": 18078, "ied": 2550, "col": 9119, "\u0120completed": 2121, "\u0120con": 2764, "FN": 38350, "468": 37184, "\u0120Detected": 48990, "ther": 12968, "Motion": 44088, "mentation": 36197, "cent": 6342, "Serv": 44175, "596": 39157, "man": 397, "627": 40056, "\u0120declared": 2998, "runs": 39478, "ysical": 45537, "\u0120\\": 44128, "689": 38349, "FORM": 38036, "004": 37114, "HP": 7331, "753": 37475, "gr": 6504, "fore": 13364, "278": 30442, "nown": 42114, "iterator": 49861, "\u0120domains": 30700, "dat": 36146, "\u0120previous": 986, "are": 1322, "Ess": 38469, "Ign": 45616, "########": 49727, "ergy": 34043, "583": 39123, "1995": 41295, "\u0120287": 36286, "\u012051": 4074, "min": 4691, "652": 38413, "\u0120passing": 3133, "Lin": 40253, "\u0120status": 2194, "Bre": 31607, "751": 40670, "\u0120435": 33732, "cro": 23324, "fts": 21811, "cr": 8344, "\u0120disabled": 6242, "go": 2977, "row": 4610, "od": 1630, "ython": 49006, "\u0120synthetic": 16807, "Max": 19854, "Str": 29116, "back": 1644, "aco": 12921, "\u0120looks": 1326, "\u0120De": 926, "undle": 42535, "ECK": 30438, "EX": 6725, "area": 7907, "\u0120FO": 12866, "800": 3913, "transform": 44648, "Eh": 45435, "ft": 2543, "\u0120prog": 17618, "\u0120result": 898, "TO": 6390, "Valid": 48911, "\u01205": 195, "\u0120Driving": 19181, "41": 4006, "give": 26650, "EEP": 28142, "\u0120SG": 16324, "...": 734, "GI": 21525, "\u0120properties": 3611, "\u0120-": 111, "Fuel": 44920, ":-": 36185, "Circ": 43412, "vector": 48219, "\u0120an": 41, "\u0120So": 407, "\u0120blacklist": 35165, "AF": 8573, "South": 10050, "Zone": 36004, "kel": 5576, "Increase": 48139, "ole": 4104, "\u0120create": 1045, "WB": 36489, "1080": 41305, "aging": 6257, "Sm": 23996, "Beta": 47511, "xy": 32027, "\u0120options": 1735, "unction": 38665, "\u0120g": 821, "\u0120folder": 32038, "Repe": 34053, "val": 6486, "generic": 47663, "241": 31576, "475": 29156, "\u00ef\u00bf\u00bd": 21955, "\u0120448": 42482, "483": 37932, "Step": 25093, "\u0120before": 137, "Runtime": 49779, "lete": 16746, "Timer": 49295, "\u0120after": 71, "\u0120could": 115, "Head": 28873, "SS": 8108, "699": 34024, "\u0120Fatal": 39601, "\u0120up": 62, "manager": 37096, "cop": 30551, "Cre": 40008, "471": 36678, "High": 18522, "\u0120371": 42139, "Bs": 28720, "node": 46840, "Ret": 27814, "Clean": 40827, "\u0120419": 32869, "330": 21190, "Learn": 40103, "\u0120was": 21, "\u012017": 601, "Ab": 13112, "il": 718, "Menu": 48301, "rant": 6618, "init": 25153, "649": 33787, "Minimum": 47940, "\u0120executing": 19275, "####": 49629, "\u0120depends": 7971, "war": 5557, "\u0120request": 2069, "Interface": 49136, "\u0120HAVE": 27789, "\u0120sup": 28836, "\u0120literal": 27856, "EN": 2796, "Ex": 9089, "Integer": 49740, "\u0120para": 3840, "Cod": 47436, "\u0120Internal": 18387, "app": 3340, "vy": 11454, "\u0120298": 37353, "COLOR": 46038, "\u0120without": 396, "settings": 48419, "To": 3972, "219": 31105, "len": 8476, "\u0120Currently": 7519, "\u0120clean": 2382, "\u0120CON": 8748, "Ca": 38593, "\u0120999": 31740, "49": 3414, "\u0120access": 899, "taking": 16883, "\u0120at": 23, "sic": 15335, "\u0120parsed": 47367, "Mod": 30597, "439": 38671, "\u0120Remote": 33565, "50": 1096, "544": 38944, "\u0120known": 684, "lish": 21457, "toc": 40105, "ization": 1938, "medi": 34658, "\u0120Fan": 11232, "CL": 7454, "\u0120whose": 1060, "NECT": 42849, "279": 28854, "ES": 1723, "target": 23976, "430": 29821, "ib": 1452, "av": 1469, "icle": 11317, "411": 35775, "\u0120405": 35757, "Hour": 40215, "ift": 9417, "\u0120follows": 3905, "ometry": 40899, "83": 6361, "Vers": 45399, "Var": 27717, "\u0120execut": 38902, "\u0120sandbox": 43278, "\u0120406": 40851, "\u0120this": 42, "44": 3305, "xt": 11483, "\u0120yo": 25610, "597": 39819, "Master": 32187, "Gear": 45298, "370": 21713, "\u0120has": 34, "793": 40832, "\u0120invoked": 29198, "Performance": 44002, "cap": 10906, "Bot": 40009, "\u0120does": 473, "in": 179, "Unique": 47814, "\u0120either": 1169, "452": 36720, "253": 31184, "Has": 35634, "Micro": 39599, "ush": 3810, "101": 12636, "\u0120main": 1049, "\u0120construction": 1663, "short": 20263, "\u0120Communication": 17051, "TH": 3732, "Ph": 17297, "\u0120Options": 18736, "\u0120switch": 5405, "vention": 20874, "Si": 35684, "environment": 37555, "\u0120bits": 15239, "ulation": 11264, "lin": 2614, "Core": 30786, "\u0120432": 40870, "419": 37383, "SM": 15153, "origin": 43211, "\u0120Actual": 30144, "\u0120equal": 3871, "\u0120passes": 3974, "application": 40545, "aff": 3707, "MG": 21963, "\u0120211": 26763, "ressed": 10887, "\u0120consum": 20411, "shot": 10393, "vir": 28641, "ains": 5069, "Ad": 9167, "\u0120Com": 4556, "tab": 34108, "cases": 28162, "\u0120Engine": 20008, "pred": 37466, "Data": 30383, "ended": 6228, "\u0120Info": 17883, "59": 4156, "g": 571, "orm": 8693, "hi": 3592, "resh": 23053, "\u0120ERROR": 38586, "CU": 38260, "\":": 7862, "Bi": 37426, "796": 39526, "265": 26330, "dx": 46106, "riv": 16936, "\u0120your": 110, "\u0120Invalid": 38539, "\u0120380": 27264, "5000": 31830, "ig": 1023, "Conf": 33295, "\u00bf\u00bd": 49916, "pha": 44641, "\u0120Red": 1211, "fff": 48591, "ancy": 9875, "CDC": 33194, "Tree": 33731, "Spec": 45032, "\u0120least": 513, "\u0120decimal": 46421, "fields": 21346, "\u0120component": 7681, "Availability": 49054, "\u0120location": 2259, "List": 36583, "0": 288, "Fall": 31593, "\u0120error": 5849, "Supported": 47206, "----------------": 24524, "enger": 24290, "ective": 38089, "\u0120AP": 1480, "proxy": 47315, "per": 1741, "HT": 14469, "full": 16320, "\u0120ar": 4709, "\u0120were": 58, "2000": 17472, "Br": 16366, "bool": 46787, "63": 5449, "iter": 8660, "nexus": 48559, "stract": 47796, "Follow": 18622, "031": 41317, "114": 20695, "\u0120m": 475, "\u0120di": 2269, "zero": 18556, "38": 3170, "de": 2794, "Cap": 15791, "launch": 37757, "Writer": 45489, "wrapper": 49247, "Proxy": 49115, "389": 34682, "383": 29980, "599": 33626, "ribute": 25006, "ternal": 46378, "\u0120please": 2540, "\u0120loading": 16761, "includes": 25142, "ature": 18830, "LER": 38792, "bm": 43531, "\u0120235": 27089, "\u0120Vertical": 34813, "NAME": 48307, "\u0120V": 468, "\u0120tools": 3270, "\u012012": 316, "WP": 28435, "Attribute": 49385, "\u0120Pwr": 48650, "Coun": 45577, "builder": 30511, "mental": 36203, "\u0120expanded": 4939, "\u012023": 883, "Mask": 47661, "\u0120285": 31023, "oke": 5361, "Works": 26025, "\u0120plugin": 43201, "formance": 47196, "1": 134, "help": 19178, "\u0120java": 46900, "FT": 11615, "use": 3698, "Loader": 49621, "First": 10993, "Times": 18921, "Rs": 18591, "far": 15476, "IS": 1729, "\u0120Ass": 6331, "\u0120Comp": 10081, "Cu": 37454, "force": 9091, "\u0120820": 40260, "AP": 591, "fg": 41460, "gi": 15696, "vious": 24963, "K": 530, "Db": 42198, "PR": 4454, "umn": 24422, "\u0120these": 209, "727": 39125, "\u0120by": 30, "\u0120mapping": 20410, "Dec": 15953, "VR": 13055, "\u0120characteristic": 26293, "\u0120Java": 24549, "number": 30695, "40": 1749, "i": 118, "for": 1990, "fc": 25484, "car": 5901, "Fl": 16197, "Analysis": 43932, "\u0120information": 335, "Ps": 13438, "cre": 34868, "match": 10565, "udi": 24110, "\u0120Input": 41327, "sub": 10936, "orer": 26834, "info": 23999, "\u0120path": 2718, "\u0120Message": 32236, "\u0120init": 45511, "242": 28698, "Event": 44879, ",": 6, "For": 2709, "antic": 26970, "\u0120objects": 8720, "ree": 5314, "RES": 32030, "file": 21710, "cy": 4469, "ubs": 19424, "ose": 3876, "bid": 27607, "properties": 47276, "Sum": 38182, "474": 35761, "\u0120Explorer": 26318, "\u0120rule": 2178, "gate": 7357, "Channel": 17305, "Eth": 42301, "up": 658, "NOT": 37049, "\u0120floating": 11291, "edi": 19237, "phys": 39409, "005": 31866, "me": 1794, "296": 32913, "\u0120each": 349, "\u0120fail": 5998, "060": 37143, "RET": 36995, "Instance": 49483, "\u0120280": 20688, "\u0120TC": 21137, "runner": 16537, "veh": 17855, "features": 46076, "\u0120226": 30527, "zel": 10101, "LED": 34482, "\u0120499": 43071, "368": 27594, "Types": 48815, "646": 33075, "rick": 7100, "IC": 2371, "396": 33275, "ONT": 34874, "Offset": 48772, "358": 34392, "\u0120Response": 19121, "575": 28839, "Linux": 45768, "Module": 48720, "605": 34764, "\u0120choices": 5717, "gl": 7210, "Tim": 23031, "023": 40631, "\u0120host": 1482, "\u0120Creating": 28755, "\u0120variable": 15594, "ka": 2348, "Plan": 35351, "Ram": 32361, "\u0120ad": 2329, "\u0120680": 37326, "713": 40349, "activity": 30280, "Tri": 35587, "guide": 43415, "cs": 11365, "\u0120Also": 1578, "\u012028": 971, "\u0120Testing": 25980, "vr": 37032, "Sn": 37790, "CBS": 8949, "priority": 41565, "unknown": 42230, "Vs": 13436, "55": 3118, "\u012000": 16273, "near": 34664, "247": 27011, "lease": 40871, "ENGTH": 46219, "\u0120Reduction": 34895, "Empty": 47819, "169": 28219, "\u0120Al": 726, "Write": 45714, "\u0120ca": 6056, "\u0120details": 1254, "888": 22410, "debug": 49208, "458": 35992, "ound": 9834, "km": 7203, "Ha": 24017, "sec": 8584, "bits": 32131, "CO": 6335, "port": 3427, "always": 30035, "\u0120div": 14445, "dev": 20068, "804": 37413, "free": 3743, "\u0120address": 1100, "length": 16096, "sm": 9426, "Ptr": 49835, "ure": 2407, "2": 176, "asi": 8209, "134": 25050, "ipel": 29531, "string": 20951, "orie": 19989, "als": 1536, "\u012020": 291, "dh": 16593, "ted": 5357, "Address": 46486, "ness": 1825, "pped": 5686, "\u0120exists": 8785, "nn": 15688, "Settings": 47718, "\u0120incorporates": 24536, "\u0120expansion": 2919, "\u0120163": 28158, "728": 39265, "aft": 31741, "\u0120spec": 12002, "\u01201070": 44248, ">]": 49910, "pend": 43238, "anged": 17770, "200": 2619, "729": 40125, "604": 33287, "\u0120log": 7425, "\u012035": 1718, "*.": 44460, "Qu": 12444, "ync": 46707, "ON": 2191, "Function": 47802, "\u0120stage": 1289, "vent": 9399, "PN": 21824, "ws": 12240, "ints": 28954, "spr": 34069, "MAN": 11350, "516": 38960, "\u0120440": 28170, "\u0120802": 31551, "Lat": 41933, "\u0120": 1437, "cept": 16771, "\u0120ST": 4062, "Drag": 45608, "450": 13872, "Ind": 15248, "154": 25983, "fix": 23032, "NUM": 46758, "Ns": 40737, "if": 1594, "Allow": 47465, "Setting": 46765, "ved": 5202, "505": 35255, "Args": 49919, ">": 15698, "\u0120failures": 12055, "\u0120perf": 32168, "the": 627, "\u0120collecting": 8664, "238": 29567, "Tr": 12667, "046": 41409, "057": 41298, "Desc": 47066, "\u0120Gener": 15745, "Fail": 48237, "ment": 1757, "\u0120Signal": 27695, "te": 859, "176": 29431, "Ep": 39318, "ouse": 11556, "AV": 10612, "<unk>": 3, "\u0120data": 414, "Anti": 40948, "uces": 41235, "\u0120unique": 2216, "Quality": 45065, "road": 14288, "\u0120verify": 12881, "745": 35868, "\u0120associated": 3059, "\u0120269": 36891, "information": 31480, "fter": 23782, "Available": 47354, "Param": 48348, "\u0120element": 7510, "RN": 39151, "lot": 17508, "479": 35414, "\u0120net": 1161, "\u0120thread": 15019, "714": 37901, "api": 30602, "equality": 43119, "74": 5243, "iel": 5255, "CH": 3764, "\u0120visit": 825, "Op": 13926, "359": 34414, "\u012014": 501, "star": 3641, "ties": 23664, "ader": 7292, "\u012085": 5663, "one": 1264, "TV": 2915, "PLE": 26050, "377": 33588, "67": 4111, "iol": 14215, "\u01203": 155, "\u0120Apr": 14830, "LT": 30395, "ect": 9041, "\u0120Fas": 21433, "MF": 41583, "Assistant": 46184, "ion": 1499, "\u0120Recording": 34601, "\u00ef": 43251, "221": 28730, "\u012031": 1105, "\u0120tunnel": 10615, "399": 26871, "1992": 41073, "\u0120H": 289, "\u0120odd": 8372, "108": 18844, "REC": 40698, "493": 37839, "\u0120445": 40912, "\u0120sym": 22850, "m": 119, "CAR": 22965, "\u0120within": 624, "Single": 44119, "Center": 25636, "\u0120about": 59, "\u0120integer": 48335, "\u0120to": 7, "\u0120Pro": 1698, "\u0120attribute": 21643, "pload": 47098, "910": 36991, "Fact": 37724, "Listener": 48887, "ue": 1780, "ener": 5777, "\u0120sep": 45821, "\u012016": 545, "Cur": 42090, "ance": 2389, "\u0120More": 901, "613": 39669, "ARS": 22210, "\u0120416": 34509, "unc": 23735, "au": 1180, "628": 38075, "this": 9226, "type": 12528, "rules": 43915, "IV": 6372, "aneous": 33101, "appa": 22181, "\u0120runs": 1237, "\u0120orig": 26225, "loss": 13242, "\u012036": 2491, "gra": 33822, "125": 11338, "All": 3684, "\u0120355": 37415, "update": 45061, "ont": 2533, "rel": 5982, "gm": 41502, "485": 33467, "\u0120378": 41823, "\u0120Precision": 29484, "dp": 43923, "si": 11000, "\u0120deleted": 13908, "co": 876, "Ur": 38046, "RD": 34158, "ner": 1396, "resource": 44814, "DB": 10842, "016": 36192, "anned": 12788, "274": 30930, "\u0120lib": 21748, "folder": 48811, "\u0120degraded": 38918, "\u0120timing": 5801, "Phys": 43827, "operator": 45180, "\u0120400": 3675, "memory": 44290, "\u0120work": 173, "Real": 17105, "\u0120550": 21903, "\u0120exp": 4553, "\u012095": 6164, "\u0120including": 217, "ip": 1588, "900": 7784, "itial": 48834, "1111": 43993, "Environment": 46291, "Spe": 29235, "754": 39382, "fake": 18169, "\u0120four": 237, "che": 2871, "UV": 31812, "306": 32230, "Far": 20680, "sign": 13033, "occ": 23462, "display": 34045, "ridor": 46786, "bus": 18924, "Iter": 49628, "62": 5379, "plugin": 49391, "083": 41260, "584": 38601, "rou": 8508, "454": 35511, "rie": 3636, "Ol": 33453, "311": 35925, "\u0120Created": 32966, "alse": 33896, "ren": 2558, "\\.": 49410, "Eye": 29925, "\u0120349": 41091, "Target": 41858, "style": 5827, "levant": 43986, "307": 31998, "702": 36521, "Sin": 42043, "erve": 14477, "CA": 4054, "\u0120metrics": 12758, ":/": 44408, "ham": 1908, "Once": 11475, "orks": 41250, "\u0120Manifest": 41373, "\u0120Component": 43006, "\u012048": 2929, "ase": 3175, "\u0120over": 81, "\u0120346": 40355, "Did": 20328, "uf": 2951, "&": 947, "Maybe": 14541, "\u0120Analysis": 5213, "draw": 24686, "ol": 1168, "297": 33342, "des": 10067, "ist": 661, "Rep": 22026, "\u0120payload": 29239, "\u0120Single": 15773, "119": 21397, "lex": 14726, "ater": 5109, "Local": 24476, "fn": 42441, "uming": 20016, "\u0120ex": 1931, "opped": 35575, "le": 459, "eric": 41675, "bp": 20794, "IF": 7025, "ifi": 16665, "porter": 35802, "bug": 37148, "MS": 6222, "ODE": 38023, "dal": 20375, "p": 642, "filter": 46617, "\u0120maybe": 2085, "ety": 12637, "\u0120128": 13950, "fd": 37379, "\u0120Par": 2884, "\u00c3": 3849, "\u0120Final": 6858, "\u0120linux": 48523, "so": 2527, "Supp": 33661, "Keys": 44534, "allowed": 34742, "layer": 39165, "RP": 15901, "lied": 17366, "\u0120Type": 7773, "\u0120temporary": 4667, "att": 2611, "ateg": 27586, "1100": 40830, "Container": 48557, "Timeout": 49405, "206": 27639, "sol": 29837, "\u0120index": 1965, "\u0120Ethernet": 34677, "ces": 4643, "163": 29425, "Online": 19449, "\u0120131": 22236, "\u0120big": 380, "average": 20365, "\u012084": 7994, "entity": 46317, "config": 43163, "\u0120234": 32607, "\u0120install": 8486, "\u0120608": 43532, "progress": 38265, "Ob": 24567, "215": 24355, "score": 31673, "Height": 48674, "oline": 18675, "UN": 4154, "801": 39624, "\u0120175": 16041, "\u0120generated": 5129, "VEL": 16641, "\u0120physical": 2166, "ary": 1766, "\u0120instances": 10960, "usr": 45568, "\u0120non": 786, "294": 32004, "\u0120current": 595, "pat": 11632, "\u0120118": 16970, "sed": 28308, "metic": 45847, "\u0120frown": 41588, "age": 1580, "520": 31271, "\u0120directly": 2024, "ok": 1638, "shift": 37641, "False": 46659, "bridge": 7820, "hy": 11108, "begin": 43230, "kw": 33294, "\u0120n": 295, "oad": 20657, "571": 38173, "\u0120Port": 2848, "nr": 37643, "We": 170, "\u0120marked": 4760, "Stand": 36303, "58": 4432, "53": 4540, "612": 38222, "lights": 20888, "dot": 33369, "117": 21598, "Deb": 33402, "\u0120187": 29373, "\u0120TIME": 18034, "\u0120de": 263, "\u0120Time": 3421, "MU": 31502, "\u0120530": 30488, "arm": 4526, "\u0120Le": 1063, "Overall": 28965, "\u012073": 6521, "Con": 9157, "\u0120Mot": 6434, "007": 35723, "371": 34923, "975": 35795, "&&": 49145, "\u0120constructor": 47073, "385": 30042, "res": 1535, "\u0120incre": 47080, "ile": 1848, "789": 39413, "mode": 42253, "ceived": 31597, "381": 35155, "place": 6406, "\u0120188": 29576, "Opt": 36542, "\u0120diagnostic": 20862, "300": 2965, "\u0120disable": 33022, "\u0120ser": 6821, "640": 31419, "\u0120but": 53, "own": 3355, "\u0120127": 20598, "\u0120k": 449, "OST": 13556, "OPER": 35918, "1969": 45264, "icator": 30931, "\u0120154": 25502, "ency": 6761, "\u0120329": 40250, "\u0120301": 25895, "\u0120360": 10253, "do": 5016, "\u0120Light": 5737, "ass": 2401, "\u0120application": 2502, "\u0120B": 163, "dig": 20098, "mart": 15964, "\u0120br": 5378, "\u0120channel": 4238, "782": 40092, "517": 39356, "210": 22146, "406": 35629, "html": 6660, "fitting": 22605, "Basic": 46255, "\u0120performed": 3744, "erb": 31679, "lection": 20576, "\u0120offset": 6147, "native": 34551, "Push": 46971, "cache": 47974, "dry": 16864, "meta": 46876, "\u0120Kon": 11272, "\u0120disk": 21675, "SON": 14452, "ALD": 34791, "Point": 20416, "Se": 14696, "sh": 1193, "alias": 47910, "66": 4280, "handle": 26628, "SAM": 45159, "588": 38318, "Winter": 33120, "\u0120262": 35523, "\u0120389": 43281, "amic": 21515, "Group": 25976, "Hi": 30086, "785": 37453, "lf": 13491, "740": 33686, "\u0120Lo": 5463, "prot": 36299, "mediate": 30771, "inters": 38993, "422": 37319, "\u0120deployment": 9737, "Give": 31033, "Fs": 34417, "b": 428, "\u0120I": 38, "\u0120limit": 3000, "376": 35422, "\u0120Initi": 35743, "\u0120fixed": 4460, "bad": 10999, "\u0120parallel": 12980, "\u0120implicit": 33583, "ording": 36473, "usage": 47275, "lc": 45071, "Post": 21585, "\u0120exported": 22332, "267": 28497, "1974": 44880, "Sign": 25675, "enz": 16481, "\u0120supported": 2800, "ists": 1952, "percent": 13566, "\u0120team": 165, "\u0120installation": 8809, "puter": 48428, "\u0120135": 16157, "General": 9344, "\u0120tool": 3944, "\u0120should": 197, "ence": 4086, "thread": 43935, "et": 594, "\u0120625": 37329, "ERROR": 46734, "Sol": 39524, "\u0120incor": 45564, "osition": 21553, "\u0120257": 33921, "\u0120left": 314, "PATH": 48468, "tic": 13240, "109": 18616, "SR": 17973, "Two": 9058, "Platform": 46960, "MOD": 45997, "\u0120Syn": 16241, "with": 5632, "\u0120unit": 1933, "CAN": 31448, "./": 21594, "var": 10806, "\u0120intr": 19567, "Enabled": 48582, "\u0120Sign": 4313, "\u01201986": 11265, "STAT": 40106, "Hy": 30811, "\u012041": 3492, "Abstract": 47638, "\u0120boolean": 49378, "not": 3654, "Touch": 40121, "gs": 15453, "current": 28311, "wear": 10724, "eded": 8652, ":": 35, "eger": 44091, "\u0120348": 41097, "\u0120fix": 4190, "ogram": 19673, "\u0120most": 144, "348": 27765, "Low": 32758, "erk": 13760, "\u0120Called": 28277, "disabled": 46241, "\u0120helpers": 35755, "\u0120outings": 16362, "\u0120prosecuted": 15984, "ikuman": 50010, "\u0120PowerPoint": 39814, "\u0120Campbell": 5925, "\u0120Foo": 36155, "\u0120fencing": 23281, "\u0120authoritative": 34502, "ogie": 29710, "Fla": 36150, "\u0120tire": 12431, "\u0120FB": 13042, "\u0120fatally": 11293, "\u0120Teacher": 22227, "\u0120penet": 43463, "\u0120GS": 19580, "\u0120HI": 35393, "arations": 39519, "\u0120surveyed": 12026, "isions": 12545, "\u0120sam": 13049, "\u0120finest": 14535, "\u0120crash": 2058, "\u0120Galileo": 41322, "\u0120rings": 11987, "iership": 30571, "\u0120impecc": 28462, "\u0120Thatcher": 28123, "iries": 19947, "****************": 41478, "Region": 43575, "\u0120img": 48599, "\u0120Nev": 17423, "\u013f": 46, "Want": 38576, "\u0120impoverished": 24075, "\u0120Vaughan": 25925, "\u0120ast": 12976, "\u0120JFK": 29889, "\u0120shr": 15383, "\u0120damn": 16490, "quer": 18756, "\u0120embryos": 32293, "ijn": 18787, "\u0120Bars": 34412, "\u0120jurisdiction": 10542, "\u0120Sheldon": 21882, "\u0120slope": 24553, "aven": 10570, "\u0120until": 454, "veland": 24890, "\u0120Noon": 17125, "\u0120mandated": 17171, "\u0120recording": 5492, "\u0120fortress": 38190, "\u0120BET": 24844, "\u0120Sno": 29952, "\u0120tuna": 28099, "\u0120operative": 27133, "invest": 12406, "\u0120cool": 3035, "\u0120Celt": 48488, "\u0120force": 1370, "\u0120Surprisingly": 34277, "Awesome": 47058, "\u0120Antioch": 33604, "\u0120discontinued": 27251, "\u0120outweigh": 25473, "\u0120arresting": 22534, "\u0120extensively": 18808, "\u0120garn": 28788, "icularly": 45555, "\u0120voy": 32098, "\u0120asking": 1996, "\u0120Behavioral": 36249, "\u0120Gest": 37479, "\u0120sparse": 28593, "ursday": 46806, "\u0120Blizz": 47106, "\u0120clergy": 21064, "Case": 38834, "\u0120Katherine": 16786, "\u0120Candle": 40134, "\u0120Founding": 37884, "\u0120calculated": 9658, "\u0120warming": 8232, "\u0120Commando": 45870, "\u0120showcase": 8283, "\u0120bas": 11909, "\u0120Dwar": 43712, "\u0120Brands": 11885, "\u0120bachelor": 16781, "\u0120vulnerabilities": 20715, "\u0120accessory": 21883, "\u0120Witt": 29088, "\u0120OPEN": 33720, "\u0120referred": 4997, "Desk": 43498, "\u0120decre": 33186, "\u0120sweet": 4045, "iotics": 34339, "Certainly": 32476, "\u0120disrupt": 12414, "\u0120semif": 12362, "\u0120comprises": 16755, "\u0120Fram": 27335, "\u0120caregivers": 21650, "\u0120curriculum": 12522, "\u0120twenties": 36899, "\u0120socially": 17208, "\u0120vector": 37681, "\u0120borrowing": 9134, "\u0120Inspection": 32549, "leased": 35830, "\u0120UNDER": 34290, "\u0120Browne": 26057, "\u0120regulation": 5746, "\u0120MAD": 27557, "\u0120DISTR": 43798, "\u0120Maiden": 34404, "\u0120Pierre": 11300, "\u0120Nutr": 46857, "\u0120Kiev": 15200, "\u0120Olson": 19617, "\u0120dissatisfied": 37278, "\u0120strongest": 8260, "\u0120pearl": 36679, "\u0120rend": 24200, "\u0120brushes": 33930, "\u0120sterling": 17179, "\u0120governing": 8182, "\u0120Reeves": 22777, "\u0120gamma": 42685, "\u00e3": 48064, "Additionally": 42713, "\u0120Debian": 45534, "\u0120Quincy": 24366, "\u0120{\\": 49830, "\u0120Diabetes": 25495, "\u0120Glow": 38365, "\u0120Really": 16923, "\u0120Practices": 33682, "\u0120marquee": 23918, "rament": 42414, "\u0120flavours": 29197, "\u0120evaluation": 10437, "fed": 21967, "\u0120averaging": 8343, "\u0120posing": 12681, "\u0120prevalent": 18689, "\u0120Heights": 9754, "\u0120likes": 3829, "aquin": 23186, "channelAvailability": 50220, "ieved": 36024, "gone": 28636, "\"]=>": 50154, "\u0120autobi": 41544, "\u0120Esk": 19119, "\u0120warmed": 28163, "\u0120superpower": 36184, "\u0120contag": 38174, "\u0120Heritage": 8784, "\u0120Soon": 9561, "\u0120pasta": 18236, "Cover": 45158, "\u0120INS": 23395, "\u00d7\u0133": 48405, "\u0120DSM": 43657, "Mega": 46717, "Che": 16764, "\u0120Bain": 19758, "\u0120rider": 11578, "\u0120solder": 46290, "hesis": 35571, "\u0120weapons": 2398, "\u0120daddy": 27776, "\u0120acknowledging": 17790, "\u0120Karen": 7836, "\u0120splitting": 21128, "\u0120writes": 5789, "\u0120Episode": 16012, "\u0120rewarded": 14986, "ocating": 18106, "\u0120Awards": 4229, "\u0120Skill": 37456, "realDonaldTrump": 14345, "\u0120commute": 17620, "\u0120Chocolate": 22304, "\u0120consequently": 28766, "Saturday": 17643, "\u0120disagreements": 24461, "\u0120compensated": 25428, "\u0120Tet": 26117, "\u0120Auckland": 14664, "\u0120Collector": 38934, "\u0120Van": 3415, "dating": 40651, "\u0120probing": 24097, "\u0120shitty": 43816, "\u0120Labour": 4165, "Initialized": 50026, "\u0120dominated": 6235, "\u0120observations": 15864, "\u0120Bund": 13309, "\u0120dwarves": 48253, "\u0120agg": 28940, "\u0120fec": 42085, "\u0120Reid": 8519, "\u0120\"\"\"": 49434, "crafted": 29496, "\u0120punishable": 28939, "\u0120cowork": 37966, "\u0120SCH": 26744, "prim": 31044, "\u0120fanatic": 38604, "\u0120Socket": 48115, "\u0120veggies": 32065, "\u0120interrupted": 18525, "\u0120Regina": 15215, "\u0120Clarks": 32615, "\u0120book": 1040, "\u0120evidence": 1283, "\u0120destinations": 11633, "\u0120Years": 10426, "\u0120escaping": 23042, "antha": 43284, "\u0120tattoos": 21462, "\u0120forwards": 14346, "\u0120Fraud": 27853, "beit": 23274, "sighted": 35184, "\u0120customer": 2111, "calling": 33485, "\u0120Glenn": 8583, "\u0120Including": 12526, "Contents": 49482, "\u0120Amar": 19253, "\u0120Technical": 12920, "\u0120asbestos": 28962, "\u0120faces": 2419, "\u0120IN": 2808, "Deep": 35166, "\u0120whipping": 33773, "\u0120Mourinho": 6260, "\u0120EDIT": 33672, "\u0120Umb": 36882, "\u0120RBI": 4515, "\u0120Giuliani": 18334, "\u0120Call": 3310, "\u0120distributors": 14806, "\u0120bloc": 7667, "\u0120division": 2757, "\u0120challeng": 49545, "\u0120Wings": 13770, "\u0120buffers": 39588, "orescent": 46810, "\u0120salsa": 33367, "\u0120searching": 6062, "\u0120validate": 28754, "\u0120pronounce": 25967, "\u0120challenger": 15415, "\u0120Media": 2454, "imates": 34129, "ologue": 28789, "\u0120Heavenly": 42906, "pieces": 26235, "\u01201985": 12497, "\u0120Budd": 30525, "\u0120discretionary": 25159, "\u0120Plat": 23654, "\u0120formulas": 37130, "\u0120Players": 8220, "\u0120opio": 49462, "oma": 4982, "\u0120Daredevil": 42796, "\u0120guess": 4443, "\u0120Ross": 4012, "\u0120Merc": 13873, "Factory": 47249, "\u0120loader": 44500, "\u0120moderators": 42976, "\u0120therapeutic": 18441, "mind": 28583, "\u0120greenhouse": 11832, "\u0120teacher": 3254, "TERN": 37683, "\u0120useless": 23584, "\u0120Arg": 19021, "\u00c3\u0143a": 5272, "\u0120realism": 35402, "\u0120spawned": 29219, "Consider": 44311, "osaurs": 44349, "\u00e3\u0123\u00ae\u00e6": 49272, "asions": 38258, "\u0120smoot": 35444, "\u0120empir": 46533, "\u0120notwithstanding": 30233, "\u0120Eater": 40538, "\u0120microbiome": 39839, "\u0120Kathleen": 15931, "\u0120Dur": 7925, "\u0120Alam": 22223, "inction": 40890, "\u0120Abraham": 13717, "\u0120league": 1267, "\u0120[...]": 43303, "\u0120driven": 3185, "\u01202002": 5241, "\u0120Sacrifice": 46348, "\u0120auditor": 15279, "renched": 30388, "\u0120gunned": 25907, "\u0120fewer": 4163, "\u0120SNP": 20472, "nob": 33212, "\u0120champions": 4739, "sid": 24301, "\u0120Matthews": 10484, "escap": 41274, "\u0120powdered": 39143, "\u00c3\u012f\u00c3\u012f": 50066, "\u0120Hare": 33188, "\u0120deductible": 34386, "iddle": 17993, "\u0120Fiesta": 29041, "repre": 46737, "\u0120Monument": 23001, "\u0120surrog": 34756, "\u0120React": 30001, "\u00d8\u00a8": 41117, "\u0120Gotham": 35733, "\u0120Westbrook": 15873, "\u0120humanoid": 44350, "\u0120Anxiety": 42027, "\u0120Lancet": 39239, "\u0120().": 48989, "vc": 36940, "\u0120positively": 13541, "haw": 11900, "\u0120Bee": 15227, "\u0120vegetarian": 24926, "\u0120charact": 49650, "\u0120unsustainable": 26079, "wm": 43237, "\u0120assaulting": 13511, "outhern": 45846, "\u0120migrating": 35173, "ccess": 47862, "\u0120spite": 14117, "itives": 35143, "Syrian": 38291, "\u0120adapted": 15517, "ylum": 47046, "itors": 9314, "\u0120during": 148, "\u0120Mall": 6633, "\u0120Fran\u00c3\u00a7": 43760, "\u00e4\u00b8\u0143": 47643, "\u0120Classical": 39641, "\u0120Colts": 9542, "\u0120tigers": 36054, "ivist": 35012, "\u0120fateful": 34619, "\u0120Wo": 20963, "\u0120Czech": 9096, "\u0120identical": 14085, "\u0120Hal": 6579, "\u0120claimants": 32921, "\u0120Lancaster": 15038, "\u0120Letter": 17103, "\u0120Eleanor": 29396, "\u0120Acc": 5438, "population": 41340, "Company": 21960, "Russian": 14836, "antage": 34237, "\u0120diplomats": 10055, "\u0120launch": 1709, "\u0120Processing": 28395, "\u0120Hub": 12991, "itary": 16669, "\u00c3\u00b1a": 14379, "\u0120Sty": 27894, "\u0120Contribut": 19507, "\u0120Cox": 8278, "\u0120legisl": 23241, "\u0120demeanor": 31764, "\u0120contradict": 28204, "\u0120Query": 44489, "?)": 16276, "\u0120boosts": 25941, "ette": 3398, "\u0120stopped": 2294, "\u0120bra": 11689, "\u0120AUTHOR": 44375, "Shield": 39278, "imbabwe": 39329, "MJ": 41062, "earances": 45715, "\u0120altered": 15992, "pering": 22934, "\u0120Upgrade": 41846, "\u0120asked": 553, "\u0120pept": 39950, "ilver": 43206, "\u0120Explain": 44109, "\u00e3\u0125\u00b4": 49976, "\u0120Thames": 23131, "\u0120dstg": 50199, "\u0120heel": 19728, "sem": 26976, "\u0120rapidly": 6042, "\u0120catalogue": 29346, "\u0120spirit": 4780, "InstoreAndOnline": 50227, "\u0120Rehab": 22969, "\u0120blunt": 18720, "\u0120Mediterranean": 11965, "\u0120BASE": 38018, "\u0120Extreme": 24495, "\u0120SPORTS": 22204, "\u0120Lyme": 32250, "\u0120vegetation": 22178, "\u0120Seven": 7732, "\u0120announced": 585, "\u0120Su": 3296, "\u0120mango": 32184, "\u0120fra": 26830, "\u0120influenced": 11359, "\u0120cannabis": 5194, "\u0120Zamb": 14400, "\u0120dubious": 24381, "\u0120abduct": 28600, "\u0120soaring": 15447, "\u0120Estonia": 24799, "\u0120squares": 32657, "\u0120festivities": 15972, "\u0120dash": 12575, "rank": 40081, "\u0120Sorcerer": 47533, "\u0120descendants": 29285, "\u0120ESA": 34479, "\u0120raiding": 40984, "iate": 10599, "\u0120peek": 20003, "\u0120narrated": 29601, "\u0120apprehension": 34640, "\u0120Colleg": 26096, "\u0120scanners": 35834, "\u0120hone": 32766, "\u0120Fully": 37881, "inem": 10748, "\u01201929": 32638, "\u0120criminals": 9177, "rest": 7110, "\u0120Who": 3394, "els": 2507, "\u0120Hog": 28464, "\u0120veterinarian": 29231, "onies": 17130, "\u0120hemisphere": 32515, "\u0120FY": 9878, "\u0120206": 27637, "\u0120Antarctica": 27593, "\u0120protesting": 12779, "erc": 11180, "\u0120//[": 50018, "\u00e5\u012b": 49075, "\u0120countryside": 19564, "\u0120palate": 35726, "Crime": 41514, "strate": 35817, "oples": 46051, "\u0120dental": 14446, "innacle": 30926, "\u0120sucked": 28635, "\u0120highlight": 6053, "\u0120Hitman": 44812, "\u0120++": 48793, "\u0120Dek": 33519, "\u0120revamped": 21920, "hematic": 47405, "\u0120pipe": 11397, "\u0120barriers": 7926, "\u0120Faces": 38738, "\u0120stationed": 17065, "\u0120gal": 22101, "\u0120CNBC": 17826, "\u0120Cent": 7838, "\u0120deploying": 20159, "ips": 7418, "\u0120seek": 2639, "\u0120Ivory": 22256, "\u0120epid": 45263, "learning": 29888, "\u0120yell": 28930, "\u0120Alright": 41881, "\u0120employing": 21819, "\u0120celebrate": 3379, "\u0120MAG": 29505, "\u0120ORDER": 43772, "\u0120apartheid": 25329, "\u0120wrongly": 23276, "\u0120genitals": 33079, "\u0120interchangeable": 40627, "\u0120Rank": 17816, "\u0120ev": 7630, "\u0120funded": 6140, "\u0120buildings": 3413, "inning": 15853, "flame": 45992, "\u0120Tun": 21215, "\u0120MGM": 20405, "\u0120revers": 33113, "\u0120superiors": 38045, "\u0120sin": 10272, "\u0120varies": 23653, "\u0120Paras": 41931, "\u0120stature": 26549, "\u0120skinny": 22877, "\u0120AE": 35722, "\u0120Rivals": 39579, "\u0120distinguish": 22929, "groupon": 49730, "\u0120cage": 16051, "\u0120308": 35343, "atin": 16779, "\u0120poignant": 27274, "\u0120WRITE": 48502, "\u0120Pok\u00c3\u00a9": 46697, "\u0120spitting": 35304, "\u0120Kare": 19492, "\u0120xx": 37863, "\u00e2\u0124\u00ac": 10851, "\u0120pouch": 40517, "\u0120infants": 19964, "Naz": 46016, "\u0120Primordial": 49369, "\u0120HTC": 16484, "dor": 32649, "\u0120approaching": 8955, "Town": 33528, "isle": 20491, "\u0120Serv": 16691, "\u0120Pavilion": 21813, "icate": 14263, "hook": 33016, "\u0120mimic": 26361, "\u0120Quentin": 31062, "\u0120Hass": 27542, "\u0120BOOK": 39854, "\u0120innovate": 26818, "\u0120mistrust": 34873, "\u0120Rouge": 14941, "\u0120tiny": 5262, "\u0120417": 40740, "\u0120Pricing": 29574, "ancer": 20126, "\u0120cub": 18383, "ibu": 16343, "\u0120rect": 20705, "outs": 4518, "\u0120Difference": 40905, "\u0120conceive": 36364, "evidence": 42655, "\u0120Leh": 15765, "\u0120ru": 6365, "\u0120Archives": 26844, "hematically": 41847, "aukee": 45196, "\u0120ster": 43472, "\u0120Painter": 38057, "\u0120compliments": 33391, "\u0120breathtaking": 24206, "\u0120Zel": 31102, "\u0120Price": 3655, "\u0120Jeff": 2321, "\u0120Essential": 26571, "\u0120banter": 32723, "\u0120remarked": 18767, "Family": 27818, "\u0120Blocks": 42568, "\u0120periods": 5788, "\u0120uterus": 36998, "\u0120documents": 2339, "'s": 18, "\u0120heirs": 36218, "iolet": 41790, "\u0120comprehensive": 5145, "\u0120MRI": 20398, "\u0120fanc": 33639, "\u0120Forsaken": 47565, "marriage": 42855, "\u0120management": 1052, "\u0120booked": 7512, "imore": 28545, "\u0120statute": 16840, "\u0120\u00e2": 14333, "\u0120bowed": 30748, "\u0120shrouded": 37540, "gar": 6276, "\u0120Knot": 40834, "\u0120chains": 9781, "\u0120workload": 16942, "\u0120adapter": 36007, "\u0120guarantees": 12360, "ictive": 37601, "popular": 34410, "Rex": 39712, "ibrary": 44138, "\u0120NK": 35906, "acly": 49149, "\u0120Presidential": 10893, "dict": 25867, "\u0120Robots": 38659, "\u0120Holland": 10681, "\u0120Uncharted": 45359, "truth": 36014, "anto": 13688, "\u0120Riv": 17926, "itting": 9451, "\u0120Resp": 40076, "CB": 25392, "hetic": 18667, "\u0120Xbox": 10444, "\u0120Managing": 11209, "\u0120presentations": 16288, "wra": 38610, "\u0120OD": 20778, "cart": 33663, "\u0120450": 13411, "thal": 27534, "\u0120Cole": 7139, "\u0120Particularly": 36863, "\u0120unve": 36685, "\u0120waits": 23120, "\u0120INCLUD": 46393, "\u0120Ret": 9944, "\u0120humili": 40490, "\u0120productivity": 8106, "\u0120switching": 13536, "\u0120detached": 27687, "\u0120Ach": 23790, "\u0120sixteen": 32382, "\u0120interacting": 23140, "\u0120feathers": 28442, "\u0120spa": 18179, "\u0120Stafford": 16359, "\u0120largely": 2743, "\u0120tenants": 12004, "\u0120Age": 8927, "illac": 44719, "\u0120brakes": 17690, "Chan": 44485, "\u0120airliner": 36166, "examination": 33198, "aceous": 40576, "oration": 18620, "ned": 7456, "continue": 32757, "\u0120rapists": 37916, "\u0120stance": 6663, "\u0120Pledge": 37657, "\u0120salad": 13153, "atmeal": 38615, "\u0120rifles": 17509, "\u0120Printing": 35366, "\u0120attending": 5190, "\u0120disturbing": 11783, "\u0120pulled": 2468, "\u0120<[": 50161, "Brown": 24057, "ARCH": 42499, "berus": 49496, "utable": 41280, "\u0120TS": 12932, "\u0120Brist": 38307, "\u0120bite": 10970, "\u0120stealing": 9460, "icio": 15025, "opes": 18836, "\u0120gasped": 44918, "\u0120undersc": 18010, "\u0120wast": 42306, "\u0120Dimensions": 42399, "\u0120bathing": 30260, "\u0120fourth": 887, "\u0120validated": 29548, "\u0120detects": 36959, "\u0120Pil": 13601, "abb": 8448, "\u0120differe": 47850, "\u0120orbits": 38786, "\u0120regression": 39974, "\u0120cumbersome": 36190, "\u0120privately": 9638, "\u0120harms": 31532, "\u0120starved": 35365, "\u0120recall": 6001, "\u0120sentenced": 4018, "\u0120Tor": 6623, "\u0120Language": 22205, "natural": 25270, "!!!!!!!!": 47038, "\u0120Rooms": 37490, "\u0120hotel": 2303, "\u0120NASL": 47179, "\u0120coupon": 22939, "\u0120DeV": 27296, "License": 48407, "\u0120Earthqu": 41538, "ized": 1538, "\u0120medial": 44016, "\u0120councill": 48747, "\u0120motions": 23763, "regulated": 35908, "\u01204096": 48711, "\u0120Saturdays": 18326, "\u0120Water": 3201, "\u0120Trash": 41182, "ores": 4765, "\u0120native": 3763, "\u0120Approximately": 26890, "\u0120chapters": 22017, "\u0120strokes": 17705, "\u0120fences": 23540, "\u0120portrays": 29565, "awei": 44087, "\u0120humor": 12073, "\u0120culinary": 16820, "\u0120chased": 15378, "\u0120freezes": 35084, "\u0120Islanders": 15856, "\u0120Lon": 16461, "\u0120necessity": 17331, "\u0120Ethnic": 42652, "\u0120career": 756, "\u0120Airport": 4414, "\u0120prospect": 4517, "\u0120Zac": 24871, "\u0120enrolled": 12751, "\u0120Diversity": 25123, "\u0120sleek": 19474, "\u0120mailbox": 36661, "\u0120fence": 8146, "\u0120google": 39121, "\u0120expert": 3827, "\u0120physiology": 41966, "\u0120Hazard": 15031, "\u0120Wolfgang": 30310, "\u0120altar": 30449, "\u0120Kitchen": 11580, "usb": 47358, "\u0120Ruff": 28352, "\u0120Incre": 46595, "rew": 10461, "Years": 43937, "\u0120lesser": 13514, "roit": 32345, "\u0120exempted": 31882, "combat": 42880, "\u0120Roberto": 13647, "\u0120cryst": 49875, "\u0120storytelling": 17662, "uthor": 45944, "htar": 19654, "iom": 27074, "\u0120Wave": 21180, "\u0120Laurel": 22729, "\u0120har": 12280, "\u0120Kin": 12823, "\u0120Raf": 13710, "\u0120informal": 14110, "Engineers": 47890, "\u0120275": 25949, "\u0120Trib": 24311, "\u0120recurrent": 35583, "\u0120solid": 2705, "iatus": 48822, "\u0120corros": 40041, "\u0120Webb": 13804, "\u0120browse": 29248, "\u0120story": 527, "\u0120Davis": 2505, "\u0120paragraph": 17818, "\u0120characterize": 33776, "appropri": 31374, "Weak": 47025, "\u0120Evening": 19620, "\u0120telescope": 27608, "\u0120spins": 35003, "ulsion": 31254, "\u0120Andromeda": 43866, "locks": 37536, "\u0120styled": 25845, "\u0120maniac": 41288, "\u0120Da": 8318, "'.": 2652, "\u0120gran": 17227, "\u0120Tennessee": 3719, "airo": 14387, "\u0120cog": 37204, "anwhile": 49241, "\u0120vibr": 31495, "igma": 34719, "Ry": 43031, "Speaking": 38777, "\u0120fry": 25950, "\u0120Siberia": 36554, "\u0120artists": 3528, "infeld": 35194, "\u0120ce": 8635, "\u0120amount": 1280, "\u0120absentee": 25066, "\u0120synt": 45774, "\u0120Ging": 44726, "\u0120Code": 8302, "\u0120Tau": 29666, "\u0120pledging": 24760, "\u0120Thom": 22608, "\u0120maneuver": 21698, "\u0120Sequence": 47134, "documented": 37230, "berra": 45760, "Natural": 42968, "plet": 26151, "abortion": 27275, "\u0120Alicia": 21418, "hood": 8489, "Wave": 37334, "\u0120academ": 32851, "\u0120sailing": 17664, "\u0120Lob": 20561, "\u0120Erd": 25716, "\u0120tou": 40667, "\u0120grabbed": 7249, "\u0120schizophrenia": 32285, "\u0120Society": 3930, "IRED": 43044, "\u0120bank": 827, "\u0120periodic": 27185, "\u0120theat": 21396, "\u0120Plato": 44207, "ordon": 19228, "\u0120recruit": 9584, "\u0120Ace": 18176, "\u0120spine": 20625, "genre": 44205, "\u0120carbohydrates": 34215, "\u0120Burr": 26725, "\u0120unison": 38280, "\u0120Zah": 21008, "++++++++++++++++": 49258, "gency": 29377, "Romney": 47550, "Chelsea": 27725, "\u0120threatens": 13546, "\u0120Lawrence": 6226, "\u0120Jam": 7832, "\u0120vows": 23297, "posium": 26036, "vp": 45883, "grain": 42010, "\u00f2": 50096, "\u0120mates": 18779, "\u0120Gree": 26023, "ERC": 32261, "\u0120Treasurer": 22685, "\u0120deems": 35214, "\u00c3\u0142": 5269, "\u0120inventions": 39232, "growing": 11600, "Judge": 40145, "\u0120giveaway": 30385, "\u0120Mecca": 36290, "laden": 20724, "\u0120afar": 34966, "\u0120Berkshire": 16563, "\u0120ridic": 42092, "\u0120glitter": 19053, "\u0120scientifically": 36388, "\u0120Dom": 11349, "pg": 18188, "\u0120Dickinson": 23574, "rawdownloadcloneembedreportprint": 50174, "\u0120suspic": 48864, "ially": 11416, "\u0120Plaintiff": 39920, "\u00e6\u013f": 48414, "\u0120pores": 39172, "\u0120asphalt": 28280, "\u0120residential": 4860, "\u0120fractions": 44807, "\u0120dos": 9958, "Salt": 44095, "\u0120sects": 45202, "\u0120vehicles": 1734, "\u0120Sicily": 34315, "\u0120introducing": 10345, "\u0120genus": 44878, "\u0120flask": 46918, "\u0120Melissa": 11701, "\u0120Zoro": 47283, "\u0120sal": 6641, "\u0120treacher": 45492, "\u0120struggling": 3306, "\u0120definitively": 35144, "\u0120Shir": 25700, "\u0120Tumblr": 9494, "\u0120sequences": 26929, "\u0120upgr": 44126, "\u0120carving": 29776, "\u0120amended": 13522, "\u0120arbitration": 16211, "\u0120Eclipse": 31011, "aho": 30257, "\u0120philanthrop": 14054, "\u0120mercy": 20222, "chnology": 49059, "\u0120regions": 3806, "\u0120bog": 28423, "\u0120viral": 7696, "\u0120Sina": 42857, "\u0120electromagnetic": 38966, "\u011f": 50139, "\u0120wonderful": 4613, "\u0120Ts": 7303, "\u0120excise": 28994, "\u0120stealth": 27026, "\u0120favor": 4402, "\u0120imaginative": 35026, "\u0120Comb": 27166, "\u0120variant": 17390, "\u0120translate": 14620, "\u0120closes": 14454, "urgy": 40673, "\u0120dams": 22675, "fighters": 12163, "\u0120congestion": 15744, "Story": 39630, "\u0120dominate": 11781, "\u0120intake": 14797, "\u0120Grant": 5980, "\u0120Yuri": 35944, "\u0120Bradford": 14259, "\u0120nonsense": 20175, "iscons": 49106, "\u0120simplified": 30082, "\u0120exchanging": 28149, "ARI": 32665, "\u0120dinosaurs": 29171, "\u0120tease": 29993, "responsive": 23401, "\u0120arsen": 44092, "BB": 7405, "\u0120Luna": 24089, "\u0120glutamate": 47491, "aji": 10440, "\u0120Scriptures": 46320, "\u0120psychologists": 33208, "fficiency": 45326, "gray": 42692, "\u0120streng": 48458, "\u0120Sund": 12282, "akable": 30363, "\u0120Ministry": 2803, "ulner": 47597, "\u0120reservoirs": 29896, "\u0120Dexterity": 49417, "\u0120Sunni": 15014, "\u0120Activ": 18953, "\u0120$_": 49755, "\u0120resistor": 48498, "\u0120Weiss": 20130, "\u0120disapprove": 38509, "\u0120bully": 23934, "\u0120inflicted": 24080, "\u0120\u00e2\u0122\u00a6": 1555, "\u01201902": 43289, "\u0120GC": 18397, "\u0120shameless": 36778, "\u0120Giov": 33829, "\u0120detrim": 49023, "inflammatory": 33824, "Fourth": 46354, "\u0120unification": 34561, "\u0120taxes": 2556, "abor": 15313, "\u0120\u00e2\u0138": 27233, "baby": 29126, "\u0120Locked": 45915, "Fill": 46448, "\u0120respecting": 28065, "\u0120Whatever": 11999, "\u0120treating": 8959, "otional": 23745, "title": 14691, "\u0120Flav": 33159, "\u0120shirts": 15331, "\u0120romantic": 8728, "\u0120even": 190, "Depths": 49952, "\u0120individuals": 2172, "\u0120disposable": 22400, "ocard": 43682, "\u0120ours": 15157, "\u0120constraints": 16311, "\u0120vitality": 35762, "\u0120proteins": 17792, "\u0120Partial": 45078, "\u0120Malta": 15977, "charge": 15040, "atana": 45697, "reements": 39510, "\u0120Corinth": 42035, "\u0120unleash": 26845, "\u0120Replace": 42439, "\u0120assures": 36008, "\u0120Juventus": 9573, "\u0120earnest": 22623, "\u0120tourists": 6349, "MED": 32653, "\u0120frontman": 22977, "bred": 24550, "\u0120accompanied": 7513, "\u0120horn": 21305, "ossession": 38030, "\u0120Faster": 42548, "\u0120ellipt": 43568, "Kate": 34079, "\u0120pursuant": 22918, "\u0120censor": 37375, "/>": 49666, "him": 24770, "\u0120Polar": 26279, "pling": 20418, "Draft": 44164, "\u0120initi": 41178, "\u0120Exchange": 3080, "\u0120DISTRICT": 43393, "\u0120concerted": 27006, "\u0120Karin": 38858, "izations": 18391, "\u0120Profile": 8993, "ignant": 35090, "erton": 14347, "\u0120acres": 6419, "\u0120abol": 38226, "\u0120Cec": 21749, "\u0120volt": 39741, "\u0120Wiley": 29701, "\u0120foundations": 16733, "\u0120Carbon": 17962, "\u0120impress": 13113, "issance": 44096, "pler": 30779, "\u0120cutoff": 40002, "vre": 29416, "\u0120rumor": 22677, "jit": 17076, "\u0120Las": 2588, "\u0120USC": 10666, "\u0120Jeb": 26315, "\u0120calendar": 7127, "\u0120Ying": 27317, "mob": 37608, "\u0120totalitarian": 38519, "iance": 9862, "\u0120unavoid": 47976, "\u0120expresses": 15994, "\u0120unacceptable": 10538, "\u0120Blacks": 16365, "\u0120tennis": 5919, "oids": 22926, "omever": 40612, "\u0120Cruise": 15360, "lux": 27643, "\u0120Pad": 9003, "\u0120unfairly": 19106, "\u0120autonomy": 17394, "\u0120burner": 35285, "fax": 26258, "\u0120Resort": 10989, "anship": 48014, "Adult": 46660, "ools": 22890, "\u0120Demonic": 49341, "\u0120Sochi": 15859, "Evidence": 46069, "iatrics": 38246, "\u0120Freder": 19139, "ARB": 38118, "\u0120hath": 46199, "\\<": 50068, "obb": 25795, "prov": 13138, "yson": 20216, "\u0120Cartoon": 41453, "Instead": 23271, "\u0120detox": 31838, "\u0120inadequ": 39672, "\u0120Gra": 10621, "aser": 12425, "\u0120Commands": 47901, "eless": 13802, "\u0120policies": 1986, "\u0120widespread": 5859, "isu": 30569, "\u0120SSH": 46555, "\u0120Mort": 17457, "\u0120speculation": 6116, "\u0120lasers": 34291, "\u0120CLSID": 50001, "essed": 18502, "\u0120dangers": 12114, "\u0120{\"": 49189, "\u0120spawn": 38176, "\u0120adds": 3639, "\u0120Satellite": 29801, "\u0120blast": 7814, "Amazing": 41710, "\u0120GEAR": 46955, "\u0120safest": 25026, "\u0120Shar": 8261, "\u0120pneumonia": 23665, "atching": 20262, "\u0120iron": 6440, "\u0120RD": 30198, "\u0120seam": 27595, "\u0120enthusiastic": 15947, "Parent": 46102, "'ll": 581, "ricane": 33280, "VT": 35707, "reportprint": 50170, "\u0120bashing": 37458, "\u0120Chic": 25334, "\u0120finances": 9083, "\u0120derog": 47158, "xa": 43409, "\u0120Horton": 22477, "\u0120people": 82, "\u0120Squad": 19200, "tested": 33882, "\u0120Restaur": 26210, "\u0120heaviest": 26766, "tower": 40368, "\u0120shaking": 14375, "\u0120patri": 39343, "\u0120additionally": 31151, "\u0120dump": 12371, "\u0120Curious": 39530, "\u0120Allaah": 49827, "\u0120Churches": 37391, "\u0120franc": 13638, "\u0120Fighter": 27926, "\u0120preparations": 11780, "\u0120cathedral": 28457, "\u0120envis": 24012, "OCK": 13181, "\u0120centrif": 40564, "istors": 43951, "PsyNetMessage": 50160, "\u0120bothers": 38070, "\u0120Everton": 9692, "clus": 19734, "\u0120pushing": 3784, "writers": 17934, "\u0120Works": 9478, "\u0120Kubrick": 43544, "\u0120cafes": 28220, "\u0120bay": 11751, "oche": 18339, "\u0120rents": 17845, "\u0120dozen": 4039, "\u0120Odyssey": 28394, "\u0120lineup": 4451, "\u01201937": 31556, "\u0120decrypt": 45886, "\u0120raven": 37707, "Statistics": 47566, "\u0120cakes": 22127, "urger": 25278, "\u0120Bears": 6033, "\u0120visibly": 23472, "\u0120broad": 4007, ".,": 482, "BUG": 48905, "\u0120knees": 15145, "\u0120Prol": 44776, "\u0120falling": 3064, "\u0120Knox": 12996, "\u0120BDS": 34373, "\u0120enact": 17890, "\u0120Celebr": 19736, "\u0120Viz": 29950, "\u0120pardon": 19074, "\u0120sem": 9031, "\u0120Turner": 6980, "\u0120abusing": 16754, "\u0120afore": 45074, "cigarettes": 27147, "\u0120taunt": 44048, "\u0120ii": 42661, "\u0120pricing": 5024, "\u0120archives": 23697, "\u0120Gmail": 29004, "\u0120mystery": 9001, "onis": 25516, "fine": 35093, "\u0120competent": 17451, "\u0120Prometheus": 45575, "\u0120discredited": 36809, "\u0120tweak": 28098, "este": 13967, "ugar": 20115, "\u0120Sak": 17040, "JV": 43117, "ADS": 29581, "shots": 32705, "\u0120parchment": 41968, "Econom": 44494, "\u0120Lex": 14786, "\u0120pursu": 44276, "\u0120Adventure": 22080, "?????-?????-": 50179, "Details": 45360, "\u0120tips": 4965, "\u0120Fey": 33445, "\u0120projection": 18144, "\u0120dwellings": 37324, "berries": 22852, "\u0120Haku": 48700, "\u0120Income": 9628, "Farm": 36587, "roud": 22552, "\u0120backlog": 14846, "\u0120princ": 47627, "atonin": 43515, "\u0120Kul": 23860, "\u0120Banana": 37969, "\u0120Canal": 19710, "Explore": 47526, "\u0120million": 153, "\u0120Okin": 46979, "\u0120realise": 11197, "\u0120bras": 34904, "BP": 21792, "aldehyde": 42842, "\u0120repro": 42741, "\u0120racist": 7159, "\u0120Archer": 19697, "\u0120entertained": 23979, "\u0120resume": 6654, "oor": 4623, "\u0120tears": 6941, "OSP": 41713, "\u0120kin": 24438, "\u0120Discount": 24142, "pherd": 47501, "\u0120Valent": 18352, "\u0120Laksh": 34731, "itant": 41448, "\u0120Fifa": 32115, "Some": 6323, "\u0120cries": 25355, "\u0120subtitle": 46196, "oshi": 23552, "\u0120EDT": 15320, "\u0120nuclear": 1748, "\u0120vaping": 31352, "\u0120dissemination": 35426, "oni": 5270, "Font": 46197, "\u0120ancestral": 34070, "\u0120nested": 46902, "\u0120Lenn": 24930, "\u0120maker": 4403, "scill": 46003, "\u0120Nur": 17474, "\u0120Windows": 6039, "\u0120backed": 4094, "\u0120corrobor": 25223, "\u0120writings": 31757, "\u0120remedies": 26552, "elta": 25412, "\u0120embraced": 11589, "\u0120tile": 29939, "\u0120Maul": 35676, "\u0120Crime": 6624, "\u0120controlled": 4875, "meat": 38542, "\u0120discoveries": 21975, "aining": 8173, "\u0120distribute": 12983, "\u0120\\(\\": 49783, "placed": 12459, "\u0120lens": 10373, "\u0120Trevor": 10251, "udder": 44700, "putable": 40403, "Radio": 27759, "\u0120Si": 11065, "=>": 48755, "\u0120dough": 14397, "\u0120nodd": 49594, "undo": 20870, "\u0120Host": 10664, "oser": 19780, "],\"": 17523, "\u0120Sab": 6371, "\u0120muscle": 8698, "\u0120Malays": 35312, "uated": 14133, "\u0120bridge": 4081, "\u0120BBC": 3295, "\u0120Net": 5008, "\u0120satisfying": 17758, "kar": 8722, "\u0120Barbar": 40482, "\u0120manipulating": 30830, "mot": 25331, "\u0120smell": 11362, "\u0120underpin": 18035, "twitch": 48056, "\u0120Mali": 16193, "isa": 6619, "\u0120Ramirez": 12715, "\u0120Catherine": 10530, "\u0120they": 51, "umsy": 48357, "\u0120fentanyl": 16938, "Better": 35935, "ICT": 12894, "\u0120cens": 26489, "\u0120Verge": 34026, "\u0120NSW": 11618, "\u0120WIN": 17164, "angular": 46482, "\u0120Gender": 25262, "clip": 46413, "ista": 6377, "cery": 36597, "\u0120affiliate": 10515, "\u0120disapproval": 32129, "\u0120stronghold": 22558, "\u0120anomaly": 30942, "\u0120evasion": 23397, "arious": 38313, "\u0120Route": 8828, "\u0120propos": 44779, "\u0120agon": 27497, "\u0120Days": 10046, "\u0120Just": 1801, "ife": 11819, "\u0120pts": 32215, "\u00e2\u0138\u0126": 50049, "anta": 11485, "\u0120Shed": 34891, "\u0120restore": 7057, "\u0120article": 1566, "Pak": 35635, "ows": 2176, "\u0120Tall": 12388, "\u0120Weapons": 28054, "\u0120maintain": 3014, "\u0120editor": 4474, "\u0120politician": 8676, "\u0120washing": 14784, "======": 48613, "\u0120fullback": 24907, "othermal": 35941, "\u0120separately": 12712, "\u0120Pierce": 13891, "erenn": 45904, "\u0120Blood": 11391, "\u0120disrespectful": 26401, "\u0120forg": 31928, "Language": 46969, "\u0120crippling": 26192, "\u0120downstairs": 28239, "\u0120Mits": 14228, "\u0120Planning": 9619, "\u0120sounds": 4428, "\u0120polymer": 31260, "\u0120conclud": 49086, "\u0120SDK": 42823, "elope": 26889, "\u0120comparative": 30590, "\u0120Lovely": 40488, "\u0120imperial": 31377, "\u0120literacy": 18218, "\u0120staged": 10899, "\u0120Police": 522, "\u0120Chall": 32109, "\u0120policymakers": 12875, "Hack": 46251, "\u0120jug": 26144, "\u00e5\u00b9": 47168, "illian": 25359, "Depending": 44402, "\u0120platinum": 17722, "olith": 41894, "\u0120Dalton": 16994, "\u0120somebody": 4909, "GM": 16972, "\u0120Jiu": 45675, "\u0120Ang": 7413, "regulation": 40757, "\u0120Tours": 28254, "\u0120auth": 48639, "Rachel": 41415, "\u0120ancestors": 22519, "Nar": 45787, "\u0120microphones": 35532, "\u0120GENERAL": 43453, "peria": 46388, "\u0120attribut": 41070, "izabeth": 46370, "\u0120aspiring": 18885, "\u0120Erin": 13799, "\u0120Investigations": 22334, "\u0120Dew": 17340, "serial": 46456, "College": 28165, "\u0120causal": 41214, "pmwiki": 50062, "\u0120restricting": 22030, "\u0120lab": 6348, "\u0120Buffer": 44314, "young": 26840, "latest": 44957, "choes": 48932, "jin": 17177, "\u00ce\u00b9": 46399, "igor": 24929, "\u0120Motors": 8484, "Beyond": 36971, "\u0120Hank": 22216, "\u0120Label": 36870, "\u0120wording": 28776, "\u0120Argentina": 5244, "nom": 13681, "iod": 22694, "\u0120Hear": 16321, "\u0120avoiding": 11473, "Writ": 45987, "\u0120Alternative": 22439, "\u0120ax": 18884, "\u0120Dog": 8563, "\u0120Cit": 7801, "quote": 43948, "\u0120BRE": 13530, "fing": 30097, "\u0120FAC": 26207, "\u0120Drive": 3936, "\u0120Whether": 5994, "\u0120Finding": 21470, "\u0120\\'": 49515, "\u0120Tank": 19305, "rican": 45215, "\u0120music": 930, "Richard": 27845, "\u0120cush": 31601, "Alan": 41540, "\u0120inhibitor": 34496, "\u0120Where": 4820, "\u0120anytime": 10677, "\u0120spraying": 30652, "\u0120uncertainties": 10389, "\u0120fly": 3598, "\"(": 47919, "\u0120tickets": 3308, "\u0120grandfather": 10642, "rah": 9772, "ifice": 39748, "\u0120dashboard": 24246, "inally": 30672, "\u0120compliance": 6265, "\u0120Alliance": 6035, "\u0120HRC": 43204, "ensional": 49220, "\u0120anonymous": 8466, "\u0120Guardians": 29371, "\u01201922": 36039, "Mobil": 29077, "lations": 48111, "\u0120Guest": 22809, "\u0120Countdown": 40308, "\u0120fossils": 34642, "\u0120rage": 14706, "fps": 36151, "\u0120Mb": 12466, "\u0120trading": 1446, "olved": 19084, "\u0120consultancy": 16394, "\u0120Trilogy": 40889, "\u0120conve": 26991, "\u0120offensively": 19688, "\u0120tweaking": 35837, "\u0120Kaf": 40130, "\u0120plot": 6197, "\u0120Tur": 7422, "\u0120pursued": 13942, "\u0120cycling": 12731, "\u0120Scientology": 39213, "\u0120Portugal": 8062, "\u0120tert": 31402, "\u0120citizens": 2286, "\u0120Layer": 43262, "eming": 33303, "feel": 35702, "\u0120DJ": 7766, "o\u00c4\u0141an": 38989, "bay": 18707, "\u0120testim": 35164, "oward": 36750, "\u0120Dominican": 18978, "\u0120Gott": 24574, "\u0120Roundup": 35819, "\u0120paperback": 42979, "pring": 42807, "\u0120Khal": 14373, "\u0120Ahmed": 6916, "edd": 13093, "\u0120systematically": 28210, "\u0120Madonna": 23064, "\u0120Robbie": 14763, "\u0120indiscrim": 30416, "\u00cc\u00b6": 48096, "Qaeda": 25697, "\u0120coworkers": 32666, "ieg": 16723, "\u0120cheat": 23532, "\u0120monetary": 5775, "\u0120laz": 40154, "\u0120convoy": 22369, "\u0120bluff": 37372, "\u0120Fahrenheit": 24847, "\u0120composite": 14464, "\u0120subcommittee": 29493, "\u0120Taliban": 7597, "\u0120Takeru": 49486, "\u0120Overwatch": 32736, "\u0120NP": 26266, "\u0120Median": 37677, "iet": 5810, "\u0120queue": 21021, "\u0120bombshell": 24332, "interpret": 41111, "ructure": 20636, "polit": 25214, "\u0120Meow": 46356, "vid": 21157, "\u0120consists": 10726, "\u0120wind": 2508, "\u0120caus": 37771, "\u0120Unicorn": 42240, "\u0120resting": 18403, "\u0120sweets": 29842, "opic": 18137, "\u0120volunt": 43763, "\u0120Bib": 29737, "\u0120antibodies": 32648, "\u0120pas": 6977, "aution": 49818, "razen": 43280, "\u0120tendencies": 27109, "\u0120reboot": 18660, "\u0120noteworthy": 24946, "\u0120---": 21394, "\u0120AFL": 16305, "ison": 4060, "\u0120presupp": 46954, "\u0120bloodshed": 27801, "\u0120resear": 39317, "\u0120forests": 14275, "\u0120stub": 35672, "BUT": 44299, "COR": 39075, "\u0120attempts": 3881, "\u0120grep": 48501, "emonium": 48144, "itia": 37310, "RG": 41626, "@#&": 50015, "haust": 41423, "\u0120contributes": 17992, "\u0120Shield": 17056, "\u0120ti": 12369, "Soul": 42572, "\u0120slumped": 16168, "\u0120Guys": 28361, "oga": 10447, "\u0120visuals": 27010, "\u0120cameo": 26000, "Reviewed": 49408, "\u00a6": 18164, "\u0120obscure": 23732, "\u0120294": 39846, "\u0120colonel": 35886, "\u0120Rapp": 16199, "\u0120traveler": 33489, "\u0120divides": 27384, "\u0120speedy": 18096, "\u0120controversial": 4456, "\u0120Daw": 20804, "\u0120circumstances": 4215, "\u0120character": 2048, "\u0120derivative": 30666, "\u0120antic": 38189, "\u0120booth": 13939, "\u0120performs": 14023, "\u0120everyday": 7476, "=\"#": 49991, "ansion": 40787, "\u0120incur": 30163, "\u0120emperor": 36179, "\u0120international": 758, "\u00e2\u0139": 48555, "\u0120Dare": 33974, "byter": 46351, "pill": 39437, "\u0120Analyst": 9821, "ibles": 13352, "\u0120216": 26196, "Chair": 31602, "\u0120stacks": 32201, "\u0120stew": 24571, "\u0120ir": 10209, "iving": 9404, "\u0120Neighborhood": 23579, "\u0120TOM": 36629, "\u0120hepatitis": 24426, "\u0120precon": 40218, "\u0120Bronze": 27897, "\u0120restraining": 17817, "olves": 34190, "\u0120blames": 23079, "\u0120defaults": 31896, "\u0120ranged": 20047, "\u0120euph": 30882, "\u0120heav": 42287, "\u0120rockets": 19367, "\u0120wards": 24725, "OUN": 30696, "\u0120FP": 26046, "\u0120relied": 12767, "uana": 30585, "\u0120LINE": 33654, "\u0120nod": 12029, "\u0120AFTER": 29856, "\u0120kilometers": 8130, "\u0120Helena": 25239, "\u0120Rodrig": 34238, "\u0120skelet": 49498, "\u0120begg": 39882, "\u0120Authent": 41808, "\u0120ju": 14974, "iger": 10168, "\u0120critiques": 40234, "\u0120xp": 49288, "\u0120boycott": 13978, "arak": 23749, "cule": 38884, "\u0120wavelength": 43165, "\u0120Cab": 8434, "\u0120abst": 22182, "illo": 6491, "\u0120Boll": 24444, "cons": 10998, "\u0120marketing": 2474, "Analy": 41640, "zeb": 31912, "\u0120unwillingness": 36903, "ega": 22720, "ahead": 16905, "\u0120Lev": 15510, "\u0120--------": 45177, "\u0120calcium": 28221, "\u0120Nay": 24742, "\u0120Purpose": 33482, "alys": 38711, "\u0120printf": 49558, "hement": 47364, "ammers": 25690, "\u0120Shal": 25400, "\u0120Chung": 20204, "\u0120rife": 27921, "\u0120classy": 30228, "DERR": 49809, "\u0120Being": 8374, "Adams": 36288, "\u0120'/": 48817, "\u0120Vill": 7296, "\u0120benchmark": 5437, "\u0120listening": 6288, "itage": 37061, "\u0120Plymouth": 22524, "orsi": 45318, "liness": 24060, "idel": 22088, "\u0120scaled": 20819, "\u0120readings": 16569, "Thom": 33050, "\u0120IPCC": 41206, "\u0120concrete": 6369, "\u0120Koran": 42244, "\u0120Pain": 23689, "reaching": 23504, "\u0120Amir": 20929, "\u0120grotesque": 39725, "\u0120\u00ef\u00bf\u00bd": 44763, "\u0120Dagger": 46834, "ensing": 21591, "\u0120inspection": 9472, "\u0120democratically": 35595, "\u0120Insight": 28209, "\u0120foss": 48063, "\u0120paras": 39944, "\u0120Farms": 18333, "\u0120Bulg": 45201, "hers": 10705, "\u0120Review": 5872, "\u01201991": 9633, "ainers": 41912, "\u0120honored": 7809, "Fig": 44105, "acs": 21703, "inth": 35744, "actionDate": 50176, "niper": 48331, "\u0120majority": 1647, "\u0120grenades": 31384, "\u0120Jorge": 15580, "\u0120Paige": 22170, "\u0120Arthur": 9411, "\u0120diarr": 38982, "\u0120Black": 1378, "leasing": 39149, "\u0120Ball": 4125, "\u0120reservation": 17246, "\u0120Predict": 38192, "aq": 18611, "\u0120queues": 29803, "\u0120EU": 1281, "\u0120tending": 36528, "\u0120thing": 631, "\u0120sprawling": 16322, "CLASSIFIED": 49887, "\u0120Bre": 5811, "ickey": 23988, "\u0120constituent": 31350, "\u0120fri": 40404, "\u0120aiming": 9998, "\u0120lif": 14241, "\u0120onset": 23808, "\u0120cloak": 40725, "\u0120surpr": 47149, "\u0120viable": 10676, "foundation": 36282, "\u0120glance": 18969, "\u0120Kaw": 13694, "Palestinian": 28875, "Null": 49302, "\u0120curator": 24862, "\u0120hor": 17211, "\u0120Broad": 8397, "\u0120insulated": 36027, "encies": 14768, "\u0120unfor": 34262, "\u0120arbit": 21552, "\u0120mechanical": 12418, "\u0120psy": 43114, "Layer": 48159, "\u0120grap": 47660, "\u0120Refugee": 26962, "\u0120Koch": 14296, "arna": 25573, "\u0120Green": 1628, "ifty": 22129, "NER": 20196, "\u0120conservatives": 9930, "\u0120ancient": 8178, "\u0120practition": 50009, "\u0120internship": 27652, "hours": 21719, "\u0120Cena": 21143, "knit": 29008, "\u0120compelling": 9669, "bsite": 46462, "legate": 35976, "\u0120wondered": 12267, "\u0120NEED": 32500, "\u0120\u00eb": 47672, "\u0120-------": 48364, "\u0120Lump": 45476, "\u0120Investig": 34850, "\u0120Anchorage": 24705, "\u0120Specifically": 19282, "\u0120ethical": 13557, "oct": 32643, "\u0120Sergio": 11682, "enny": 11867, "\u0120opinion": 2979, "\u0120\u00c2\u00a3": 984, "ijk": 18474, "\u0120patio": 20835, "\u0120shout": 18066, "\u0120guiIcon": 50167, "\u0120risk": 810, "Neigh": 43942, "essional": 38418, "\u0120Eisenhower": 31037, "\u0120Pi": 13513, "\u0120plate": 5299, "\u0120immun": 13998, "\u0120Rooney": 14769, "\u0120SB": 13944, "\u0120cellul": 37582, "\u0120Database": 37875, "\u0120Coinbase": 32544, "\u0120padd": 21775, "mares": 47763, "\u0120GOLD": 31986, "\u0120opted": 8565, "\u0120jets": 10622, "Wild": 30909, "\u0120citation": 31825, "\u0120Crimes": 21203, "\u0120critique": 27136, "\u0120circumvent": 29487, "\u0120Bah\u00c3\u00a1": 48970, "Translation": 48940, "Trade": 35996, "\u0120Protective": 34278, "\u0120compatibility": 29988, "\u0120Dominic": 14036, "\u0120goofy": 36302, "\u0120misinterpret": 36939, "\u00e0": 12798, "\u0120corrid": 48649, "\u0120diamonds": 21019, "\u0120culture": 2040, "\u0120patrol": 8691, "Published": 29642, "\u0120gifts": 7420, "yles": 35517, "\u0120contracting": 20933, "\u0120guarded": 25853, "\u0120Prepare": 35715, "ieves": 30381, "\u00e3\u0124\u0134": 48423, "wart": 21660, "\u0120screaming": 11347, "\u0120said": 26, "Ready": 38458, "\u0120dru": 29695, "\u0120SAT": 22818, "metal": 32961, "\u0120flares": 34968, "\u00cf\u0123": 47630, "\u0120Dungeon": 46611, "\u0120math": 10638, "\u0120===": 47408, "\u0120unknow": 36756, "\u0120Nu": 12907, "\u0120dominates": 28028, "\u0120sub": 2849, "eely": 22066, "\u0120Hyper": 22296, "hak": 28832, "\u0120aft": 41268, "\u0120Tickets": 6438, "\u0120Fire": 1833, "\u0120gem": 15538, "uca": 26802, "\u0120repression": 29071, "\u0120shortage": 8078, "God": 15724, "Bec": 41094, "Twe": 45659, "\u0120Roe": 21503, "\u0120Chad": 7999, "\u0120alternate": 14417, "\u0120bush": 18080, "\u0120Sebastian": 11740, "\u0120Isaiah": 16473, "\u0120bump": 8792, "\u0120Ibn": 43609, "\u0120Agg": 14644, "\u0120hind": 16175, "\u0120inund": 23205, "\u0120imitate": 41379, "\u0120Planet": 14839, "\u0120Farmer": 20746, "ufficient": 43022, "\u0120Albert": 8098, "\u0120snowball": 35481, "Mobile": 12271, "\u0120gastrointestinal": 36805, "\u0120mods": 44925, "\u0120And": 178, "IRT": 40835, "pei": 24309, "\u0120competing": 5468, "lees": 35379, "\u0120Linear": 45085, "orious": 31221, "\u0120catalyst": 17069, "Anth": 48511, "\u0120570": 22599, "cano": 38754, "\u0120filtered": 33459, "allo": 24061, "\u0120Proto": 45914, "\u0120Simpsons": 36942, "\u0120Championships": 8641, "Hen": 39975, "\u0120scoring": 2314, "\u0120Edit": 39391, "ERA": 32830, "Nintendo": 44689, "footed": 26620, "ivering": 30579, "\u011c": 50136, "\u0120Reality": 21479, "\u0120heavily": 4008, "\u0120nationally": 9852, "\u0120Gary": 4587, "\u0120divisions": 9696, "iao": 17530, "\u0120Fisheries": 25140, "\u0120Payton": 21935, "\u0120outage": 17435, "\u0120Sidney": 19013, "\u0120Hop": 13583, "\u0120alloc": 42793, "members": 23742, "\u0120hallway": 22097, "armed": 17651, "\u0120observational": 41398, "\u0120Documents": 32682, "\u0120scourge": 32599, "\u0120marrying": 27372, "\u0120ke": 7321, "\u0120Slightly": 43533, "\u0120blu": 42034, "olving": 21241, "bull": 17559, "\u0120Buc": 13186, "iba": 15577, "\u0120Vault": 36773, "):": 3256, "\u0120burgers": 22551, "youtu": 45066, "\u0120slot": 8534, "\u0120Forge": 35254, "\u0120regulators": 5904, "\u0120She": 264, "\u0120Guan": 36775, "\u0120successes": 15185, "\u0120filters": 19214, "\u0120hop": 13591, "\u0120Rept": 46245, "adder": 41027, "querque": 48973, "\u0120Homeless": 25900, "\u0120organisms": 28340, "uart": 41962, "\u0120Irish": 3445, "\u0120Indigenous": 9237, "\u0120Ogre": 48810, "\u0120proactive": 16300, "\u0120promises": 5343, "ling": 1527, "\u0120ly": 37653, "unders": 33152, "\u0120Ny": 8606, "\u0120relationships": 4158, "eden": 23714, "\u0120ensued": 25825, "\u0120banners": 22058, "\u0120prophecy": 40417, "\u0120Unlike": 8280, "\u0120priced": 7663, "Tonight": 30516, "\u0120wont": 40067, "\u0120porch": 20609, "\u0120aiding": 26616, "\u0120504": 37311, "\u0120Royals": 11530, "\u0120referendum": 5047, "\u0120years": 107, "\u0120Socrates": 45685, "uminium": 41325, "\u0120ace": 9837, "\u0120kit": 10549, "\u0120Watson": 5399, "\u0120TL": 27017, "\u00e4\u00b8\u012b": 49442, ">)": 49798, "aires": 25082, "\u0120tagging": 34694, "\u0120lockdown": 23076, "\u0120adren": 42761, "\u0120great": 372, "\u00e2\u0122\u0136": 578, "\u0120offsets": 41471, "\u0120GHC": 46635, "\u0120Messenger": 21439, "\u0120spawns": 47575, "\u0120Ud": 23917, "\u0120gauge": 12567, "\u0120robbery": 6279, "hit": 9591, "\u0120MVP": 9133, "\u0120equilibrium": 39342, "\u0120congreg": 22880, "\u0120dreamed": 21990, "eye": 20668, "\u0120envelop": 26526, "\u0120Conserv": 24031, "oway": 20574, "NFL": 12048, "\u0120jur": 18603, "Understanding": 44188, "fur": 25937, "meal": 32218, "\u0120intersections": 28952, "\u0120petrol": 12309, "Mah": 28681, "\u0120237": 34288, "\u0120Artifact": 48150, "\u0120mil": 9209, "eeks": 30384, "\u0120persists": 31284, "\u0120Squid": 45350, "\u0120consensual": 26798, "xxxxxxxx": 42523, "ATTLE": 26816, "\u0120partner": 1784, "\u0120\u00c3\u0138": 30492, "Bug": 46379, "\u0120minor": 3694, "\u0120stability": 5443, "\u0120elevation": 25361, "\u0120Ecology": 35398, "\u0120enz": 46538, "esthetic": 38248, "\u0120oxidation": 45187, "\u0120mobile": 1830, "\u0120ordered": 2740, "Walker": 41388, "\u0120tropes": 40554, "\u0120depiction": 31388, "ersed": 40444, "\u00e3\u0125\u012d": 49464, "\u0120CSV": 47896, "\u0120Claire": 10399, "\u0120Vegan": 39506, "\u0120Consumption": 24559, "%%%%": 50037, "Land": 26902, "etheus": 48208, "\u0120ironic": 25553, "\u0120Rena": 46302, "\u0120staunch": 22435, "\u0120torch": 24732, "\u0120Nora": 31801, "sb": 37844, "\u00bb": 2023, "rosc": 39655, "\u0120antioxidants": 36869, "\u0120Borderlands": 47205, "\u0120keyboard": 12722, "\u0120swaps": 24927, "\u0120Elemental": 47801, "\u0120realizes": 26558, "\u0120Ward": 5986, "\u0120Tracks": 41902, "\u0120Sebast": 32905, "oto": 7087, "\u0120IoT": 13044, "\u0120Group": 826, "\u0120Travels": 44167, "\u0120neut": 28979, "\u0120Siberian": 39937, "\u0120We": 166, "urized": 41003, "ink": 4291, "\u0120hack": 14157, "axy": 39656, "cipl": 40146, "\u0120[&": 49609, "raught": 46509, "pex": 25981, "\u0120mandate": 7184, "\u0120TED": 32690, "\u0120technique": 9205, "\u0120LED": 10918, "\u0120Jobs": 13499, "\u0120quarterback": 2525, "\u0120unusual": 5425, "\u0120origin": 9813, "\u0120nineteenth": 43228, "\u0120box": 2233, "\u0120Klein": 13730, "\u0120rejoice": 38818, "\u0120commodity": 8497, "\u0120Gaal": 37805, "\u0120ze": 20025, "Known": 47186, "\u0120variation": 21875, "\u0120Vengeance": 46612, "++++++++": 49557, "\u0120Regulation": 18912, "\u0120\u00e2\u0135\u013a": 50056, "\u0120unintentionally": 38691, "\u0120traders": 5539, "Independent": 41900, "\u0120Lair": 36280, "\u0120heap": 31348, "\u0120];": 49358, "\u0120Fres": 32780, "\u0120depth": 5581, "\u0120lava": 19622, "\u0120indisc": 43046, "\u0120Eston": 34518, "\u0120unprepared": 35578, "\u0120grow": 1733, "\u0120Vikings": 7839, "\u0120molten": 40561, "\u00e3\u0123\u00a3": 48676, "\u0120anticipated": 5291, "ulated": 12944, "\u0120RCMP": 10376, "uish": 46522, "\u0120stabil": 12964, "urate": 23412, "\u0120flyer": 34175, "\u0120Theft": 27788, "\u0120temperament": 33419, "\u0120marital": 30615, "blogspot": 41057, "\u0120Sheriff": 2795, "iva": 7222, "ikh": 18439, "issors": 45937, "\u00d2": 48561, "\u0120Coc": 23344, "know": 27066, "\u0120versatility": 23193, "\u0120bulls": 21865, "\u0120typed": 39990, "\u0120Magic": 9098, "ivalry": 43823, "\u0120adventurous": 28339, "\u0120vagina": 32461, "iman": 13101, "\u0120transforming": 17828, "\u01202016": 336, "\u0120storylines": 29984, "aques": 32441, "\u0120shoes": 5582, "\u0120Write": 21062, "\u0120RandomRedditor": 50197, "\u0120rewritten": 4599, "ple": 8293, "\u0120traps": 25583, "nikov": 32371, "\u0120gadget": 29580, "\u0120Sop": 31403, "\u0120My": 1308, "\u0120shaped": 14216, "\u0120Rough": 18860, "\u0120Pun": 14687, "\u0120Seraph": 45389, "\u0120Wesley": 16401, "\u0120Song": 10264, "2001": 33185, "ophe": 32232, "\u0120scratched": 25807, "Website": 47464, "\u0120leve": 16066, "\u0120ris": 21166, "Rest": 31921, "\u0120aunt": 15845, "dden": 39893, "\u0120elect": 10371, "ongh": 41860, "\u0120(%)": 32965, "\u0120Prosecutors": 7924, "birth": 33272, "\u0120circadian": 43079, "emaker": 18362, "\u0120Detection": 38091, "\u0120Full": 6583, "\u0120alive": 4299, "\u0120collar": 19008, "\u0120Panic": 40493, "\u0120blanket": 14165, "\u0120Recep": 23977, "\u00e3\u0124\u00bc\u00e3\u0124\u00a6\u00e3\u0124\u00b9": 50242, "\u0120gn": 31021, "\u0120Wolver": 17100, "\u0120Venezuelan": 14112, "\u0120Tokens": 47121, "\u0120hottest": 14611, "\u0120meta": 32820, "\u0120paramilitary": 28841, "nexpected": 42537, "\u0120vying": 19852, "\u0120cher": 30379, "\u0120Bees": 35589, "\u0120alcohol": 3766, "angling": 26325, "\u00c3\u00a9e": 9703, "\u0120nearer": 38044, "\u0120Finals": 10673, "\u0120withdrawing": 20049, "\u0120infographic": 42745, "\u0120Paramount": 22299, "cer": 7742, "\u0120Kraken": 46057, "nit": 39290, "\u0120plant": 2195, "\u0120Standing": 15125, "\u0120FAM": 32113, "\u0120Anthrop": 42725, "riz": 21645, "\u0120occupy": 20189, "oxin": 42194, "\u0120Sphere": 45644, "\u0120swallowing": 38548, "grade": 8425, "\u0120unwanted": 15067, "\u0120disg": 47211, "\u00e3\u0122\u0123": 47341, "\u0120CLASS": 33575, "\u0120Clin": 35998, "\u0120facility": 2122, "emale": 49307, "\u0120friendship": 9330, "\u0120locker": 8925, "\u0120Wed": 9373, "\u0120rename": 38453, "different": 37251, "\u0120proport": 49438, "\u0120attendance": 6856, "\u0120overwrite": 48605, "\u0120Mutant": 45184, "\u0120loophole": 30640, "\u0120Samar": 17882, "\u0120impossibility": 44778, "\u0120hunt": 8131, "\u0120Hassan": 11551, "\u0120Gifts": 39407, "\u0120onlook": 27945, "\u00e3\u0125\u0135": 49622, "\u0120Levant": 31500, "\u0120Rwanda": 16684, "\u0120inflic": 44616, "\u0120justified": 14267, "\u0120Fantastic": 29655, "\u0120Haunted": 41209, "\u0120mechanics": 20234, "\u0120Vader": 38154, "Words": 38257, "\u0120boots": 10317, "\u0120Joan": 14557, "\u0120publish": 10732, "\u0120simulator": 35191, "Yep": 46236, "\u0120estate": 2587, "\u00e5\u012a": 47166, "\u0120Marlins": 13107, "\u0120expenditure": 12187, "amaz": 26732, "\u0120subsequ": 49734, "\u0120testifying": 29029, "reddit": 48724, "sites": 18791, "\u0120Prosecut": 39039, "\u0120Weld": 30410, "ctory": 45271, "neath": 43778, "\u0120Nec": 35637, "\u0120somewhere": 6152, "\u0120yes": 4420, "\u0120sarcast": 42706, "inese": 33965, "\u0120wonder": 5170, "\u0120php": 46817, "\u0120accredited": 25797, "\u0120Elim": 28175, "\u0120camouflage": 32124, ")?": 26610, "Brook": 37211, "\u0120Provided": 33108, "Compan": 49028, "People": 4763, "hol": 9649, "\u0120Je": 9925, "urring": 16715, "\u0120waning": 28745, "\u0120(),": 49038, "\u0120Ra": 4833, "\u0120greedy": 34405, "iron": 11680, "\u0120Fallen": 36199, "EVA": 33207, "\u0120Deadline": 22399, "icated": 5554, "Characters": 49282, "\u0120divorce": 7402, "\u0120checkpoints": 26191, "Israel": 20517, "\u0120atmosphere": 5466, "afort": 46531, ".]": 21838, "\u0120Manufacturer": 40735, "Working": 33105, "\u0120graphs": 36386, "\u00e3\u0124\u00b5": 49568, "\u0120municip": 40492, "\u0120intricate": 25210, "\u0120Creek": 5099, "\u0120condensed": 35501, "\u0120Sometimes": 7411, "ardless": 44543, "Lead": 32258, "inho": 13265, "\u00d7\u00a9": 48352, "emer": 17615, "razy": 36616, "\u0120Lun": 25632, "\u0120Angle": 30098, "\u0120Avatar": 41246, "\u0120extortion": 24582, "\u0120ta": 6735, "\u0120referencing": 24595, "\u0120insulting": 22602, "rentice": 38388, "Manchester": 20983, "Il": 13693, "\u0120reconsider": 16409, "\u0120sorcery": 47262, "\u0120Adventures": 31107, "aughty": 42942, "\u0120Elven": 49259, "Nich": 41784, "\u0120remainder": 11059, "\u0120adopt": 7581, "\u0120whoever": 14051, "brew": 30975, "\u0120wallet": 14952, "\u0120Points": 19378, "\u0120unrest": 12254, "bard": 34987, "Mexico": 15780, "\u0120FIA": 26823, "\u0120issu": 23265, "\u0120defy": 29160, "\u0120Association": 1544, "\u0120transmit": 25556, "\u0120PER": 18578, "\u0120Burke": 12032, "\u0120Needless": 30575, "\u0120aspir": 17518, "\u0120interrogated": 37154, "\u0120many": 171, "\u0120repeats": 35315, "\u0120Hill": 1934, "adr": 27968, "\u0120University": 589, "\u0120cubic": 15768, "\u0120Shane": 10235, "\u00cf\u0126": 47264, "\u0120Angus": 18585, "\u0120Coke": 26108, "Europe": 27000, "\u0120affects": 8561, "\u0120defence": 2994, "\u0120backfield": 24924, "oat": 34827, "urable": 24517, "\u0120runes": 48622, "\u0120shop": 2792, "\u0120Angry": 32420, "\u0120scream": 22093, "\u0120Albuquerque": 23378, "\u0120Clive": 27536, "\u0120beautiful": 2721, "\u0120disinteg": 32654, "\u0120Washington": 663, "\u0120Moh": 8097, "\u0120aftermath": 9123, "\u0120makeshift": 20548, "\u0120agile": 28144, "\u0120rivalry": 13059, "zyk": 22133, "Changing": 44818, "\u0120Noble": 14068, "\u0120golden": 9030, "\u0120Chu": 26684, "ichael": 25554, "angan": 25750, "\u0120Wellington": 15991, "\u0120trim": 10723, "\u0120adrenaline": 29625, "\u0120Kop": 25791, "\u0120Halo": 33587, "scl": 48326, "ilda": 22561, "\u0120congratulated": 19412, "pac": 21091, "cos": 16254, "\u0120Shell": 10700, "\u0120Benz": 23214, "ndum": 39104, "\u0120discrim": 40846, "psons": 47267, "oi": 12467, "\u0120buying": 2159, "?:": 36538, "\u0120subreddit": 45757, "hovah": 49983, "\u00c2\u0142\u00c2\u0142\u00c2\u0142\u00c2\u0142": 50144, "Los": 24485, "\u0120Chronicle": 14486, "\u0120encour": 47841, "oxide": 24260, "boys": 22505, "reating": 26863, "\u0120prism": 42641, "\u0120Jail": 10509, "\u0120primates": 43134, "\u0120literally": 5909, "pron": 26404, "\u0120peaked": 21174, "\u01201700": 33236, "Critical": 47239, "keley": 42676, "\u0120subscribers": 8291, "\u0120composer": 17964, "\u0120Louise": 12886, "Tele": 41854, "\u0120intolerable": 41210, "\u0120Pats": 25381, "\u0120trilogy": 26105, "\u0120darling": 30213, "\u0120revisit": 23222, "aska": 22137, "\u0120thinner": 29284, "Tickets": 44338, "ifer": 14087, "\u0120begin": 1642, "\u0120Feeling": 30895, "Christian": 27077, "\u0120Bitcoin": 8518, "\u0120crowds": 8817, "\u0120NYPD": 20283, "fried": 21209, "Gaza": 45903, "\u0120planting": 15505, "directed": 25706, "\u0120levers": 37409, "itating": 22257, "\u0120midfielder": 5732, "\u0120Warlock": 47805, "\u0120van": 3538, "ese": 4468, "\u0120crossing": 6724, "\u0120documented": 12404, "numbered": 45017, "ida": 4347, "\u0120playoffs": 4673, "\u0120filesystem": 47989, "OY": 20664, "Oct": 19144, "\u0120auxiliary": 34590, "\u0120Considering": 17861, "\u0120reliant": 24729, "\u00d0\u00b0": 26161, "\u0120customization": 33436, "\u0120patrons": 16513, "\u0120Jimmy": 5905, "\u0120purchases": 5935, "\u0120theirs": 20343, "\u0120655": 43614, "\u0120combat": 5217, "\u0120Humph": 16788, "\u0120semantic": 46195, "ORS": 18347, "yna": 19577, "\u0120Salman": 8965, "ablishment": 47960, "\u0120outraged": 22339, "\u0120transfers": 12291, "\u0120Podcast": 21286, "\u0120Eucl": 36873, "\u0120Mish": 22975, "\u0120Appendix": 40643, "\u0120nut": 17145, "\u0120merits": 20273, "\u0120Converted": 48422, "\u00e5\u00b0\u0128": 49322, "\u0120cohesive": 33033, "\u0120bind": 23379, "\u0120buzz": 8775, "phrase": 40726, "uckles": 41149, "\u0120blush": 33556, "boats": 34015, "feet": 22023, "\u0120Spencer": 8153, "eled": 13587, "\u0120prank": 25828, "\u0120manufactured": 13918, "ivered": 35158, "\u0120endpoint": 34533, "\u0120professionalism": 23210, "\u0120vote": 900, "ghazi": 49050, "accessible": 43343, "pher": 28095, "\u00e3\u0122\u0130": 49844, "\u0120mortals": 45387, "\u0120slaughtered": 33190, "\u0120indexes": 15271, "\u0120Customs": 10465, "\u0120OMG": 43235, "\u0120consumers": 2360, "\u0120Three": 2873, "\u0120predicted": 6126, "\u0120Boone": 17598, "acements": 38545, "\u0120credibility": 10796, "assault": 31258, "agar": 12969, "venture": 33289, "\u0120millionaires": 36826, "\u0120invitations": 30790, "\u0120turbulence": 28742, "sectional": 46523, "borne": 17080, "\u0120oak": 25033, "\u0120Kle": 19361, "zb": 19831, "\u0120inhabited": 36308, "\u0120plastic": 4136, "\u0120criticized": 5888, "recomm": 43140, "uin": 39808, "oret": 13477, "\u0120Glover": 22009, "\u0120coefficients": 48550, "\u0120Crown": 5748, "\u0120psychiatrist": 27321, "\u0120Common": 9732, "\u0120pounded": 31101, "\u0120activists": 4826, "\u0120custom": 6777, "Hispanic": 44272, "Rh": 38067, "\u0120bot": 14084, "oslav": 39834, "\u0120deliber": 21614, "\u0120poisons": 45265, "Edit": 44337, "iana": 8878, "\u0120removing": 8201, "\u0120fish": 3539, "\u0120Ches": 12819, "\u0120RAW": 23112, "\u0120dissatisfaction": 31776, "\u0120destroying": 14340, "\u0120Marion": 15280, "\u0120convict": 25768, "\u0120Tobacco": 20246, "\u0120CDs": 32570, "wana": 19102, "Mayor": 36652, "Discuss": 48816, "\u0120weekly": 4114, "ubes": 39749, "\u0120Caleb": 18824, "\u0120crude": 2976, "\u0120Files": 36928, "Jer": 25786, "abbage": 44866, "\u0120Classification": 40509, "\u0120Father": 9510, "\u0120adventures": 18848, "\u0120Lent": 30774, "\u0120prospective": 12429, "\u0120benefits": 1795, "\u0120Falcons": 8213, "Previously": 45095, "\u0120unavoidable": 35074, "\u0120taxpayer": 11827, "\u0120locality": 36642, "\u0120Gained": 48564, "\u0120Sut": 29790, "\u0120energy": 1007, "\u0120jurors": 12588, "\u0120Dave": 4475, "\u0120homicide": 9627, "\u0120inex": 30685, "\u0120Lak": 25453, "\u0120bulletin": 31960, "Buy": 7598, "\u0120fame": 9444, "\u0120drums": 21072, "pheus": 45632, "\u0120Mah": 3634, "ayer": 19777, "\u0120somewhat": 5568, "\u0120Processor": 42974, "\u0120watered": 36408, "Woman": 41075, "\u0120Danny": 6937, "\u0120Silk": 26537, "\u0120strap": 26123, "\u0120Logo": 38732, "\u0120irrespective": 26670, "\u0120Britons": 24226, "\u0120considerably": 14299, "\u0120persuade": 15425, "\u0120EEG": 46023, "\u0120overw": 42674, "\u0120externalTo": 50164, "\u0120spearheaded": 23498, "\u0120Dozens": 17368, "\u0120Phill": 38865, "\u0120indisp": 46978, "\u0120Dag": 27934, "\u0120chosen": 4986, "\u0120railroad": 17958, "\u0120projections": 8979, "Moh": 29880, "\u0120heats": 28966, "\u0120signing": 3442, "\u00c3\u0125\u00c3\u0124\u00c3\u0125\u00c3\u0124": 50080, "\u01201994": 8148, "\u0120Byron": 16086, "\u0120Goldstein": 31856, "\u0120hey": 17232, "Americ": 46109, "phan": 36901, "\u0120Rew": 36791, "\u0120loudly": 24120, "\u0120Ble": 16463, "tale": 31029, "zinski": 33317, "\u0120sensit": 28195, "\u0120Awareness": 23127, "\u0120pot": 4728, "\u0120Cornel": 33053, "\u0120county": 2109, "\u0120Boxing": 14408, "igrants": 24280, "Just": 6785, "\u0120aggregation": 40796, "\u0120Osc": 47010, "\u013b": 27, "above": 23444, "\u0120ko": 12546, "Danny": 36525, "\u0120Por": 7879, "\u0120app": 1553, "gements": 41330, "\u0120Amp": 39085, "\u0120tubes": 25587, "\u0120processed": 12069, "\u0120Ell": 8961, "\u0120sofa": 26711, "\u0120Her": 1405, "\u0120ASS": 20860, "cemic": 45582, "ada": 2095, "ook": 6576, "\u0120Bowie": 19597, "\u0120exhausting": 29583, "\u0120cow": 12094, "parents": 34846, "\u0120Radius": 46242, "\u0120defend": 4538, "\u0120Quint": 17404, "\u0120holy": 15410, "\u00e6\u00b0": 48570, "obal": 37005, "\u0120halted": 12856, "\u0120Admir": 39206, "\u0120Company": 1260, "\u0120Ashton": 20733, "\u0120WAS": 26817, "\u0120214": 27003, "\u01201080": 21083, "\u0120theoretical": 26534, "\u0120Brittany": 20298, "\u0120Production": 9850, "\u0120boys": 2786, "hetics": 34680, "ansen": 21205, "thinkable": 47250, "orpor": 36370, "ipal": 32483, "\u0120Agu": 11648, "ingu": 35308, "radio": 35248, "\u0120Solutions": 7874, "\u0120woes": 14432, "\u0120hitting": 3022, "\u0120logic": 14578, "endered": 36318, "\u0120Miller": 2947, "Brave": 46045, "WR": 19839, "\u0120overcoming": 23968, "\u00c5": 1277, "\u0120Charge": 23124, "\u0120illustration": 21276, "\u0120Fate": 31719, "\u0120Alberta": 6055, "\u0120shielded": 33855, "\u0120Ash": 4653, "\u0120leg": 2985, "\u0120Manafort": 8496, "\u0120Kik": 35538, "\u0120Reneg": 38901, "\u0120fermented": 39903, "iology": 17129, "\u0120picture": 2170, "/-": 40398, "\u0120Icelandic": 36539, "\u0120rookie": 4534, "owner": 14527, "packs": 26867, "\u0120Boots": 27221, "\u0120Judging": 34938, "\u0120DG": 25497, "\u0120semblance": 39078, "Balance": 47537, "\u0120bidder": 24034, "\u0120CR": 4307, "\u0120Rusty": 37369, "\u0120lieutenant": 20362, "Dick": 41332, "\u0120Degree": 27631, "\u0120dolphin": 38780, "\u0120Turbo": 30026, "\u0120coolest": 30150, "\u0120enjoyable": 18260, "\u0120Bil": 11611, "\u0120Labs": 20404, "\u0120operate": 4303, "olor": 37194, "\u0120scandal": 4220, "imeter": 28266, "\u0120Weir": 22341, "\u0120harrowing": 26757, "\u0120Survey": 11624, "\u0120aforementioned": 15785, "kB": 47383, "\u0120smoker": 40345, "\u0120ES": 18366, "\u0120dots": 26221, "\u0120remembrance": 30611, "MAR": 36659, "\u0120WT": 19529, "\u0120Pole": 24710, "\u0120Steve": 2206, "\u0120armor": 29828, "\u0120violated": 8245, "\u0120installs": 41153, "\u0120413": 39898, "\u0120Witnesses": 18036, "\u0120Next": 4130, "\u0120Xeon": 44481, "\u00e5\u0127\u012b": 49500, "Nut": 43977, "istries": 28463, "\u0120RW": 34573, "role": 35080, "\u0120shelters": 11169, "\u0120puzz": 47037, "Mine": 38540, "\u0120usher": 24023, "\u0120shipping": 6738, "\u0120(&": 47659, "\u0120finer": 37075, "\u0120events": 1061, "\u0120THEY": 36698, "rypted": 47333, "\u0120bowl": 5749, "\u0120intraven": 38553, "\u0120basics": 17293, "\u0120rates": 1162, "\u0120Uttar": 15161, "ISC": 32953, "sword": 47949, "\u0120preferential": 33343, "\u0120withdrawals": 27733, "\u0120hepat": 47323, "\u0120neuronal": 46282, "ring": 4506, "\u0120mature": 11374, "\u0120mattress": 24866, "\u0120Table": 9513, "\u0120Mer": 4213, "artments": 27101, "\u0120recommend": 5940, "\u0120dad": 4252, "\u0120Given": 6211, "\u0120Armen": 31213, "\u0120dominance": 12532, "\u0120Spiel": 30184, "eners": 31469, "\u0120Bear": 9784, "\u0120apologies": 27620, "\u0120Afric": 44285, "\u0120textile": 21664, "aki": 7387, "\u0120lvl": 49626, "\u0120Sora": 46906, "\u0120idea": 1114, "\u0120Programme": 14990, "\u0120spans": 23645, "unci": 19856, "\u0120understands": 8832, "sure": 41404, "\u0120Unreal": 43697, "\u0120geek": 36251, "\u00d9\u012c": 26174, "\u0120Mysteries": 45614, "\u0120tariff": 11091, "\u0120depreciation": 15910, "\u00c3\u0124": 2537, "\u0120Pv": 11446, "\u0120books": 2799, "\u0120Cultural": 15309, "\u0120Shining": 41397, "Demand": 40050, "\u0120uber": 38995, "drops": 40377, "undred": 38750, "\u0120Ker": 9508, "\u0120Guild": 17813, "UGH": 38389, "registered": 24580, "\u0120eccentric": 29555, "\u0120mug": 20148, "\u0120memes": 26995, "\u0120inhal": 28715, "\u0120Meter": 35616, "\u0120posed": 7444, "\u0120exposing": 17902, "\u0120strategic": 3461, "Usually": 35808, "Jr": 40774, "\u0120everything": 960, "\u0120arm": 3124, "\u0120hopeless": 24418, "\u0120punish": 15392, "\u0120bypass": 15037, "amine": 19565, "\u0120Hispanics": 33247, "porary": 42023, "maid": 16355, "vernight": 28370, "\u0120formulations": 40759, "\u0120eluc": 44961, "\u0120manage": 3616, "OPLE": 48032, "\u0120fax": 30561, "\u0120referee": 9585, "AU": 22983, "\u0120protocol": 11883, "verbs": 44713, "\u0120Flint": 13740, "van": 9965, "ighton": 20684, "ims": 13776, "xx": 29061, "\u00e7\u00b7": 49458, "\u0120eliminates": 28458, "\u0120hither": 48586, "dale": 5610, "\u0120Public": 1909, "\u0120observes": 34649, "\u0120throws": 6989, "\u0120frightening": 21111, "carry": 31123, "\u0120Different": 22248, "\u0120Chaos": 38122, "donald": 24139, "Gallery": 46610, "wagon": 45199, "\u0120economics": 10492, "\u0120exceedingly": 36167, "\u0120RM": 16124, "\u0120Racial": 41363, "\u0120iss": 46682, "\u0120welding": 33707, "\u0120lift": 5258, "\u00c2\u00b4": 9900, "compan": 39788, "isitions": 38345, "spawn": 48197, "\u0120gloves": 14341, "\u0120daylight": 20335, "\u0120origins": 18863, "\u0120NR": 17731, "\u0120sins": 29469, "\u0120Predators": 18445, "\u0120creeping": 31250, "\u0120contributed": 3162, "\u0120sheets": 12208, "quiet": 35750, "\u0120regime": 4304, "haul": 23424, "Pope": 36017, "errilla": 46148, "\u0120accelerating": 17604, "pection": 46497, "aches": 11322, "\u0120raging": 23333, "\u0120odor": 27794, "\u0120pyramid": 33344, "\u0120BY": 10786, "\u0120DRM": 45425, "\u0120mistake": 5021, "\u0120Stuart": 10125, "Pear": 42933, "\u0120wrestle": 27881, "medical": 30885, "\u0120Sega": 43561, "\u0120whistleblower": 27492, "\u0120LV": 38669, "\u0120divid": 45596, "();": 47006, "oven": 23733, "\u0120occupies": 32559, "\u0120reinstated": 22454, "\u0120political": 559, "\u0120relax": 12327, "+++": 48845, "\u00e3\u0125\u0137": 49470, "oux": 20545, "\u0120Colorado": 3004, "\u0120executes": 44076, "\u0120untreated": 30946, "\u0120hungry": 11130, "\u0120square": 3925, "uminum": 46261, "ooming": 40666, "\u0120takedown": 31517, "Ga": 32675, "\u0101": 50109, "alore": 45013, "\u0120beneficial": 10142, "well": 3056, "traumatic": 30865, "\u0120unions": 7811, "\u0120misguided": 27422, "\u0120Finger": 30852, "\u0120builds": 12095, "\u0120CBD": 15715, "\u0120Prep": 13915, "\u0120Brig": 17443, "\u0120soak": 27685, "\u0120available": 577, "\u0120Authors": 40090, "aya": 5210, "\u0120ALE": 38772, "\u0120deepen": 23176, "\u0120integrate": 13997, "\u0120thinks": 4265, "\u0120:-)": 48433, "\u0120euro": 2287, "\u0120temporarily": 8059, "CHQ": 43645, "\u0120speculate": 20947, "\u0120Azerb": 49249, "\u0120fuckin": 46922, "\u0120representations": 30464, "follow": 28481, "\u0120Antarctic": 31769, "\u0120Substance": 37506, "\u0120Lives": 13409, "ressing": 9828, "\u0120Jesse": 10716, "\u0120\u00f0\u0141\u013b\u0124": 45868, "\u0120uproar": 27453, "\u0120organise": 23750, "\u0120requisite": 30665, "arl": 11278, "\u0120unob": 40713, "\u0120manifold": 43030, "\u0120Incredible": 36665, "tains": 30759, "Spons": 43753, "\u0120Truman": 31117, "\u00e3\u0125\u012f": 49673, "edient": 47293, "\u0120blinded": 40094, "\u0120solitary": 24429, "\u0120swept": 8473, "\u0120SAR": 34565, "\u0120flourishing": 34508, "\u0120enlarg": 40754, "\u0120biotech": 22803, "\u0120reduction": 4878, "\u0120overloaded": 40894, "\u0120Frozen": 29372, "\u0120kg": 14091, "\u0120wall": 2204, "\u0120utility": 6041, "\u0120Gomez": 11507, "oubted": 45742, "\u0120boxes": 7644, "\u0120Ree": 25459, "\u0120Prior": 7987, "izza": 35280, "\u0120employer": 8850, "\u0120Laboratories": 22672, "\u0120barking": 35828, "\u0120HOT": 33466, "\u0120Array": 42719, "\u0120Woody": 23561, "\u0120\u00c3\u012b": 24986, "\u0120telescopes": 35623, "\u0120Swordsman": 49610, "\u0120il": 7675, "\u0120discuss": 2268, "\u0120rash": 21563, "Ham": 30907, "\u00b5": 8906, "\u0120Clippers": 12190, "igrated": 28844, "\u0120nylon": 38874, "\u0120Shannon": 12682, "\u0120tresp": 26474, "\u0120seiz": 46870, "\u0120Nak": 13806, "\u0120aboriginal": 41579, "\u0120Inside": 10277, "\u0120agreement": 1288, "\u0120entail": 31648, "\u0120Tempest": 44939, "\u0120indicators": 13038, "\u0120Diesel": 25056, "\u013c": 15113, "\u0120regarding": 2624, "\u0120Darrell": 25926, "\u0120Euro": 5122, "\u0120easing": 8673, "\u0120Carolina": 1961, "Traditional": 45461, "\u0120Wicked": 39098, "\u0120exhaustion": 30567, "\u0120Rosa": 14290, "\u0120cubes": 35788, "\u0120visionary": 27658, "Org": 46532, "\u0120orphans": 38479, "\u0120style": 2496, "\u0120charge": 1427, "Gy": 41532, "\u0120humid": 27280, "rien": 18364, "\u0120Super": 1582, "\u0120prophet": 35375, "zzle": 26216, "otes": 17467, "\u0120HOR": 37394, "\u0120accompanies": 38487, "\u0120tre": 6110, "\\'": 46495, "\u0120Microsoft": 3709, "\u0120\"+": 48615, "\u0120creating": 2351, "\u0120torrent": 23489, "\u0120comprising": 14096, "atorial": 26202, "\u0120Saras": 25084, "\u0120Marqu": 14803, "\u0120Gum": 32778, "\u0120inbox": 11106, "\u0120Beach": 2467, "\u0120surged": 11157, "ommel": 36164, "\u0120opium": 40895, "\u00e2\u0122\u00a6.\"": 46294, "Afee": 35491, "\u0120indict": 21907, "\u0120axis": 31799, "enzie": 15847, "\u0120confir": 48178, "\u0120canine": 29497, "\u0120Cald": 42059, "bourg": 26695, "enton": 14492, "Phoenix": 41932, "\u0120loyal": 8259, "\u00e3\u0124\u00b3": 49195, "\u0120population": 1956, "\u0120Senior": 3596, "\u00e4\u00b8\u012f": 48664, "\u0120Derrick": 17919, "\u0120multiplier": 42700, "\u0120bins": 23994, "\u0120Lack": 19723, "\u0120inadvert": 43245, "\u0120robbed": 13266, "\u0120postponed": 11908, "\u0120microscope": 32518, "Charles": 29217, "\u0120martyr": 26301, "\u0120mosques": 28245, "\u0120recommends": 10827, "\u0120liqu": 23321, "\u0120folks": 5450, "\u0120LAT": 21455, "\u0120gardening": 23230, "\u0120Pul": 13006, "\u0120drains": 30645, "\u0120pains": 19585, "\u0120cortisol": 42228, "ISA": 30483, "icating": 13659, "\u0120calculations": 11840, "acular": 28049, "\u0120innovation": 4695, "\u0120subsequently": 8960, "\u0120Includes": 37626, "\u0120Vancouver": 5071, "ournament": 37535, "\u0120Clyde": 27058, "\u0120wee": 29295, "OV": 13565, "\u0120APPLIC": 23780, "\u0120Elev": 32099, "ey": 2981, "\u0120Dumb": 37098, "\u0120hot": 2131, "\u0120Mau": 14147, "\u00e5\u00a5\u00b3": 49583, "\u0120Ingram": 17018, "\u0120journalists": 4225, "successfully": 46958, "\u0120competed": 12393, "\u0120hawk": 36722, "\u0120Virginia": 2240, "ramer": 28892, "\u0120adapters": 44449, "\u0120Respond": 16533, "anded": 13833, "\u0120Encyclopedia": 46118, "\u0120expired": 13729, "oro": 11104, "iii": 31917, "\u0120suspicious": 7775, "\u0120Popular": 17242, "\u0120Ford": 2493, "\u0120darkened": 38390, "\u0120nuanced": 29311, "\u0120resembling": 32947, "otechnology": 17634, "\u0120broader": 5153, "\u0120bricks": 23938, "\u00e3\u0124\u00b6": 49751, "\u0120Rights": 3941, "\u0120alliance": 6529, "\u00e3\u0125\u0129": 49729, "Pack": 31331, "\u0120LINK": 25838, "\u0120Likewise": 21371, "\").": 18653, "\u0120surviving": 14692, "\u0120inept": 35335, "\u0120Simulator": 45765, "\u0120FANTASY": 48215, "\u0120renown": 45098, "\u0120forming": 12748, "\u0120lodged": 15434, "\u0120masks": 17683, "bart": 38372, "\u0120Sett": 35082, "\u0120Clinton": 2235, "Minor": 47246, "\u0120sadd": 23330, "\u0120southwest": 10103, "\u0120Communists": 42695, "\u0120Institutes": 27260, "\u0120Oliv": 40885, "\u0120lonely": 20100, "Doug": 37036, "\u0120Adult": 20395, "\u0120Adjust": 29726, "\u0120ORIG": 38790, "anol": 38315, "wolves": 41459, "\u0120Straw": 37781, "\u0120Observatory": 16515, "\u0120wiped": 16492, "\u0120operational": 5903, "CEO": 24205, "\u0120colours": 13353, "\u0120blue": 2440, "ins": 1344, "aternity": 36156, "\u0120Weekend": 16520, "\u0120database": 8503, "\u0120shore": 8373, "\u0120amaz": 42402, "\u0120month": 353, "\u0120Vanguard": 12157, "\u0120informs": 22604, "\u0120Olympia": 27984, "\u0120Thur": 19731, "\u0120assessed": 11852, "\u00c2\u0142\u00c2\u0142": 50142, "SEE": 32739, "\u0120flattened": 34395, "\u0120vigilance": 35116, "\u0120Advisory": 11067, "\u0120ankle": 7451, "\u0120investigators": 3725, "dri": 42552, "\u0120agre": 48425, "\u0120jan": 10408, "layout": 48842, "\u0120fund": 1391, "\";": 25718, "1990": 29411, "\u0120Cells": 42920, "\u0120Hum": 11669, "stration": 35431, "\u0120cardinal": 32533, "\u0120Dartmouth": 30873, "ALLY": 32191, "\u0120zoo": 14188, "\u0120Android": 3208, "\u0120allies": 4181, "\u00e3\u0123\u0137": 49173, "\u0120scan": 14194, "\u0120bears": 10361, "\u0120Greene": 13900, "\u0120Yorkers": 24412, "\u0120coupling": 43437, "Oregon": 35287, "okia": 43946, "\u0120Tower": 7186, "ateurs": 30167, "UNCH": 25311, "\u0120commodities": 9990, "\u0120feminism": 28228, "\u0120coffers": 27342, "\u0120seminal": 36059, "\u0120laborers": 37735, "ogue": 10149, "\u0120combating": 26100, "Style": 31774, "\u0120XII": 43904, "\u0120traffic": 1703, "\u0120modeled": 28313, "\u0120Ancient": 34515, "\u0120Mei": 42273, "inky": 26749, "sofar": 48257, "\u0120legislator": 23351, "=[": 49310, "\u0120scenery": 26815, "\u0120Phil": 4720, "\u0120supplier": 9509, "\u0120Monsters": 37262, "\u0120Ng": 11562, "iveness": 12367, "\u0120sidew": 46605, "iOS": 45773, "\u00ec": 43998, "\u0120ft": 16935, "\u0120Design": 7438, "\u0120hinted": 13798, "\u0120jackets": 20200, "\u0120Subtle": 46289, "\u0120coach": 704, "\u0120clenched": 44646, "\u0120hiking": 15866, "\u0120Editing": 1772, "\u0120seat": 2418, "\u0120hubs": 22350, "\u0120Dion": 18030, "\u0120greet": 17395, "\u0120sheep": 14336, "\u0120Tooth": 42049, "legraph": 39156, "\u0120cumbers": 49939, "ernel": 48954, "Hal": 40306, "morrow": 48180, "\u0120Immunity": 46789, "\u0120eSports": 40329, "\u0120recoil": 44983, "roximately": 46401, "\u0120Choice": 14431, "\u0120Weekly": 7830, "cox": 23085, "\u0120plan": 563, "holm": 27967, "\u0120environments": 11534, "jection": 35892, "\u0120soph": 33405, "\u0120Flo": 32932, "\u0120frost": 18082, "rey": 5460, "\u0120sane": 37091, "\u01201944": 26447, "\u0120overlooked": 16042, "\u0120Marian": 19035, "\u0120Durant": 11023, "jriwal": 48057, "\u0120targeting": 5551, "\u0120jaws": 38332, "\u0120Kaepernick": 12542, "\u0120Sat": 8918, "\u0120acoustic": 21979, "\u01201966": 18069, "\u0120polished": 23520, "2003": 35153, "icrobial": 40467, "\u0120riff": 31457, "\u0120Transaction": 33652, "\u0120philosophers": 44267, "\u0120Ph": 4129, "\u0120ads": 5814, "emark": 37088, "\u0120Brigade": 24715, "\u0120racked": 20208, "ellation": 33924, "\u0120tornado": 17271, "\u0120Veter": 44696, "mol": 37145, "\u0120unequivocally": 33805, "\u0120bipartisan": 10094, "raged": 43481, "\u0120brake": 18507, "JUST": 43845, "\u0120SNAP": 27867, "\u0120Dominion": 21694, "\u0120layer": 10490, "\u0120Garry": 28333, "\u0120Adidas": 19891, "\u0120gamer": 36761, "\u0120elong": 38889, "Diamond": 43390, "\u0120Colomb": 42132, "\u0120RH": 27188, "\u0120Tess": 26876, "\u0120dictator": 18529, "itten": 15418, "\u0120cultivation": 23467, "\u0120steep": 8431, "\u0120intellig": 37806, "\u0120subscribed": 33339, "\u0120Pictures": 12290, "\u0120Oslo": 26067, "Represent": 28588, "\u0120Appropri": 39960, "pell": 26827, "mond": 8876, "\u0120arrays": 42156, "\u0120wives": 20035, "\u0120medical": 1131, "\u0120Clicker": 49277, "\u0120ICC": 14305, "\u0120Deity": 49052, "\u0120congress": 12442, "Kh": 30408, "\u0120incorporated": 14948, "\u0120glands": 42237, "\u0120mile": 7245, "\u0120penal": 14914, "\u0120Feather": 25989, "Anything": 32663, "\u0120muff": 30977, "\u0120genes": 14819, "sweet": 32588, "\u0120Newfoundland": 25751, "\u0120Mint": 20128, "\u0120unsupported": 30604, "myra": 38978, "\u0120Pom": 26263, "\u0120graceful": 38971, "\u0120Att": 7279, "\u0120exposure": 4895, "\u0120Brilliant": 39769, "\u0120SCHOOL": 32133, "aved": 12061, "\u0120welcoming": 10423, "otto": 15089, "\u0120Geh": 35452, "\u0120Chap": 19882, "nect": 45114, "\u0120Jenner": 10281, "ocumented": 45458, "\u0120Dres": 41619, "addle": 33151, "\u0120harmful": 11190, "adia": 20329, "\u0120phosphorus": 41095, "\u0120garage": 8247, "effic": 38641, "\u0120rhyth": 41063, "akespeare": 46214, "\u0120manipulation": 18110, "\u0120Fenrir": 49654, "\u0120endeavor": 25541, "\u0120Kru": 19262, "\u0120neighborhoods": 9100, "\u0120Size": 17736, "\u0120western": 4669, "\u0120nort": 32354, "\u0120Outer": 34450, "\u0120MET": 30782, "\u0120oxy": 31926, "\u0120curated": 23132, "\u0120Freem": 44360, "\u0120radius": 29943, "\u0120Abe": 8336, "\u0120Shares": 4078, "\u00c3\u00b0": 39398, "\u0120defining": 17032, "\u0120embr": 48406, "\u0120traumatic": 17292, "athing": 41778, "\u00e6\u0139": 47954, "\u0120Marks": 19793, "\u0120Hale": 20810, "ouver": 45624, "\u0120bathrooms": 18409, "RANT": 43893, "\u0120justify": 11071, "\u0120Marxism": 44760, "\u0120jet": 4900, "odore": 47648, "anton": 19425, "Blue": 17858, "ablished": 28477, "\u0120Whale": 34724, "\u0120Announce": 35345, "vertisements": 31396, "\u0120formulated": 34359, "\u0120Spark": 20255, "\u0120Guardiola": 11425, "abi": 10810, "\u0120hybrid": 9284, "\u0120Kit": 12797, "rehend": 48051, "founder": 7295, "\u0120Fun": 6283, "\u0120Mesa": 16850, "branded": 20417, "\u00e3\u0123\u0141": 48179, "\u0120Bit": 15547, "\u0120Godd": 47223, "\u0120PlayStation": 15592, "\u0120Hughes": 7799, "\u0120invention": 26101, "\u0120Jerry": 6509, "\u0120functions": 8047, "\u0120nominees": 11357, "\u0120heavier": 19351, "\u0120optional": 17679, "\u0120pirate": 34687, "chie": 17309, "\u0120Angeles": 1422, "\u0120unrecogn": 35152, "\u0120SCP": 47616, "\u0120puzzles": 31945, "\u0120dies": 8524, "\u0120repeatedly": 3987, "\u0120Cind": 44251, "ravel": 44134, "\u0120libertarians": 45162, "\u0120Appeals": 13248, "\u0120feet": 1730, "geon": 20989, "\u0120Scala": 44862, "Tech": 14396, "\u0120Jem": 26614, "\u0120motive": 12704, "magic": 40481, "\u0120informative": 29749, "\u0120Kill": 14212, "astically": 41936, "\u0120severe": 3814, "\"/>": 49784, "fif": 41830, "\u0120chast": 32713, "\u0120IDs": 35172, "\u0120steadfast": 25781, "\u0120Armstrong": 11406, "\u0120cultiv": 38175, "\u0120politely": 33615, "sci": 43428, "\u0120hypert": 46683, "\u0120sustained": 5232, "\u0120guidance": 3824, "\u0120facial": 11560, "\u0120uneasy": 29569, "\u0120Telescope": 34152, "\u0120Coconut": 36162, "\u0120Funds": 17114, "\u0120marvelous": 40609, "\u0120curv": 42294, "\u0120ambassadors": 22440, "chu": 39037, "\u0120pr": 3349, "\u0120snippet": 42772, "\u0120depart": 18770, "\u0120backup": 8010, "\u0120individually": 15529, "creation": 39025, "\u00e6\u00b5": 48818, "\u0120critics": 4853, "mpire": 18883, "otech": 28315, "\u0120nonexistent": 38854, "\u0120pard": 25427, "\u0120longitudinal": 45045, "\u0120Alison": 15284, "\u0120Eco": 22594, "\u0120entrusted": 29168, "\u0120Oliver": 7730, "\u0120few": 367, "\u0120Albion": 19032, "\u0120narration": 40917, "\u0120fall": 1136, "\u0102": 50110, "\u0120laundry": 16937, "oother": 49012, "\u0120Seed": 28815, "\u0120tragedy": 6906, "\u0120assigning": 36457, "\u0120considering": 2811, "ctic": 20069, "\u0120Reynolds": 9295, "\u0120untouched": 29929, "onew": 32991, "\u0120underwear": 20745, "\u0120launchers": 38697, "\u0120treatments": 8289, "\u0120manually": 24704, "\u0120Engineering": 9466, "\u0120ruling": 2255, "\u0120witness": 4562, "\u0120Watt": 18989, "\u0120affirmation": 35919, "\u0120mating": 40297, "\u0120insecure": 27810, "\u0120didnt": 46405, "\u0120outing": 9913, "\u0120consulate": 17127, "\u0120disappearance": 12939, "\u0120Jenny": 17016, "ahu": 17421, "\u0120merciless": 37927, "\u0120cars": 1677, "\u0120whim": 31754, "\u0120unde": 23696, "ilipp": 33465, "\u0120constituents": 13990, "\u0120surgeons": 25705, "ovich": 10609, "\u0120quest": 9794, "\u0120NB": 28868, "\u0120triumphant": 32025, "\u0120Nico": 22544, "ractions": 29866, "\u0120THR": 21240, "\u0120Gloves": 42858, "\u0120goals": 1175, "\u0120Slave": 41180, "\u0120Paper": 14479, "\u0120Stephenson": 23047, "\u0120asteroid": 26236, "Executive": 36545, "\u0120perenn": 40982, "wood": 1845, "\u0120girl": 1816, "\u0120Pearce": 22496, "\u0120acting": 3501, "MW": 19454, "\u0120cere": 29012, "\u0120webpage": 36336, "\u0120ENT": 27329, "\u0120Sequ": 26400, "\u0120Accounts": 27860, "\u0120Bravo": 19337, "\u0120biomark": 36972, "\u0120directs": 24564, "\u0120Majority": 11982, "\u0120illicit": 16108, "awatts": 23643, "Materials": 48495, "plug": 33142, "etti": 13238, "bie": 12750, "zo": 6527, "plings": 34372, "\u0120tearing": 21408, "oted": 11367, "ticket": 28362, "\u0120gets": 1516, "\u0120wrists": 36093, "Fif": 43875, "\u0120equip": 17996, "\u0120station": 1992, "\u0120Kids": 9151, "\u0120thy": 32667, "\u0120obedient": 44729, "\u0120cigar": 36978, "\u0120Roof": 19409, "\u0120pillar": 24371, "\u0120Anniversary": 23741, "\u0120Fame": 7392, "\u0120smartest": 35895, "\u0120infection": 7910, "\u0120journeys": 22343, "\u0120Imagine": 15467, "\u0120Blossom": 37430, "\u0120NBN": 37738, "\u01201905": 40849, "Room": 41136, "\u0120USL": 42708, "\u0120Storage": 18807, "\u0120Ment": 22150, "\u0120med": 5679, "\u0120cooked": 14166, "\u0120stuffed": 16775, "\u0120tricked": 36985, "\u0120paycheck": 24288, "ensual": 35813, "\u0120again": 456, "\u0120mascara": 36317, "\u0120Background": 32070, "\u0120licens": 43009, "\u0120projects": 1377, "\u0120gobl": 49948, "\u0120turnover": 10119, "\u0120Rudolph": 26072, "\u0120Padres": 14965, "\u0120Opinion": 20253, "\u00e3\u0125\u0137\u00e3\u0124\u00a1": 49876, "\u0120corro": 44144, "\u0120ensu": 43594, "Gold": 20439, "\u0120centre": 2100, "\u0120Tina": 15720, "\u0120space": 980, "san": 14832, "\u0120mounts": 35778, "\u0120remained": 2442, "readable": 46753, "\u0120explains": 4529, "\u0120Lego": 23863, "Quote": 48065, "\u0120hue": 30863, "\u0120boosters": 39198, "\u0120Requires": 46233, "\u00d7\u013e": 47759, "\u0120sidelined": 12915, "Besides": 41107, "\u0120services": 518, "\u0120SHA": 42788, "\u0120readily": 16650, "\u0120Methods": 42879, "\u0120mk": 45924, "\u0120Account": 16036, "\u0120around": 198, "\u0120('": 31509, "inkle": 15673, "cour": 36644, "\u0120Country": 5093, "\u0120Kham": 25141, "\u0120dips": 29686, "Democrats": 36345, "\u0120lime": 23955, "\u0120stimulation": 32277, "\u0120disdain": 29512, "\u00c3\u00a3o": 4214, "\u0120cursed": 37893, "\u0120bi": 4003, "\u0120Gohan": 48774, "\u0120nanop": 37983, "ommod": 43331, "arty": 17513, "\u0120brighter": 19129, "imi": 7517, "\u0120specialists": 13923, "\u0120Nixon": 12481, "\u0120immigrant": 8910, "\u0120Static": 46505, "\u0120Chand": 12598, "\u0120Growing": 17438, "\u0120hormonal": 37675, "osa": 5166, "\u0120Browns": 7549, "\u0120magnification": 46666, "aca": 11893, "gex": 45767, "\u0120ind": 9473, "\u0120Rex": 9746, "\u0120disposed": 29616, "\u0120Else": 13487, "\u0120architectural": 19481, "Jess": 44898, "\u0120afloat": 26555, "\u0120reserved": 1875, "\u0120Revel": 32943, "\u0120scene": 1310, "\u0120buy": 907, "usp": 26781, "istine": 44300, "keeping": 12609, "\u0120335": 33452, "\u0120PST": 13388, "\u0120kneeling": 26416, "\u0120fishes": 43943, "ogh": 28552, "\u0120Fiona": 23905, "\u0120experimented": 37672, "wik": 39224, "\u0120Zionism": 43256, "\u0120Recall": 35109, "\u0120FIGHT": 41905, "director": 19709, "also": 19726, "Christopher": 41055, "\u0120Ended": 29608, "\u0120pci": 49899, "\u0120acquaintances": 37069, "\u0120traged": 47189, "Professional": 45520, "ising": 3009, "\u0120astron": 46324, "ulse": 32767, "\u0120Stop": 12457, "uns": 12140, "\u0120Answers": 41034, "\u0120veil": 31251, "\u0120sustainable": 5068, "Bomb": 42984, "\u0120diced": 36864, "\u0120piping": 37273, "\u0120WC": 22673, "hari": 32390, "\u0120proposition": 16104, "\u0120enthus": 48681, "\u0120family": 284, "@#": 49436, "\u0120appl": 45432, "\u0120rays": 28496, "\u0120miscar": 40964, "clipse": 45528, "DEF": 44438, "\u0120departments": 6522, "\u0120physicians": 13018, "\u0120Election": 7713, "Cruz": 41747, "\u0120implanted": 37042, "\u0120monet": 19578, "\u0120Ning": 39479, "hemat": 47160, "\u0120videos": 3424, "\u0120HS": 21499, "uses": 9764, "\u0120Deter": 40344, "\u0120bombard": 42602, "\u0120arr": 25743, "\u0120absolutely": 3668, "\u0120Differences": 44444, "atical": 36105, "\u0120UV": 22575, "\u0120Nieto": 22271, "\u0120Aux": 32119, "\u0120telecommunications": 15601, "\u0120Allow": 28217, "\u0120heresy": 46545, "cloud": 26601, "\u0120deleting": 36313, "\u0120upscale": 22563, "\u0120dab": 35454, "perial": 42383, "opol": 34768, "\u0120Cat": 7641, "boss": 40426, "\u0120neon": 22239, "\u0120Vox": 33856, "\u0120broadband": 11451, "\u0120vicious": 16339, "\u0120Questions": 18964, "\u0120firearms": 9855, "\u0120spoil": 29573, "efficiency": 33939, "\u0120heard": 1317, "\u00e7": 36714, "\u0120Bio": 12334, "\u0120ludicrous": 34147, "\u0120nause": 39117, "\u0120Definition": 38764, "\u0120Mold": 22013, "\u00c3\u0125\u00c3\u0124\u00c3\u0125\u00c3\u0124\u00c3\u0125\u00c3\u0124\u00c3\u0125\u00c3\u0124\u00c3\u0125\u00c3\u0124\u00c3\u0125\u00c3\u0124\u00c3\u0125\u00c3\u0124\u00c3\u0125\u00c3\u0124\u00c3\u0125\u00c3\u0124\u00c3\u0125\u00c3\u0124\u00c3\u0125\u00c3\u0124\u00c3\u0125\u00c3\u0124\u00c3\u0125\u00c3\u0124\u00c3\u0125\u00c3\u0124\u00c3\u0125\u00c3\u0124\u00c3\u0125\u00c3\u0124\u00c3\u0125\u00c3\u0124\u00c3\u0125\u00c3\u0124\u00c3\u0125\u00c3\u0124\u00c3\u0125\u00c3\u0124\u00c3\u0125\u00c3\u0124\u00c3\u0125\u00c3\u0124\u00c3\u0125\u00c3\u0124\u00c3\u0125\u00c3\u0124\u00c3\u0125\u00c3\u0124\u00c3\u0125\u00c3\u0124\u00c3\u0125\u00c3\u0124\u00c3\u0125\u00c3\u0124\u00c3\u0125\u00c3\u0124\u00c3\u0125\u00c3\u0124\u00c3\u0125\u00c3\u0124\u00c3\u0125\u00c3\u0124": 50195, "\u0120youngsters": 13692, "\u0120acute": 13827, "\u0120inappropriately": 27281, "rill": 20906, "\u0120Olivier": 20544, "\u0120predict": 7006, "\u0120dogma": 43804, "\u0120acc": 7678, "vale": 23683, "anon": 38230, "\u0120increases": 3488, "goal": 12697, "tics": 32314, "\u0120broker": 8122, "Photo": 2411, "\u0120twelve": 11971, "grand": 11377, "\u0120spaghetti": 33362, "\u0120Sar": 4701, "\u0120versus": 4411, "\u0120charger": 27362, "\u0120unders": 18983, "\u0120Ing": 11996, "\u0120wrongdoing": 10976, "\u0120universities": 6630, "\u0120appreciated": 10874, "\");": 45751, "\u0120hose": 27641, "\u0120Darwin": 24458, "Wik": 45445, "\u0120battery": 3822, "\u0120guardians": 27496, "\u0120indirect": 18677, "urd": 6831, "Tan": 40461, "Pok\u00c3\u00a9mon": 46661, "arbon": 40035, "eyes": 36078, "\u0120Weiner": 29453, "Albert": 36977, "nea": 22423, "\u01202003": 4999, "\u0120Dunham": 25485, "\u0120appealed": 9826, "\u0120Laboratory": 17815, "UFC": 33118, "\u0120BF": 43603, "\u0120vengeance": 35541, "\u0120Yellow": 14708, "enough": 38597, "disciplinary": 32231, "EA": 14684, "\u0120Lenovo": 21522, "iquid": 42902, "\u0120Panda": 35222, "\u0120ner": 38286, "\u0120artif": 49261, "\u0120July": 550, "\u0120deserve": 6565, "\u0120Mansion": 29252, "\u0120chars": 49160, "\u0120mant": 28226, "\u0120Thirty": 19808, "\u0120Strat": 21074, "agin": 23065, "\u0120kitten": 35292, "\u0120Hard": 6206, "\u0120accumulate": 29196, "\u0120downright": 28686, "\u0120foremost": 16501, "\u0120broadcast": 2308, "1971": 45433, "\u0120LEGO": 35509, "\u0120wages": 6729, "\u0120urine": 20987, "\u0120canvas": 20790, "\u0120Sections": 37028, "Android": 42375, "\u0120Camel": 36204, "rys": 26630, "\u0120Bronx": 18170, "Tom": 15691, "\u01200004": 49514, "Remember": 28669, "\u0120Dana": 11014, "\u0120Hiro": 35418, "..................": 49389, "\u0120Faculty": 26872, "\u0120Bryant": 7701, "\u0120crushing": 18389, "\u0120Cong": 12249, "\u0120Nich": 19441, "\u0120chops": 30053, "\u0120Chero": 47816, "\u0120jew": 14917, "adv": 28006, "Saudi": 28933, "agg": 7165, "\u0120BuzzFeed": 14348, "umer": 26229, "\u0120rightful": 32374, "burse": 30564, "\u0120Cal": 2912, "\u0120Prin": 26093, "\u0120highlighting": 12335, "items": 46740, "ileged": 33421, "\u0120inciting": 30752, "\u0120blister": 21786, "\u0120doctr": 46775, "\u0120Margaret": 10488, "\u0120communist": 19884, "\u0120travelers": 11774, "\u0120lewd": 31942, "\u0120WhatsApp": 6861, "\u0120doubtless": 44261, "TA": 3847, "athered": 27694, "Cost": 34985, "\u0120diffuse": 41118, "\u0120capacitor": 47403, "\u0120Terminal": 19566, "\u0120vil": 29571, "\u0120debate": 2625, "\u0120middle": 1692, "\u0120Khe": 41718, "\u0120posted": 1278, "Eventually": 42280, "\u0120condolences": 13110, "\u0120fonts": 42998, "\u0120clauses": 30756, "\u0120giveaways": 33486, "\u0120cir": 40441, "\u0120Mohammed": 6963, "\u0120intermedi": 32531, "\u0120relational": 45279, "\u0120uncontroll": 37580, "GAME": 46761, "\u0120clash": 6064, "\u0120poem": 19340, "URES": 28714, "\u0120idols": 39105, "\u0120Programming": 39538, "\u0120torso": 28762, "\\\\\\\\\\\\\\\\": 50053, "\u0120pure": 8309, "\u0120brushed": 23637, "ormon": 46408, "LAN": 20606, "\u0120Sponge": 41809, "\u0120Individuals": 28379, "\u0120stumbled": 21320, "people": 11970, "RECT": 42260, "Chris": 16084, "\u0120modifying": 38916, "yl": 4360, "ato": 3938, "\u0120fractures": 28456, "lund": 23433, "ophobic": 31209, "eker": 22193, "\u0120dozens": 4295, "\u0120Yas": 15840, "\u0120tc": 48965, "\u0120adhesive": 40760, "\u0120Medal": 17823, "\u0120demons": 28803, "Steam": 46633, "\u0120phylogen": 48372, "faith": 32118, "IAL": 11694, "\u0120surfaced": 12671, "\u0120Decision": 30300, "\u0120WORLD": 32697, "Face": 34892, "immers": 17903, "\u0120Abortion": 38472, "\u0120Rosenthal": 32194, "\u0120abolition": 34117, "\u0120Yen": 30377, "\u0120transition": 3868, "\u0120VP": 13913, "\u0120factor": 3724, "\u0120MSNBC": 20054, "\u0120Tsukuyomi": 50029, "\u0120holiest": 42520, "\u0120VAL": 27445, "\u0120yawn": 39654, "\u0120administrators": 11976, "\u0120DNA": 5708, "\u0120finale": 7712, "\u0120DX": 32172, "\u0120SAL": 22404, "\u0120procure": 32560, "\u0120decode": 45182, "\u0120painstaking": 31751, "\u0120eruption": 20945, "\u0120Starter": 40352, "\u0120pumping": 17741, "\u0120universally": 29502, "Und": 42061, "\u0120Freak": 42105, "\u0120Boss": 12398, "\u0120scholar": 20875, "gc": 42406, "hem": 9506, "\u0120Sort": 40649, "Probably": 35882, "\u0120fl": 2342, "\u0120Maj": 9894, "ivalent": 32995, "\u0120grav": 20969, "monkey": 45384, "\u0120supernatural": 32049, "\u0120Good": 2497, "\u0120Corbyn": 10113, "\u0120Governments": 26581, "\u0120culminating": 29681, "\u00f0\u0141": 6569, "earable": 48819, "\u0120nickname": 17911, "gres": 43785, "aspberry": 48515, "\u0120boredom": 40326, "\u0120proc": 17987, "\u0120insulted": 32149, "\u0120spin": 6287, "\u0120princip": 31702, "\u0120shame": 9208, "\u0120ded": 22761, "rington": 12344, "mails": 34554, "\u0120reasonably": 15646, "\u0120Traps": 47823, "\u0120adam": 40587, "child": 14069, "\u0120emails": 5575, "\u0120rewriting": 40857, "\u0120Troy": 7786, "arger": 28186, "Poor": 43094, "\u0120downwards": 41408, "\u0120children": 408, "\u0120dan": 20435, "ocolate": 43910, "\u0120Restoration": 32569, "\u0120Rankings": 34151, "ESSION": 43400, "lator": 44006, "\u0120innocence": 18686, "\u0120Japan": 1429, "\u0120geological": 30694, "\u0120OEM": 22676, "OVA": 44320, "\u0120reduced": 2906, "\u0120Victory": 15908, "\u0120lunar": 21641, "\u0120Secure": 27443, "\u0120Shawn": 11325, "\u0120[|": 50084, "ris": 4663, "\u0120hazards": 21125, "\u0120blacks": 20465, "\u0120views": 2728, "XM": 30440, "\u0120invade": 34425, "\u0120infiltrate": 37560, "\u0120Capture": 39768, "\u0120treasures": 30981, "\u0120Bei": 36843, "\u0120animation": 19269, "\u0120Uk": 27090, "tons": 38550, "\u0120Clement": 16282, "EMBER": 26653, "\u0120echoes": 25970, "\u0120Terms": 20374, "\u0120inconsistency": 36849, "\u0120Challenger": 29495, "\u0120Cath": 20349, "\u0120centrally": 37889, "\u0120courier": 37171, "\u0120tides": 33154, "\u0120Platform": 16237, "\u0120rallies": 10881, "\u0120summons": 26542, "\u0120Willie": 14959, "\u0120recovery": 2752, "\u0120prudent": 22652, "\u0120instant": 10062, "\u0120dred": 31120, "mus": 13792, "\u0120Asc": 41349, "\u0120maximizing": 35195, "\u0120Furthermore": 9870, "\u0120Museum": 4355, "\u0120192": 27886, "spoken": 28306, "\u0120cheek": 15401, "\u0120abuser": 36737, "\u0120Normal": 26411, "\u0120supporters": 2732, "Ark": 41441, "\u0120distracted": 16573,
[...]
