{"Opt": 36542, "028": 40709, "owned": 4447, "Ġ08": 12112, "260": 21566, "region": 37140, "ĠError": 37943, "ĠDE": 5885, "Linux": 45768, "result": 43155, "!!": 12846, "Ġst": 1690, "06": 4124, "Vector": 48417, "value": 19434, "ERE": 23142, "flags": 46760, "m": 119, "back": 1644, "Dis": 26402, "~~~~~~~~~~~~~~~~": 48936, "Ġnet": 1161, "Single": 44119, "DI": 10063, "Ġrefer": 9115, "Ġrequest": 2069, "uti": 18078, "Ġother": 97, "220": 16846, "999": 16692, "Ġprovide": 694, "fixed": 43713, "Ġ233": 31738, "Ġ123": 17072, "war": 5557, "un": 879, "Ġ3": 155, "Setting": 46765, "315": 28355, "Ġ/": 1589, "67": 4111, "or": 368, "ĠSer": 6251, "ACC": 21678, "kt": 7282, "ko": 3852, "Ġconnector": 34538, "Or": 11094, "405": 31191, "Length": 48739, "Memory": 47184, "download": 41536, "def": 9232, "Ġhas": 34, "il": 718, "ĠStart": 2776, "Ġ112": 12730, "Temperature": 48533, "fter": 23782, "909": 39517, "mentation": 36197, "sum": 18581, "queue": 48702, "Ġ850": 24137, "Ġ319": 37964, "line": 1902, "Ġ151": 25936, "place": 6406, "clear": 18763, "584": 38601, "DEV": 47233, "01": 2663, "Ġand": 8, "party": 6493, "Ġmodule": 20686, "781": 40149, "orm": 8693, "rics": 18715, "513": 39337, "Cont": 26412, "icit": 17022, "Soc": 29971, "Provider": 48903, "CPU": 47378, "SET": 45099, "NAME": 48307, "Ġfi": 13383, "bl": 3662, "Documents": 47722, "Ġtried": 1381, "He": 894, "Ġbut": 53, "short": 20263, "201": 16295, "mal": 10417, "Ġdiv": 14445, "Ġcondition": 1881, "435": 33115, "Route": 43929, "182": 27127, "reen": 22500, "Prep": 44165, "Can": 10836, "soc": 32460, "Controller": 48321, "Ã¼r": 5172, "Increase": 48139, "131": 25433, "37": 3272, "ĠCo": 944, "degree": 5743, "Air": 17906, "Ġgroup": 333, "63": 5449, "1": 134, "Ġgen": 12358, "origin": 43211, "CC": 3376, "Ġmap": 5456, "ach": 1488, "cache": 47974, "arp": 11230, "maybe": 31501, "113": 19547, "ND": 13457, "ni": 5107, "ED": 1691, "\":": 7862, "Ġthen": 172, "Fl": 16197, "mk": 43503, "23": 1922, "ich": 1725, "045": 39664, "asse": 10627, "ĠYou": 370, "ĠSee": 4250, "Ext": 40884, "Ġinto": 88, "ĠUE": 37084, "mis": 21363, "ĠLight": 5737, "Total": 37591, "xt": 11483, "351": 35340, "Log": 23345, "EM": 5330, "Bel": 19877, "87": 5677, "arge": 16347, "frames": 42786, "le": 459, "fa": 12010, "VERS": 34213, "ight": 5971, "ĠQU": 16944, "Ġ10000": 45563, "Ġ190": 17235, "ĠVeh": 45967, "Loc": 45062, "Ġ301": 25895, "R": 500, "thread": 43935, "objects": 48450, "leg": 4308, "undle": 42535, "709": 38139, "540": 31394, "659": 38223, "773": 39094, "oken": 22036, "424": 35784, "806": 38717, "VW": 41399, "ver": 2802, "Ġrequires": 3441, "Key": 28152, "Ġfixing": 15435, "ĠAn": 660, "ula": 5571, "cro": 23324, "rh": 20378, "Tw": 23638, "ollow": 40686, "ision": 10699, "998": 39101, "SI": 6850, "oci": 17641, "809": 36621, "Ġ__": 27148, "Ġkeys": 10654, "Ts": 38516, "Policy": 46159, "ĠSym": 23052, "Sol": 39524, "up": 658, "del": 10273, "gp": 44191, "DP": 5174, "Ġlambda": 49027, "ĠDem": 5245, "ĠHTTPS": 45217, "Ġfixed": 4460, "HE": 17779, "ports": 8303, "Ġsrc": 47215, "Ġdebugging": 47021, "Ġint": 6979, "atibility": 46318, "stra": 10750, "mph": 17055, "036": 41424, "ĠWHITE": 38503, "Ġfor": 13, "service": 11131, "Ġ31": 1105, "RD": 34158, "Alpha": 35776, "lat": 12805, "controller": 45294, "lin": 2614, "Count": 23329, "Ġcc": 41754, "Over": 10777, "ĠOption": 28316, "cell": 7841, "ck": 2420, "Ġtemplate": 27663, "Ka": 34118, "ut": 1182, "Ġamb": 13569, "683": 39062, "AP": 591, "Fix": 35660, "Ġshould": 197, "528": 38440, "jobs": 41207, "648": 36491, "Ġdifference": 2249, "rect": 41087, "data": 23687, "MP": 7629, "ĠOTHER": 16536, "Mess": 40169, "sta": 24981, "we": 1694, "368": 27594, "Ped": 39690, "Ġincre": 47080, "bro": 7450, "Ġtrue": 1528, "inder": 7026, "ible": 4748, "global": 9424, "ly": 352, "Environment": 46291, "lip": 33330, "Mc": 13564, "den": 3898, "type": 12528, "ole": 4104, "ption": 24802, "Using": 36949, "min": 4691, "collection": 44443, "561": 39345, "Release": 45036, "us": 687, "433": 38514, "BS": 3297, "rection": 45447, "Ġ141": 23580, "Dem": 24658, "Ġpartial": 9801, "ĠEx": 3015, "ZA": 22447, "vi": 6873, "ford": 1891, "883": 40714, "589": 40017, "Ġrunner": 7449, "pas": 28466, "Ġ470": 35041, "North": 11073, "://": 640, "metic": 45847, "Sleep": 44108, "ATE": 8625, "socket": 48154, "arning": 47433, "station": 30650, "drive": 19306, "help": 19178, "GB": 4377, "021": 41656, "Del": 21502, "ences": 8457, "ĠUpdate": 14686, "s": 29, "024": 40044, "essen": 24439, "Ġgenerated": 5129, "tp": 43379, "ĠRUN": 35557, "Ġsil": 11052, "Connection": 48467, "Object": 46674, "remove": 46327, "Ġsignature": 6543, "Ġwaste": 3844, "Learn": 40103, "Hand": 21292, "py": 17163, "ceed": 32326, "als": 1536, "lock": 8292, "graph": 44143, "Ġfiles": 6773, "Ġ252": 34660, "usr": 45568, "actions": 28929, "for": 1990, "mental": 36203, "to": 560, "uments": 30179, "errors": 48487, "First": 10993, "429": 31877, "Op": 13926, "Ġ#": 849, "756": 39755, "proc": 46799, "mr": 35685, "ĠMemory": 25940, "Ġdelete": 17462, "static": 42653, "ĠINFO": 42962, "TOR": 18861, "Ep": 39318, "_.": 47426, "Socket": 49019, "component": 46362, "Ġelements": 4785, "ĠFan": 11232, "Ġ353": 41005, "ĠGe": 4177, "Ġpattern": 6184, "Crit": 46517, "rog": 10191, "Fi": 9474, "AST": 10388, "OM": 3765, "FM": 16523, "Va": 25546, "hn": 10245, "REM": 41548, "Cra": 47137, "ĠSe": 1608, "oid": 12572, "Obj": 49062, "759": 39055, "u": 257, "462": 37045, "tar": 11404, "Ġuse": 304, "Ġsho": 14172, "q": 1343, "sic": 15335, "por": 12150, "**": 12606, "URN": 28267, "Field": 27780, "Windows": 43815, "Ġtext": 2788, "EG": 7170, "Events": 43248, "Sel": 39736, "460": 30875, "Ġsince": 187, "Ġcoding": 25776, "Ġ6": 231, "ĠOptions": 18736, "Clock": 45918, "Ġmetrics": 12758, "Ġ321": 36219, "Ġcounterpart": 10255, "Ġfloat": 15754, "Ġcontainer": 11255, "generation": 11092, "less": 1672, "NOR": 25565, "76": 5067, "Ġ1024": 46959, "Ġ@": 787, "message": 44773, "The": 133, "Ġread": 1166, "ĠInput": 41327, "Ġdeclared": 2998, "Ġ0": 321, "console": 48028, "Round": 41061, "knowledge": 44228, "Core": 30786, "Module": 48720, "threat": 25836, "TIME": 39007, "Root": 46606, "rie": 3636, "Ġmo": 7458, ">.": 48691, "Si": 35684, "mic": 15796, "Points": 46340, "zero": 18556, "278": 30442, "Ġcompilation": 32245, "LAB": 44435, "ĠTag": 12650, "issues": 40512, "ures": 4123, "heart": 12690, "165": 21933, "Iter": 49628, ".": 4, "599": 33626, "container": 46367, "son": 1478, "Ġexcluding": 12556, "width": 36097, "ams": 7042, "Ġproperly": 5083, "ĠSAM": 23978, "Percent": 48497, "Ġ43": 3557, "lam": 5112, "run": 2962, "nd": 1187, "BIT": 5871, "Ġdeployment": 9737, "correct": 36064, "w": 605, "lor": 10159, "115": 15314, "Ġout": 66, "Ġes": 2714, "Ra": 27625, "utton": 18589, "Ren": 34837, "Ne": 14563, "AG": 3450, "Ġconditional": 23431, "fr": 12997, "ness": 1825, "Ġsure": 686, "audio": 24846, "ĠNone": 9291, "224": 28835, "ĠResponse": 19121, "352": 33674, "ir": 853, "728": 39265, "Data": 30383, "Ġexplanation": 8257, "Ġ499": 43071, "ĠERROR": 38586, "ĠDEBUG": 49692, "assis": 39363, "020": 33783, "FE": 10885, "old": 279, "046": 41409, "25": 1244, "word": 14742, "j": 267, "Ġ194": 31300, "ĠOne": 509, ":": 35, "ĠWARNING": 16774, "iner": 5101, "Sum": 38182, "soft": 24810, "Ther": 43958, "database": 48094, "109": 18616, "Ġonly": 129, "unit": 19304, "Pad": 28874, "Ġ348": 41097, "atis": 27048, "DC": 5949, "ere": 2816, ":[": 48554, "451": 36860, "ĠThat": 280, "ouse": 11556, "Valid": 48911, "420": 23537, "641": 39138, "ux": 7073, "pad": 19320, "Ġ346": 40355, "http": 8166, "Ġevery": 358, "Ġtrans": 6214, "Plug": 48022, "ĠK": 229, "liter": 19402, "Supported": 47206, "~~~~~~~~": 49364, "White": 15725, "sized": 8407, "va": 3952, "aws": 17415, "Ġdomain": 11170, "agi": 18879, "Ġexpression": 8151, "Stre": 44382, "ĠModel": 7192, "OPER": 35918, "gear": 34020, "830": 35781, "Ġgener": 20181, "POS": 42740, "wn": 11538, "ĠList": 9527, "OW": 4581, "leep": 45841, "Ġpat": 10512, "Gi": 40405, "engine": 23403, "Ġautomatically": 6885, "Missing": 45104, "Ol": 33453, "THER": 38421, "El": 9682, "Beh": 47001, "AS": 2336, "An": 4688, "begin": 43230, "Ag": 19897, "ONG": 9672, "ter": 1334, "279": 28854, "627": 40056, "Ġdisabled": 6242, "led": 1329, "141": 27142, "Ġ415": 34885, "ization": 1938, "ĠCache": 42285, "acity": 18583, "Rel": 29806, "ĠMake": 5293, "Ġ293": 38485, "pub": 22478, "226": 29190, "Ġcopied": 15443, "001": 19089, "ĠUnit": 7545, "Ġby": 30, "125": 11338, "308": 31335, "ĠFinished": 42960, "Ġm": 475, "ĠDetected": 48990, "430": 29821, "Ġdepends": 7971, "Ġproviders": 4898, "activation": 45888, "Ġlinks": 5678, "fab": 36636, "put": 9179, "1986": 43479, "556": 37305, "isi": 8539, "vert": 9942, "We": 170, "Ġfunction": 5043, "302": 29187, "ĠIn": 96, "@": 1039, "298": 32646, "other": 7443, "Ġpl": 2968, "}": 24303, "fire": 7051, "shot": 10393, "ĠInher": 46645, "31": 2983, "Phys": 43827, "Ġ680": 37326, "Win": 27189, "tools": 46200, "Mis": 44089, "atz": 15586, "ker": 5029, "Number": 43623, "Fil": 36361, "1200": 36643, "Spl": 43899, "ĠSupport": 7737, "GET": 18760, "Ġ251": 35048, "ĠSwitch": 11171, "Ġ133": 21448, "red": 2050, "Alt": 41622, "495": 30973, "stack": 41590, "checks": 28511, "466": 38620, "When": 1779, "486": 37202, "miss": 17745, "452": 36720, "Ġfile": 2870, "Tra": 24523, "igh": 8774, "669": 36400, "Pe": 23029, "492": 38852, "Ġexists": 8785, "ulk": 16260, "ĠID": 4576, "Ġcom": 3137, "lect": 17601, "Ġprivate": 940, "mo": 4992, "wash": 31441, "linux": 47694, "Port": 22117, "Ġcluster": 18016, "avi": 11132, "resolution": 29646, "Ġpre": 1198, "atur": 8367, "Ġ60": 1191, "295": 27319, "90": 3248, "Security": 36090, "levant": 43986, "5000": 31830, "2008": 27418, "zel": 10101, "210": 22146, "action": 10845, "ĠExit": 28705, "UR": 2492, "div": 26037, "HI": 15473, "789": 39413, "Lt": 45105, "PP": 5756, "ingle": 18768, "ul": 922, "ĠLin": 9252, "ĠProperties": 13094, "from": 7761, "model": 21818, "ph": 3792, "Target": 41858, "engineering": 36904, "received": 33979, "IK": 20458, "Ġ`": 22209, "ico": 2684, "Ġ186": 30509, "oding": 19519, "lol": 46078, "uff": 5865, "Ġroad": 921, "Men": 17762, "Ġassert": 18088, "Center": 25636, "Ġmember": 919, "eness": 14186, "345": 26868, "Sin": 42043, "ask": 4970, "Ġexecuted": 9390, "archive": 46862, "holder": 14074, "vel": 5536, "Sw": 15417, "Rs": 18591, "Ġ32": 2107, "Raw": 40039, "wheel": 13630, "Ġbuild": 1119, "of": 1116, "lang": 32373, "128": 21540, "Ġ46": 4059, "template": 48790, "Ġnetworks": 4836, "161": 28490, "Ġ361": 41765, "LA": 8272, "9": 466, "VALUE": 49313, "299": 23942, "CHAR": 29146, "089": 41485, "ĠResources": 5187, "map": 32557, "UTION": 34058, "Ġ329": 40250, "this": 9226, "return": 30921, "ROM": 41944, "016": 36192, "642": 36159, "225": 18614, "ycle": 44397, "Ġcontain": 5585, "666": 34364, "Ġproto": 43835, "Mod": 30597, "ĠErrors": 46357, "Origin": 47651, "Ġcomplete": 1498, "...": 734, "751": 40670, "Ġeach": 349, "Ġ143": 22726, "Ġlisted": 3147, "failed": 38323, "tl": 34842, "Input": 48214, "975": 35795, "2013": 10684, "HS": 6391, "000": 151, "Ġpro": 1759, "Ġduplicate": 33196, "loader": 45910, "Ġsimilar": 1122, "Ġreport": 266, "Hum": 40022, "502": 35537, "major": 25430, "Ps": 13438, "Ġoutside": 751, "atory": 5257, "221": 28730, "linear": 43871, "Token": 45643, "main": 17894, "Client": 47952, "647": 36603, "th": 212, "Ġ332": 37811, "shoot": 26286, "Ġset": 278, "Disc": 41615, "Sa": 33457, "ived": 19133, "step": 13975, "hm": 13492, "rm": 22900, "ĠKey": 4300, "Ġpersonal": 1081, "Hel": 31680, "Exit": 46072, "186": 29024, "ĠNode": 44058, "Ġ111": 11571, "ater": 5109, "fore": 13364, "verified": 37451, "ocket": 31629, "Sit": 44683, "Inv": 42782, "Ba": 34535, "connected": 21618, "Ġ107": 13674, "718": 38590, "TAIN": 23177, "68": 4671, "::": 38304, "2005": 32857, "Esc": 42950, "ĠElement": 35871, "ern": 3281, "ser": 12778, "UG": 13644, "ment": 1757, "Ġthe": 5, "Ġ179": 29189, "roup": 20833, "ĠStatus": 17058, "Ġinput": 8135, "Ġ66": 5138, "ĠYo": 17514, "definition": 38835, "addr": 49439, "Ġ269": 36891, "buf": 48939, "id": 808, "Ġshort": 765, "Ġaccess": 899, "ous": 1827, "Ġserver": 10228, "123": 19644, "ream": 26930, "Ġsession": 1852, ",": 6, "Get": 14181, "ANCE": 15255, "ONY": 32205, "Ġwork": 173, "Ġ525": 38305, "Ġextra": 1823, "485": 33467, "Ġexcluded": 15298, "Group": 25976, "Sn": 37790, "Any": 11913, "oll": 3937, "Ġfalse": 3950, "OUT": 29891, "tag": 10058, "pp": 3807, "Param": 48348, "elle": 6591, "oute": 33514, "Cmd": 49530, "ĠDT": 22603, "Activity": 47874, "mem": 25683, "brid": 21676, "Sc": 12645, "Fall": 31593, "......": 43796, "eps": 26378, "ULL": 25792, "ĠAddress": 17416, "Tr": 12667, "Ġmessages": 3731, "tainment": 43427, "RA": 4396, "LINE": 28302, "457": 34916, "raw": 9056, "754": 39382, "Ġanalysis": 1966, "ued": 6796, "con": 3865, "59": 4156, "ucer": 43886, "Ġ*/": 48404, "cision": 37938, "Ġconfigure": 39693, "Ġrc": 48047, "riter": 37124, "Fa": 44663, "304": 31276, "tal": 29420, "Ġmodels": 3092, "Pred": 45408, "IB": 8863, "Ġinformation": 335, "ĠInternal": 18387, "45": 1898, "pu": 30738, "Month": 43299, "Secret": 42592, "uit": 6439, "Ġ104": 13259, "Frame": 46766, "CHA": 32812, "MU": 31502, "ange": 10987, "EC": 3586, "Request": 45589, "Ġ257": 33921, "bing": 6721, "86": 5334, "252": 29911, "folder": 48811, "Ġ222": 25884, "Ġchallenge": 1539, "¿½": 49916, "LER": 38792, "rea": 9891, "^": 35227, "fit": 14307, "without": 19010, "740": 33686, "resh": 23053, "olic": 12589, "April": 13949, "widget": 48972, "173": 30664, "Ġ300": 2993, "Ġinclude": 680, "Ġthere": 89, "supp": 16714, "state": 4897, "Ġ<<": 48188, "enn": 4734, "Ġ100": 727, "Ġcontains": 6308, "ap": 1115, "ark": 3994, "ell": 1641, "Ġ116": 15966, "string": 20951, "https": 13082, "Resp": 44036, "ace": 4450, "used": 6199, "044": 40847, "que": 3407, "steps": 27091, "third": 12347, "Ġ400": 3675, ">]": 49910, "T": 565, "ĠCreating": 28755, "Main": 31359, "frame": 26061, "module": 48095, "LIN": 13748, "Ġunknown": 4727, "Tank": 46192, "Ġrepository": 30076, "aded": 7560, "Ġboot": 9759, "Ġden": 3069, "17": 1360, "Ġrepo": 27640, "516": 38960, "Ġrule": 2178, "orage": 46293, "677": 38434, "delete": 46888, "487": 37795, "ush": 3810, "management": 14668, "Mot": 41676, "ES": 1723, "ity": 1571, "107": 19000, "ering": 2961, "block": 16776, "Emergency": 40638, "quality": 8634, "Ġthermal": 17210, "Ġin": 11, "Ġ218": 28405, "summary": 48600, "Ġ05": 15786, "tun": 24641, "names": 37815, "Um": 42025, "Er": 28012, "Use": 34447, "tical": 39267, "ĠUn": 1890, "602": 36094, "TH": 3732, "253": 31184, "Ġ:": 4832, "ance": 2389, "ind": 2028, "Part": 4741, "Ġ67": 5545, "ĠConsumer": 7653, "458": 35992, "Ġ351": 40296, "fast": 16963, "har": 4759, "Ġ72": 4801, "Avg": 48929, "Ġorg": 31118, "HD": 13022, "az": 1222, "Parser": 49707, "aint": 12042, "File": 9966, "Crypt": 44623, "497": 38143, "Ġ202": 22991, "Home": 19457, "State": 13360, "Pl": 16213, "du": 6588, "rel": 5982, "hill": 9583, "Car": 9518, "atomic": 45826, "Ġ312": 32490, "speed": 8619, "Order": 45613, "Ġaware": 2542, "lights": 20888, "lass": 27355, "ends": 8845, "na": 2133, "Ġfit": 2564, "Cert": 44229, "andro": 22967, "K": 530, "bench": 31240, "Ġdependency": 31492, "Ġfix": 4190, "Ġ900": 10742, "Dist": 42390, "Assembly": 45580, "Ġissue": 696, "OP": 5733, "FD": 24667, "RON": 37043, "len": 8476, "Assistant": 46184, "Ġ396": 43075, "Byte": 47447, "Ġ*": 1009, "ne": 858, "Future": 37577, "product": 20565, "ĠVerify": 47076, "settings": 48419, "ding": 11303, "atal": 14720, "14": 1570, "Ġ425": 32968, "Filter": 47625, "sync": 45176, "installed": 39161, "two": 7109, "ĠPool": 13906, "z": 329, "IT": 2068, "Ġ380": 27264, "Ġ289": 39613, "371": 34923, "google": 39367, "US": 3048, "Ġmet": 1145, "Ġhealth": 474, "lane": 21765, "medium": 37661, "026": 40521, "212": 22145, "plus": 7269, "ules": 17773, "Ġelement": 7510, "Ġpackages": 8368, "900": 7784, "EP": 9662, "Ġnot": 45, "585": 34921, "Ġexpected": 421, "Ġ134": 23006, "mel": 17170, "605": 34764, "rets": 33064, "Ġconfiguration": 20393, "rant": 6618, "rend": 10082, "ĠFa": 16125, "Configuration": 49602, "Term": 23036, "G": 534, "Three": 15622, "447": 35337, "Ġoversized": 24901, "Link": 17860, "Ġuser": 3018, "size": 10799, "/.": 11665, "append": 48696, "Le": 10350, "AMP": 20014, "Ġor": 50, "itt": 2582, "Ġcp": 46247, "eren": 8663, "Ġlam": 24160, "Push": 46971, "Availability": 49054, "acted": 29179, "ENGTH": 46219, "Recent": 39936, "no": 2362, "Ġthrough": 149, "Ġ150": 3982, "905": 38893, "usive": 30225, "test": 21959, "hen": 2457, "200": 2619, "pat": 11632, "Ġ298": 37353, "kg": 9043, "Ġtwo": 80, "Prev": 48521, "Ġrevoked": 19358, "57": 4390, "var": 10806, "uture": 47028, "anding": 20515, "Ġconst": 10759, "805": 34249, "able": 868, "wrong": 35621, "Ġbytes": 46487, "Classic": 44950, "Desc": 47066, "hi": 3592, "od": 1630, "0000": 14200, "end": 1397, "keleton": 44869, "em": 991, "net": 4135, "YC": 37074, "the": 627, "ength": 49426, "Ġleave": 989, "Ġ371": 42139, "tool": 43342, "Hot": 27735, "ĠSymphony": 18972, "DIT": 45509, "ceive": 6550, "itch": 3239, "ong": 1657, "Ġyet": 648, "ĠDisplay": 17091, "HM": 35441, "Low": 32758, "EH": 38832, "self": 13367, "Ġtimeout": 25386, "Co": 8739, "compatible": 41799, "upp": 12151, "ower": 8285, "volt": 28989, "Back": 19085, "amb": 3146, "docker": 49335, "ssh": 47833, "CW": 36840, "Ġgenerating": 10846, "Ġprefix": 46622, "ĠAd": 1614, "Ġkey": 762, "156": 27915, "packages": 48324, "Ġparse": 43756, "te": 859, "..": 7586, "Ġ70": 1510, "353": 27044, "dy": 7180, "Ġsignals": 8724, "887": 40793, "468": 37184, "CS": 6842, "ĠWARN": 47612, "Ġruns": 1237, "rift": 23203, "ĠTesting": 25980, "Ġmaybe": 2085, "Ess": 38469, "882": 40178, "573": 38992, "ĠCustomer": 19458, "pid": 43708, "Ġtherefore": 3891, "method": 45416, "Ġ427": 41518, "amp": 3914, "Ġobject": 7626, "653": 38616, "Ġtree": 3907, "actual": 44033, "usage": 47275, "CHECK": 48692, "Ġmaximum": 4532, "{": 45152, "common": 27278, "Ġ07": 13470, "Ġchoices": 5717, "377": 33588, "Hard": 31574, "on": 261, "chain": 26149, "261": 32972, "stall": 33401, "ĠGET": 7777, "Ġsup": 28836, "Ġ178": 29065, "hl": 11639, "AF": 8573, "PI": 11337, "util": 32843, "Ġvisit": 825, "elf": 24973, "11": 1225, "Ġmove": 517, "ohn": 17648, "1111": 43993, "Way": 24450, "382": 35178, "alse": 33896, "ses": 24151, "HT": 14469, "Ġodd": 8372, "gt": 19377, "327": 35253, "29": 2890, "Ġnumber": 346, "41": 4006, "Ġbehave": 18871, "sat": 39544, "Ġcre": 8633, "Cor": 15228, "Ġ118": 16970, "runs": 39478, "rol": 9396, "Ġsandbox": 43278, "Ġsymbol": 7648, "unknown": 42230, "Type": 40118, "client": 38557, "Ġser": 6821, "Ġsh": 1481, "Ġfollowing": 511, "connection": 41011, "As": 1620, "ft": 2543, "Ġhome": 184, "348": 27765, "Ġresult": 898, "Ġimplementation": 5574, "Done": 45978, "aft": 31741, "373": 34099, "AI": 15238, "SK": 17342, "Info": 39863, "Ġproble": 35006, "658": 36688, "Ġdangerous": 2702, "Ġaddress": 1100, "rpm": 43773, "ities": 2192, "pred": 37466, "Ġseparate": 2559, "gh": 4147, "Ġsecure": 2823, "ĠProxy": 45571, "Ġplugins": 44645, "Com": 14721, "??": 28749, "ĠSave": 11873, "Ġec": 20508, "331": 34071, "ls": 6634, "193": 30995, "inter": 8007, "shop": 22799, "Ġtokens": 22121, "Ġwhile": 150, "alt": 3967, "023": 40631, "top": 8766, "lection": 20576, "Ġexecut": 38902, "lower": 29668, "STEM": 43896, "Ġ153": 25758, "tor": 10321, "antic": 26970, "unique": 34755, "uced": 33862, "989": 40391, "String": 34222, "Ġ610": 33253, "Ġsome": 103, "ĠCI": 19104, "Enhanced": 47349, "tle": 12607, "ers": 268, "ĠPwr": 48650, "Ġoper": 19470, "Ġ19": 753, "RR": 25733, "beat": 13825, "Ġartifact": 43260, "Weight": 42158, "208": 26919, "Re": 9064, "Ġ22": 820, "ults": 34869, "aux": 8624, "205": 22814, "Av": 23389, "ĠTh": 2032, "Ġund": 2432, "mc": 29297, "ĠPatch": 19749, "586": 38014, "ory": 4405, "Ign": 45616, "Node": 48271, "99": 2831, "Select": 45356, "ake": 5113, "505": 35255, "916": 40299, "hat": 8849, "monitor": 38575, "Ill": 24873, "Ġstore": 1400, "as": 281, "Pop": 30255, "src": 45692, "Reason": 48147, "801": 39624, "MS": 6222, "ĠSystem": 5149, "Ġchanges": 1022, "ORY": 26116, "Tri": 35587, "Ġreal": 588, "Ġapplicable": 10404, "outing": 25754, "244": 30043, "enter": 11798, "ogle": 32507, "Ġexec": 26126, "ICLE": 45544, "Ġ139": 24404, "Ġsep": 45821, "pen": 9675, "ĠFatal": 39601, "ĠBr": 2265, "Wall": 28216, "digital": 29563, "Go": 11478, "Ġtemp": 32196, "ality": 6948, "Box": 26621, "139": 25488, "ert": 2399, "ĠTime": 3421, "enable": 30743, "TT": 14543, "Ġ->": 43839, "Ġleft": 314, "Ta": 38495, "each": 37782, "Ġenv": 16028, "Ġ39": 3191, "strument": 41392, "Ġwill": 40, "ref": 13043, "&": 947, "ash": 1671, "Secure": 44381, "022": 39549, "Net": 15721, "qual": 27702, "ori": 6249, "ĠKo": 8723, "ĠDescription": 33425, "SON": 14452, "ĠBeta": 25905, "Ġ315": 29534, "Ġexception": 8219, "Ġbig": 380, "Ġ422": 41977, "Ġ403": 35611, "network": 34728, "Ġ502": 39179, "onal": 20171, "example": 46781, "formance": 47196, "root": 29059, "379": 34309, "Day": 10781, "Comm": 33479, "ARY": 10760, "Ġdetails": 1254, "Ġ101": 6560, "090": 37767, "boot": 40571, "risk": 10848, "Pro": 10653, "IF": 7025, "30": 541, "args": 48204, "ob": 2413, "clock": 17036, "log": 12376, "Vert": 42195, "resource": 44814, "SA": 3603, "Clean": 40827, "Ġassignment": 11717, "status": 29552, "xy": 32027, "tered": 10001, "Setup": 49398, "Files": 14824, "minute": 4530, "Ġthree": 130, "ĠCom": 4556, "397": 34991, "Ġ608": 43532, "tmp": 48743, "ĠCTR": 46824, "Conn": 19730, "anch": 10459, "hour": 4509, "Builder": 45200, "Numbers": 47395, "site": 11953, "E": 717, "306": 32230, "BAT": 41558, "Account": 43767, "--------------------------------": 46939, "Action": 36082, "og": 2154, "493": 37839, "Ġiso": 47191, "mand": 14785, "ology": 4383, "Ġargs": 49503, "Ġactions": 2163, "705": 35278, "Cs": 31229, "~": 34437, "ification": 5000, "951": 40464, "metadata": 43702, "Zone": 36004, "Ġpossible": 678, "Fan": 41300, "Ġspec": 12002, "vec": 25369, "agement": 19660, "com": 175, "Ġe": 364, "Ġconstruction": 1663, "Kind": 39126, "ull": 5023, "ols": 11925, "ak": 677, "Most": 2895, "DN": 40795, "agn": 11244, "580": 31663, "Typ": 47572, "Follow": 18622, "Export": 47671, "673": 38508, "ging": 3923, "Ġle": 2084, "360": 14586, "Gu": 14484, "Dim": 45137, "Nor": 29723, "ĠRecording": 34601, "BLE": 30876, "re": 241, "istry": 20217, "620": 32994, "696": 36999, "522": 38348, "Aut": 37434, "MOD": 45997, "dk": 43357, "tu": 10109, "Ġbehavior": 3650, "Weather": 29840, "kil": 15870, "behavior": 40397, "ped": 9700, "ĠCO": 6247, "variable": 48123, "format": 34609, "CH": 3764, "was": 7325, "OL": 3384, "83": 6361, "42": 3714, "Ġdocker": 48133, "MI": 7539, "ACT": 13709, "ile": 1848, "Ġ358": 40156, "ither": 15027, "existing": 19865, "ree": 5314, "ique": 5150, "204": 27508, "ign": 4932, "Ġfour": 237, "in": 179, "file": 21710, "954": 40893, "pod": 40762, "Ġte": 3055, "Ġk": 449, "eff": 29678, "ans": 1253, "Mor": 30019, "Feature": 47702, "Cloud": 14438, "DR": 10644, "Ġcopy": 5375, "Ġquery": 25860, "lish": 21457, "ĠStr": 5997, "TING": 36595, "Ġ282": 37988, "ĠFA": 6236, "tg": 42698, "610": 33375, "ATOR": 39261, "Example": 48837, "Cre": 40008, "Ġgeneration": 2706, "ĠEditor": 8627, "wp": 12251, "150": 6115, "Ġ339": 36885, "sr": 37959, "ython": 49006, "ĠId": 10367, "*": 3226, "sis": 20394, "337": 32620, "TS": 2685, "Ġcommit": 6225, "A": 250, "ded": 17452, "IR": 5216, "110": 11670, "If": 1106, "pack": 12486, "IL": 3063, "icht": 5398, "574": 39629, "ĠLeft": 10039, "Next": 19192, "mod": 14377, "ĠPre": 5048, "Split": 46744, "MAP": 43861, "PORT": 20275, "697": 38719, "models": 43457, "pass": 10212, "rd": 2586, "erer": 7160, "Down": 17853, "auth": 46217, "phys": 39409, "VL": 38813, "Ġmembers": 453, "ĠInt": 7299, "Create": 44758, "ath": 2681, "It": 243, "roups": 46898, "Plus": 27576, "190": 20109, "Ġ115": 12312, "ĠLi": 5991, "asures": 42832, "Per": 20823, "API": 40104, "ĠString": 26602, "eta": 8152, "Pot": 35516, "ĠV": 468, "new": 4651, "Ġsurround": 21104, "bus": 18924, "alone": 22446, "cases": 28162, "Pat": 18276, "Ġoffset": 6147, "601": 38613, "Ġ429": 40567, "Ġincor": 45564, "Ġmode": 5745, "za": 2478, "only": 8338, "ame": 4344, "enger": 24290, "Head": 28873, "ual": 5564, "order": 10337, "Char": 42379, "760": 31222, "Run": 33177, "yes": 10932, "counter": 24774, "head": 3628, "Ġdetermined": 3030, "596": 39157, "Rot": 44497, "1016": 45820, "ties": 23664, "Fe": 29037, "NA": 4444, "generic": 47663, "Adapt": 46874, "ĠTransformation": 32742, "Ġ342": 28911, "AB": 4546, "base": 11070, "ency": 6761, "graded": 9471, "Soft": 38805, "Conservative": 43381, "Ġ355": 37415, "455": 31546, "Ġreferenced": 19800, "distance": 27861, "320": 17655, "iling": 7022, "Mal": 18764, "lb": 17243, "384": 35324, "ĠService": 1841, "seconds": 43968, "obj": 46134, "Context": 48522, "Ġ970": 34429, "Ġserved": 1665, "Ġbase": 1542, "eder": 11736, "167": 25540, "automatic": 27106, "iterator": 49861, "Ġassoci": 40274, "ĠStarting": 11677, "Na": 30612, "Then": 12948, "ĠHAVE": 27789, "ĠPM": 2784, "detail": 41467, "Give": 31033, "Ġ255": 28080, "Ġmean": 1266, "Ġports": 9507, "route": 37745, "Ġ82": 7383, "ONT": 34874, "ĠPATH": 43627, "Ġimpl": 12956, "smart": 22914, "178": 28799, "172": 29250, "Ġrequired": 1552, "\"-": 34133, "Eva": 46672, "good": 8396, "ENT": 5382, "Ġwarnings": 8383, "icon": 17505, "CN": 29990, "STATE": 45380, "CT": 7164, "OWN": 14356, "cn": 24240, "Ġ>>": 8488, "Small": 34647, "INFO": 48050, "LV": 19996, "vision": 14675, "lus": 23761, "AT": 2571, "Empty": 47819, "input": 46797, "kl": 16291, "Man": 6407, "Ġ445": 40912, "10000": 47303, "Ġfastest": 6273, "378": 34890, "Ġ180": 8963, "ĠPackage": 31948, "Ġcoordinate": 18251, "949": 35862, "SP": 4186, "ories": 9023, "ĠJava": 24549, "defined": 30764, "essment": 38170, "BE": 8827, "host": 11438, "980": 36824, "Ġ119": 16491, "288": 29443, "Ġconnections": 7070, "ĠSTAT": 27023, "utz": 17602, "ea": 13184, "manager": 37096, "Ġ1000": 10775, "inal": 6204, "ĠUser": 27913, "fg": 41460, "pend": 43238, "ĠState": 331, "56": 4419, "rity": 38039, "Rev": 38494, "114": 20695, "pc": 17426, "--------": 49198, "EEP": 28142, "wd": 41564, "Ġ71": 6121, "pattern": 43106, "tt": 5967, "dis": 7779, "po": 5873, "ny": 2855, "Ġproperties": 3611, "ĠChecking": 44237, "disable": 48986, "Ġchange": 464, "itial": 48834, "ould": 25513, "ient": 4843, "815": 38828, "aging": 6257, "ĠReset": 45144, "ry": 1506, "ound": 9834, "Ġcode": 3260, "CR": 9822, "amera": 39194, "reset": 45703, "Eng": 35180, "Ġsc": 2850, "ĠNot": 1491, "meter": 15139, "Ak": 33282, "builder": 30511, "Ġresources": 1915, "ng": 2590, "witch": 32984, "ressor": 45401, "label": 33480, "sup": 35901, "app": 3340, "Col": 18551, "real": 8726, "android": 47899, "399": 26871, "param": 46669, "b": 428, "charging": 22874, "ĠOK": 4954, "Trans": 19163, "Ġ480": 26754, "machine": 37556, "VID": 43814, "KR": 13797, "jected": 31899, "ifi": 16665, "ced": 7618, "437": 38999, "ges": 5641, "Ġat": 23, "Ġ182": 25669, "Ro": 27110, "ĠF": 274, "bridge": 7820, "Hom": 37778, "din": 27228, "553": 39252, "ancy": 9875, "Fuel": 44920, "Moving": 41780, "rn": 27771, "Base": 34164, "952": 39918, "are": 1322, "2009": 23301, "ost": 2603, "classic": 41755, "low": 5481, "Ap": 36675, "Ġoverhead": 15258, "cil": 17286, "month": 2151, "h": 298, "ĠImport": 20891, "Protect": 41357, "ĠDriver": 16870, "687": 37399, "017": 35142, "umber": 9936, "NET": 13548, "mode": 42253, "Scope": 45190, "Ġfront": 760, "oke": 5361, "477": 20811, "poses": 38395, "281": 32071, "454": 35511, "Ġretain": 7615, "ERROR": 46734, "Ġ74": 6657, "ics": 2857, "Ġ157": 26289, "Delta": 38816, "Ġfeature": 1905, "enario": 34135, "spot": 27840, "135": 18508, "ĠSIL": 38322, "sch": 12265, "199": 21118, "................................................................": 48371, "Stop": 22174, "Definition": 47926, "768": 37293, "810": 35269, "-------------": 39550, "Ġknown": 684, "075": 36754, "n": 282, "Ġ91": 8301, "Ġto": 7, "gro": 15821, "ore": 1688, "Ġap": 6256, "ICH": 11938, "Ġdanger": 4854, "112": 17729, "]]": 48392, "chron": 30630, "Ġsec": 15636, "istic": 5580, "not": 3654, "iliary": 34114, "ĠPar": 2884, "Ay": 41585, "267": 28497, "ste": 6526, "Roll": 35436, "TEXT": 49347, "ad": 625, "127": 24174, "sing": 26058, "ĠUse": 7627, "dem": 12789, "anned": 12788, "793": 40832, "Ġplugin": 43201, "Platform": 46960, "Ġ428": 42829, "Ġ411": 37793, "perties": 48525, "alysis": 45253, "354": 34615, "search": 21061, "ler": 1371, "Def": 17425, "IER": 35875, "MENT": 12613, "Factor": 43622, "UD": 13083, "PAC": 35765, "168": 25676, "box": 8304, "Ġf": 856, "created": 27367, "19": 1646, "Ability": 47685, "Ġhelp": 244, "Ġmultiple": 1533, "USA": 9080, "ĠMAP": 36890, "Ġliteral": 27856, "true": 29225, "oster": 13991, "Ġsyn": 17796, "106": 18427, "tic": 13240, "855": 33450, "Ġarguments": 7576, "Attribute": 49385, "80": 2940, "Init": 49368, "Ġ270": 18673, "Ġyou": 47, "........": 42514, "oot": 9210, "Kenn": 39361, "ĠAdding": 16304, "JO": 39131, "ĠEc": 19722, "245": 24990, "Overall": 28965, "inate": 13014, "Ġ**": 13540, "vor": 23690, "porter": 35802, "427": 36610, "Tim": 23031, "325": 24133, "lease": 40871, "peed": 39640, "Ear": 45813, "HER": 21770, "Ġinvoked": 29198, "tell": 26316, "Old": 26605, "736": 39619, "over": 2137, "mm": 5471, "Ġpackage": 3737, "inf": 9433, "fen": 22132, "Ġgenerate": 5368, "v": 705, "jac": 39066, "47": 3706, "nel": 18902, "Ġtri": 7182, "767": 38504, "key": 5282, "Running": 42900, "acing": 7575, "Ġexported": 22332, "Energy": 30189, "Ġincluding": 217, "memory": 44290, "Ġen": 1177, "SS": 8108, "DE": 10089, "struct": 25384, "Clear": 18938, "gra": 33822, "mb": 6648, "orting": 23817, "generated": 21842, "me": 1794, "595": 35305, "Ctrl": 48719, "Nick": 25602, "194": 30548, "795": 36346, "INT": 17831, "ef": 4550, "sim": 13092, "ze": 2158, "Storage": 46656, "Second": 32703, "554": 38500, "enth": 28249, "mn": 17673, "Ġissues": 743, "aneous": 33101, "285": 26373, "average": 20365, "tc": 42988, "418": 37182, "local": 18076, "Road": 32009, "ĠHTML": 23669, "<mask>": 50264, "656": 36431, "des": 10067, "Ġinstallation": 8809, "Adapter": 49617, "round": 3431, "ase": 3175, "ITION": 25815, "Primary": 46604, "Ġ199": 29272, "ĠDo": 1832, "Min": 20086, "ĠI": 38, "int": 2544, "ritical": 46492, "Changed": 49108, "713": 40349, "Obs": 40089, "305": 27062, "ARA": 19142, "Ġ418": 42928, "Ġcannot": 1395, "ĠReason": 31613, "588": 38318, "call": 16395, "ometer": 12687, "ca": 3245, "Ġerror": 5849, "524": 38803, "Ġstable": 4375, "Hit": 40900, "acc": 7904, "card": 6940, "335": 28020, "Ġstd": 49008, "Ġdisable": 33022, "ĠMAT": 25899, "Ġremoved": 2928, "699": 34024, "km": 7203, "ubuntu": 48099, "View": 22130, "ving": 6645, "Ġdont": 33976, "weather": 21693, "Ġexceeds": 23984, "ĠFore": 6311, "Host": 40534, "In": 1121, "Ġan": 41, "abs": 10155, "ĠEncounter": 44492, "KE": 6961, "TV": 2915, "DEC": 44579, "860": 34009, "Id": 28081, "Individual": 43174, "ĠFront": 7204, "rors": 38505, "293": 32329, "iel": 5255, "Far": 20680, "ĠCommand": 9539, "Ġrestricted": 9393, "date": 10672, "virtual": 42084, "ld": 4779, "ONE": 16646, "ub": 1792, "PLE": 26050, "trl": 48385, "Ble": 40370, "uring": 5206, "Ġ372": 41717, "important": 23022, "604": 33287, "Ġprovider": 3696, "ĠIssues": 28827, "Ġsuccessfully": 5116, "Ġfailed": 1447, "Ġkm": 6301, "ev": 3623, "nosis": 32444, "false": 22303, "oring": 5137, "ĠNumber": 12270, "Hi": 30086, "Ġ65": 3620, "ect": 9041, "field": 1399, "Ġ8": 290, "Spe": 29235, "ings": 1033, "Above": 42599, "ĠStandard": 5787, "Ġ201": 21458, "Random": 45134, "ham": 1908, "P": 510, "330": 21190, "alled": 9315, "anced": 16325, "Ġallowed": 1220, "Ġabout": 59, "ress": 5224, "Ġdiffer": 10356, "Times": 18921, "quest": 23627, "zu": 18372, "otion": 19187, "Current": 42124, "New": 4030, "Ġdefine": 9914, "ĠSk": 4058, "545": 36751, "afe": 20120, "UF": 29457, "615": 36227, "Ġactive": 2171, "Speed": 35295, "eral": 6653, "Ġdecimal": 46421, "AM": 2620, "½": 10809, "Ġmapped": 33493, "Veh": 45691, "I": 100, "ATED": 5161, "681": 38149, "Override": 49116, "fn": 42441, "strom": 10544, "second": 10815, "api": 30602, "ĠCentral": 1505, "micro": 35228, "boost": 33934, "Two": 9058, "GE": 8800, "RESULTS": 49043, "ing": 154, "special": 19423, "--": 5579, "Ġaut": 7241, "Ġ89": 8572, "ĠAc": 6208, "271": 32145, "scription": 25120, "Simple": 45093, "Ġexclude": 18717, "ategy": 41220, "----": 44259, "ĠR": 248, "319": 33410, ".............": 49170, "Ġdid": 222, "Ġexist": 5152, "Ġg": 821, "an": 260, "Ġ221": 31488, "ha": 1999, "Body": 41024, "MAC": 41458, "Ġ\\": 44128, "Ġl": 784, "Ġparameter": 43797, "Ban": 33809, "Ġcoun": 30335, "range": 9435, "post": 7049, "748": 39373, "gin": 11405, "Ġinstall": 8486, "vironment": 49225, "cu": 16312, "arks": 15921, "reflect": 39878, "FORM": 38036, "[": 10975, "contin": 27887, "formed": 10312, "794": 40528, "Ġdeleted": 13908, "html": 6660, "Ġexceed": 11514, "FIR": 39679, "meta": 46876, "241": 31576, "ister": 4742, "ĠTe": 2941, "ĠLA": 5168, "ĠBy": 870, "ble": 5225, "En": 16040, "Enabled": 48582, "ma": 1916, "script": 32761, "218": 30487, "Pan": 34263, "factor": 31192, "Mode": 47062, "Dep": 29774, "NG": 5054, "ĠParking": 23304, "dom": 12623, "izer": 6315, "Drive": 29279, "ss": 7485, "hist": 32001, "responsible": 37581, "aster": 8831, "ĠContainer": 37424, "HA": 6826, "10": 698, "Ġoutputs": 39512, "DEBUG": 49837, "Hill": 32911, "Ġconfigured": 36614, "ASE": 24199, "ĠCre": 12022, "cause": 27037, "ĠMin": 3635, "Job": 43128, "fy": 24382, "175": 16925, "019": 36632, "br": 3809, "sys": 43103, "1080": 41305, "Country": 36735, "O": 673, "False": 46659, "Service": 32537, "043": 41665, "deg": 28904, "Ġdefin": 32888, "1974": 44880, "Ġrouting": 33819, "road": 14288, "782": 40092, "ren": 2558, "Ġcould": 115, "Ġ%": 7606, "609": 37295, "Ev": 25377, "Report": 20697, "ank": 3153, "301": 28167, "Names": 47995, "Ġ432": 40870, "reference": 45927, "onic": 10003, "temp": 47946, "Ġworkflow": 32209, "Array": 48222, "ws": 12240, "Ġcharacters": 3768, "Ġ61": 5659, "2016": 9029, "turn": 15922, "Ġ79": 7589, "Users": 46110, "Priv": 47494, "sit": 23428, "query": 48360, "orks": 41250, "tab": 34108, "Ġ??": 42254, "Disk": 43766, "Ġpara": 3840, "ff": 3145, "bil": 25799, "Touch": 40121, "ek": 1951, "NO": 13449, "Ġcases": 1200, "ression": 21791, "Analysis": 43932, "ĠAnother": 2044, "Ġfuture": 499, "val": 6486, "ĠEnding": 38202, "Ġdes": 2694, "ĠExec": 20297, "ĠBasic": 17255, "603": 37663, "setting": 19624, "Ġego": 21450, "Ġextr": 36786, "Ġexplicit": 16045, "esm": 47263, "Cap": 15791, "Ġdi": 2269, "880": 32954, "und": 3194, "LL": 6006, "force": 9091, "Move": 41389, "Sh": 3609, "004": 37114, "893": 40663, "102": 17024, "234": 28621, "Ġ750": 16725, "wrapper": 49247, "62": 5379, "ĠExplorer": 26318, "PD": 6153, "Ġ385": 39794, "bers": 9569, "board": 4929, "PT": 10311, "Address": 46486, "session": 39035, "Ġconnecting": 9809, "Height": 48674, "Spec": 45032, "96": 5607, "2010": 24789, "Ġtermin": 19022, "erm": 8362, "Ġdefined": 6533, "ros": 3985, "375": 21353, "rical": 36057, "ranged": 46993, "Ġnamespace": 49010, "137": 25319, "ometry": 40899, "ĠPassenger": 32763, "Ġ--": 480, "iever": 38579, "Ġtest": 1296, "40": 1749, "~~~~": 49130, "che": 2871, "rou": 8508, "void": 47908, "es": 293, "514": 39335, "Ġ81": 7694, "nor": 21651, "Ġ86": 8162, "access": 28300, "etc": 42624, "Ġ68": 5595, "hz": 39569, "ede": 12820, "376": 35422, "92": 6617, "ĠVertical": 34813, "Ġwas": 21, "oping": 12232, "changes": 34980, "714": 37901, "ĠPo": 6002, "Subscribe": 41848, "Master": 32187, "WORK": 45213, "473": 37887, "Foot": 43244, "zip": 39017, "report": 7415, "vious": 24963, "Ġchanged": 1714, "BG": 33887, "rad": 7822, "af": 2001, "ache": 7374, "get": 6460, "plant": 19520, "AMS": 31864, "nan": 10197, "ĠJ": 344, "ĠPrecision": 29484, "ALTH": 33086, "Ġ\"/": 48789, "Sec": 33099, "0": 288, "ĠBus": 6926, "Ġdefinition": 8515, "Gear": 45298, "SB": 12380, "Ġre": 769, "Gener": 40025, "Send": 42735, "ĠDirectory": 44366, "ĠCRC": 43444, "att": 2611, "ilation": 29357, "set": 8738, "iz": 1210, "FIG": 46741, "App": 19186, "Ġ29": 1132, "math": 40051, "187": 30024, "throw": 26003, "rick": 7100, "entry": 12595, "l": 462, "310": 23417, "etary": 33267, "Do": 8275, "arg": 5384, "625": 27786, "Ġoutput": 4195, "Eye": 29925, "ĠNOT": 8127, "309": 31573, "HY": 32288, "Quality": 45065, "24": 1978, "618": 33225, "Ġmerged": 21379, "Ġ&&": 48200, "Unique": 47814, "ruck": 20777, "comm": 24302, "Acc": 36984, "itudinal": 46212, "LOCK": 45268, "Te": 16215, "07": 3570, "hw": 30826, "Response": 47806, "unction": 38665, "546": 39405, "t": 90, "Ġ455": 40840, "ĠVER": 37616, "Ġjunction": 23043, "Crash": 46856, "ĠWaiting": 34844, "framework": 48019, "ĠG": 272, "cap": 10906, "506": 36647, "FOR": 27201, "ently": 7240, "PC": 4794, "independent": 32982, "Ġ435": 33732, "Buffer": 49334, "TYPE": 48710, "130": 11343, "trans": 9981, "atio": 42623, "Ġpo": 4202, "262": 29630, "Package": 48680, "ĠFile": 8655, "name": 13650, "ĠChannel": 5331, "md": 26296, "ation": 1258, "Charge": 44136, "compliance": 33182, "tm": 26989, "03": 3933, "aries": 5119, "non": 13424, "track": 16026, "Inc": 34366, "WD": 18101, "cycles": 43407, "Ġ360": 10253, "Ġ5": 195, "Ġ45": 2248, "load": 16204, "stab": 41842, "WE": 9112, "gen": 4138, "ANG": 9298, "process": 31931, "ork": 9657, "380": 19148, "inking": 18957, "412": 31185, "Ma": 25447, "metry": 42600, "576": 39617, "ocol": 23558, "ĠBe": 1456, "cess": 19348, "Ġlog": 7425, "324": 35225, "409": 34295, "ext": 16435, "bug": 37148, "Non": 33239, "ainer": 22022, "ĠN": 234, "Ġ21": 733, "Msg": 49680, "directory": 48626, "strong": 8355, "930": 35493, "Aug": 20415, "ĠEn": 2271, "].": 8174, "Variable": 49029, "Switch": 45112, "i": 118, "icked": 14851, "ĠImplementation": 39046, "ĠInterface": 39322, "Ġ26": 973, "ĠMax": 4471, "Power": 20645, "Ġstruct": 29916, "LG": 38820, "Ġfully": 1950, "Mask": 47661, "arn": 4422, "rent": 9854, "ĠWork": 6011, "Ġnaming": 14221, "Ġhighest": 1609, "cb": 38133, "Listener": 48887, "597": 39819, "Ġtoo": 350, "Mil": 28151, "ig": 1023, "Ġremoval": 7129, "Ġswitch": 5405, "AIN": 33178, "essage": 49528, "Bench": 46131, "Global": 18811, "ĠTarget": 8506, "ĠOUT": 14662, "acy": 5073, "623": 39196, "request": 16604, "rop": 6884, "Ġanother": 277, "Rain": 23074, "Ġ92": 8403, "Care": 16431, "apt": 14455, "Dom": 39914, "cf": 19911, "Remote": 46866, "be": 1610, "dot": 33369, "e": 242, "Ġjson": 49133, "<unk>": 3, "590": 33933, "ters": 2696, "Ġbranches": 9836, "cp": 30216, "KO": 21738, "ĠO": 384, "MODE": 49523, "video": 14406, "response": 41510, "Ġsupported": 2800, "81": 6668, "gger": 36690, "Ġ720": 26180, "ĠActive": 14818, "243": 30320, "Ġparameters": 17294, "993": 41455, "608": 36874, "Ġ416": 34509, "SO": 14587, "ĠLe": 1063, "TOP": 28332, "Ġd": 385, "780": 33066, "UTC": 41934, "Ġy": 1423, "ied": 2550, "PS": 3888, "ĠFORM": 45460, "Bound": 46827, "Connector": 49605, "bid": 27607, "Message": 42394, "omp": 7474, "Handler": 49191, "ergy": 34043, "Br": 16366, "code": 20414, "];": 44082, "Ġtook": 362, "Ġspecific": 2167, "215": 24355, "stat": 24344, "inks": 12935, "collect": 32177, "Ġleast": 513, "Ġ266": 37286, "wei": 21225, "}.": 48634, "407": 34539, "password": 46880, "etch": 29094, "gorith": 45909, "andom": 46861, "370": 21713, "Ġ344": 40761, "power": 11017, "Ġrunning": 878, "¿": 9470, "ats": 2923, "bool": 46787, "Left": 39961, "Han": 39531, "inite": 42524, "oss": 5434, "ags": 8299, "179": 26340, "915": 38405, "ĠErr": 47311, "dn": 26812, "DM": 25652, "keys": 18161, "ipping": 11813, "ended": 6228, "frequency": 36274, "xml": 47858, "Ġteam": 165, "729": 40125, "334": 33325, "Ġcollecting": 8664, "GY": 21661, "TP": 15993, "439": 38671, "ĠDe": 926, "allel": 44682, "cker": 8956, "PE": 16035, "policy": 34571, "press": 13447, "231": 29949, "ative": 3693, "1500": 36559, "ont": 2533, "cel": 9736, "osite": 42934, "Ġconstraint": 39816, "Ġ38": 2843, "Ġport": 4103, "MA": 5273, "Exp": 39891, "214": 27153, "6": 401, "Ġloading": 16761, "ĠCBS": 3710, "copy": 44273, "disk": 47340, "arf": 21377, "Sync": 41342, "GBT": 47872, "sol": 29837, "Generic": 49144, "upload": 47571, "875": 29271, "SAM": 45159, "complete": 27527, "ĠD": 211, "Fake": 38193, "ave": 4097, "omic": 30344, "Ent": 30495, "686": 37289, "Bit": 36918, "ĠCommunication": 17051, "Intern": 46652, "Ġ!": 27785, "Ġ235": 27089, "Table": 41836, "CU": 38260, "slow": 33234, "Ġnon": 786, "995": 30739, "ĠServer": 30472, "SD": 6243, "angles": 38756, "Sch": 18077, "Ġpatterns": 8117, "object": 40412, "ffic": 22968, "written": 23460, "88": 4652, "lay": 8433, "Ġ160": 10572, "ĠNo": 440, "Ġconsumed": 13056, "Ġstate": 194, "Ġinitial": 2557, "swe": 35047, "033": 40958, "text": 29015, "20": 844, "Ġexce": 24395, "Integer": 49740, "ĠStand": 13371, "Ġstartup": 9143, "ĠThis": 152, "sign": 13033, "Ġsigned": 1419, "lean": 21926, "340": 24334, "Grid": 41831, "799": 33333, "isting": 15528, "Ġevent": 515, "Ġboolean": 49378, "Ġ406": 40851, "Prov": 35746, "Ġinit": 45511, "640": 31419, "vari": 41554, "Mom": 29390, "ax": 3631, "gu": 5521, "Works": 26025, "Ġbeen": 57, "Stat": 41706, "functional": 38922, "703": 37106, "resp": 36217, "Ġlength": 5933, "neg": 23156, "710": 36867, "ĠFixed": 28092, "ursive": 47779, "Ġamp": 28127, "Ġ30": 389, "ri": 1069, "om": 1075, "Ġ246": 35303, "mediate": 30771, "ming": 7059, "896": 41256, "ĠAt": 497, "Online": 19449, "488": 36120, "between": 25784, "Ġlib": 21748, "rf": 29898, "builders": 32798, "build": 23411, "one": 1264, "Ġ[]": 48081, "357": 30628, "ttp": 48741, "WARNING": 46112, "remote": 46310, "camera": 25092, "try": 33869, "case": 11173, "Ġnow": 122, "Ġadapt": 9037, "Ġio": 46155, "vl": 41350, "fl": 4825, "Ġtrigger": 7691, "990": 27204, "default": 43234, "ALT": 18119, "a": 102, "ension": 17699, "terior": 33989, "422": 37319, "element": 46168, "Tar": 42183, "402": 34324, "avior": 47475, "ag": 1073, "Ġspecification": 30643, "dl": 30469, "Ġb": 741, "lear": 35467, "Ġphysical": 2166, "diagn": 37445, "li": 3572, "Ġdropping": 6614, "Control": 43405, "Ġlar": 42405, "568": 40204, "Ex": 9089, "Ġ458": 42513, "art": 2013, "NP": 10949, "866": 30205, "Ġdata": 414, "Ġ97": 8783, "Ġrange": 1186, "Ġexecution": 7356, "ei": 13862, "Ġsed": 10195, "94": 6405, "QU": 15513, "338": 32088, "Tex": 40175, "ever": 6294, "704": 37871, "wi": 16631, "beh": 24170, "target": 23976, "Cond": 43597, "USE": 27291, "Ġcomplex": 2632, "ĠEnd": 4680, "url": 6423, "ĠControl": 6007, "Ġlink": 3104, "Uk": 40264, "Ġexcept": 4682, "ĠSettings": 29020, "Ġwithin": 624, "444": 29903, "SOURCE": 48560, "98": 5208, "Ġ50": 654, "276": 31782, "AME": 30104, "Turn": 30093, "ĠISO": 26553, "MIC": 45717, "Call": 20653, "745": 35868, "436": 38324, "Settings": 47718, "Rep": 22026, "Ġrebuild": 9648, "orrect": 42892, "Safe": 32356, "ĠCritical": 31725, "CAR": 22965, "Ġcompile": 33172, "ĠAP": 1480, "She": 2515, "Ġincompatible": 37228, "1994": 41525, "675": 32103, "pos": 11474, "ynchron": 47999, "Types": 48815, "474": 35761, "Met": 25869, "Abstract": 47638, "exec": 22342, "Ġlocally": 8094, "Imp": 30281, "iq": 19582, "onent": 40400, "Ġmust": 531, "657": 38530, "672": 39259, "Ġattributes": 16763, "NECT": 42849, "if": 1594, "ĠNO": 8228, "Ġ170": 12641, "562": 36950, "Conf": 33295, "Display": 47254, "listed": 11301, "347": 32532, "Ġbeing": 145, "Ġdirective": 16924, "230": 20352, "Set": 28512, "Ġ187": 29373, "TI": 13216, "ING": 1862, "Machine": 46100, "take": 16111, "Keys": 44534, "roll": 9671, "bol": 18217, "unk": 6435, "Summary": 47977, "Boot": 46689, "uter": 13080, "basic": 42607, "ĠComp": 10081, "Ġwere": 58, "09": 3546, "RS": 8105, "784": 40729, "backs": 6205, "Es": 15286, "ĠFOR": 5089, "Description": 41602, "ive": 2088, "BO": 7997, "ĠMo": 3713, "695": 34684, "And": 2409, "240": 18847, "ise": 1496, "Ġpack": 6356, "ME": 6570, "NULL": 49728, "STER": 32866, "lib": 34748, "290": 24675, "296": 32913, "Kal": 32604, "PUT": 42030, "Ġ44": 3550, "Ct": 47413, "TED": 43036, "259": 29961, "ILE": 30354, "Ġ191": 31487, "nm": 28235, "Ġtransformation": 7791, "opped": 35575, "Ġ204": 28325, "rat": 6528, "wl": 42448, "ĠProgress": 11679, "IO": 6454, "Ġ2024": 15294, "ĠBuilding": 6919, "Ġpasses": 3974, "norm": 42258, "Ġ250": 5773, "lement": 13767, "ava": 8604, "ech": 7529, "291": 33657, "048": 40976, "ĠChange": 7229, "Auto": 40845, "ISO": 43535, "LO": 19787, "414": 35980, "70": 3083, "tern": 18995, "TW": 29334, "ĠCON": 8748, "silver": 40706, "bytes": 46823, "Found": 29991, "ain": 1851, "Ġlogical": 16437, "Dur": 38178, "ard": 1120, "18": 1366, "978": 40583, "cross": 15329, "binding": 28378, "Gra": 42997, "396": 33275, "ĠT": 255, "Ġ181": 30085, "rough": 10344, "General": 9344, "feature": 44565, "rr": 28015, "Ġanywhere": 4558, "Ġintr": 19567, "nr": 37643, "ASC": 40230, "sight": 32764, "ka": 2348, "Tact": 48013, "FT": 11615, "gate": 7357, "ai": 1439, "ami": 5602, "ĠFields": 15502, "307": 31998, "Ġreceive": 1325, "ĠTN": 18671, "lif": 26264, "feld": 12706, "Ġresolved": 8179, "style": 5827, "ipment": 39737, "Det": 43170, "WP": 28435, "UL": 6597, "Ram": 32361, "ĠFinal": 6858, "const": 20836, "aro": 5191, "Ġbelongs": 12918, "command": 41483, "Ġline": 516, "server": 33806, "Ġremove": 3438, "Ġthat": 14, "Ġcompiler": 44904, "tery": 13237, "Ġmethod": 5448, "312": 29930, "Iterator": 49981, "Ġfetch": 23366, "Ġ___": 2165, "oder": 15362, "train": 21714, "Abs": 43610, "section": 22580, "wear": 10724, "Ġ177": 28664, ";": 131, "Ġv": 748, "Cause": 43326, "1988": 42853, "Ġ.": 479, "519": 39327, "289": 28390, "elt": 6607, "283": 32307, "362": 35665, "Ġ77": 6791, "ata": 2186, "WAY": 33520, "Fr": 29220, "53": 4540, "*.": 44460, "<pad>": 1, ">,": 48077, "std": 47717, "708": 36814, "Ġlogger": 37764, "Ver": 21119, "jack": 23018, "properties": 47276, "rieg": 38569, "Usage": 49270, "2004": 34972, "Ġh": 1368, "ĠType": 7773, "134": 25050, "Ġ389": 43281, "ĠSOME": 41812, "Ġvia": 1241, "ypes": 48951, "Ġdetermin": 26948, "FL": 7613, "uck": 5858, "version": 21747, "270": 21063, "Loading": 46691, "opening": 12211, "ate": 877, "sed": 28308, "443": 35741, "Dr": 14043, "796": 39526, "ground": 13981, "->": 46613, "464": 38888, "ĠGener": 15745, "Ġtests": 3457, "ority": 30969, "Ġ387": 43366, "Event": 44879, "Timeout": 49405, "iu": 9060, "Ġ265": 26022, "ĠSever": 26132, "ep": 2462, "266": 31353, "Ġright": 235, "Ġsuch": 215, "AW": 10751, "885": 37634, "Bo": 18935, "ys": 2459, "411": 35775, "Ġlines": 2301, "ce": 1755, "rule": 28523, "Ġsoon": 1010, "002": 19130, "Ġ330": 21006, "Ġmapping": 20410, "bd": 35470, "Di": 29038, "ĠThere": 345, "Ġruntime": 44190, "Ġtargets": 3247, "Ġwhich": 61, "ee": 1942, "ĠDATA": 35900, "Ġ36": 2491, "Vari": 48269, "Ġcan": 64, "Ġauto": 4485, "Ġseconds": 2397, "point": 2300, "Ġstage": 1289, "INTER": 46170, "Ġsp": 2292, "KEN": 41138, "014": 37631, "ies": 918, "Res": 20028, "at": 415, "ECD": 43663, "all": 1250, "but": 4297, "cluding": 19586, "ex": 3463, "Ġal": 1076, "home": 8361, "utation": 31320, "Index": 45673, "Ġmin": 5251, "Ġmod": 11134, "ocity": 36139, "Ġ::": 35965, "reports": 13685, "df": 36807, "Ġ56": 4772, "token": 46657, "anger": 8395, "cm": 13753, "1981": 44582, "he": 700, "$": 1629, "Front": 35985, "inc": 3976, "ysical": 45537, "Map": 41151, "Ha": 24017, "772": 38949, "Access": 35505, "class": 4684, "645": 33611, "Prot": 41377, "orter": 10679, "ilar": 16813, "Ġtarget": 1002, "617": 39372, "39": 3416, "isted": 15346, "Winter": 33120, "UST": 11120, "Ptr": 49835, "Ġhig": 46519, "Ġused": 341, "character": 23375, "Ġdef": 3816, "Ob": 24567, "Ġfound": 303, "AV": 10612, "ĠPro": 1698, "Ġ96": 8971, "Profile": 47555, "529": 37261, "ot": 1242, "Ġmeasures": 1797, "OTE": 28002, "691": 40572, "Ġexpanded": 4939, "lr": 35265, "Ġ171": 29810, "ets": 2580, "er": 254, "417": 36711, "003": 33490, "sf": 26649, "lon": 10849, "034": 41401, "ĠINTER": 20281, "inner": 12247, "System": 36383, "optional": 42029, "482": 37385, "ĠInfrastructure": 13469, "Chain": 32267, "pl": 2911, "Multiple": 43253, "ĠSm": 4966, "Ġ408": 31060, "uple": 45926, "712": 40944, "ĠInformation": 3522, "ĠW": 305, "646": 33075, "six": 13664, "Ġvi": 12987, "details": 45839, "conn": 22854, "Impl": 48455, "ipel": 29531, "save": 31575, "Yo": 33543, "Spr": 45165, "1993": 41655, "ĠUsing": 8630, "co": 876, "Ref": 31842, "</s>": 2, "single": 25382, "East": 17577, "Progress": 43881, "classes": 44770, "Gl": 16389, "Operation": 35360, "Ġ338": 39344, "Ġvalues": 3266, "python": 49119, "Until": 22392, "pb": 45306, "ĠCreated": 32966, "249": 25048, "dimension": 47987, "Ġ159": 28083, "Source": 7061, "ĠSign": 4313, "debug": 49208, "Aid": 33263, "Ġde": 263, "Ġpy": 19290, "Rad": 28243, "ĠAk": 3773, "oks": 17015, "Ġversion": 1732, "Local": 24476, "Bridge": 34206, "oc": 1975, "ĠCSS": 39887, "ists": 1952, "517": 39356, "anes": 11372, "Ġdo": 109, "commun": 27217, "guide": 43415, "STAT": 40106, "Ġparsing": 46563, "gr": 6504, "ĠGeneric": 43411, "apping": 12040, "Ġ34": 2631, "ily": 5846, "Ġbetter": 357, "bound": 4092, "multiple": 34654, "Ġo": 1021, "types": 41817, "formation": 26941, "ĠGain": 17191, "ĠDomain": 37291, "Mem": 35038, "sole": 37870, "taking": 16883, "inters": 38993, "private": 22891, "¼": 4394, "32": 2881, "Ġadaptive": 28760, "702": 36521, "iction": 26579, "VR": 13055, "ulation": 11264, "mission": 12478, "Flags": 48167, "577": 36447, "South": 10050, "ways": 5924, "268": 31145, "MM": 16261, "ven": 2987, "jc": 36699, "DK": 44097, "use": 3698, "332": 33911, "ability": 4484, "KEY": 33754, "1960": 41355, "ĠKon": 11272, "ow": 1722, "Against": 41634, "fil": 18419, "Ġ146": 24543, "ĠConfiguration": 47048, "0001": 27623, "Ġenum": 49562, "hon": 16769, "Ġlogging": 19980, "Ġstrip": 9572, "artifacts": 49504, "480": 27018, "ust": 4193, "Spring": 32858, "dr": 10232, "pped": 5686, "g": 571, "can": 7424, "Ġ950": 33702, "bp": 20794, "ording": 36473, "Ġ64": 4430, "Ġall": 70, "Ġar": 4709, "Runtime": 49779, "176": 29431, "Ġsettings": 9629, "Ġbu": 10306, "148": 26300, "prot": 36299, "asking": 30954, "toc": 40105, "Ġtools": 3270, "Ġchar": 16224, "Ġincluded": 1165, "Ret": 27814, "Ġtotal": 746, "Night": 31765, "Ġtime": 86, "Ġ184": 29546, "hu": 6455, "LOAD": 27822, "Ġindicator": 9189, "sub": 10936, "341": 34801, "ecast": 34989, "END": 9309, "Ġdirectory": 31826, "COLOR": 46038, "Ġthis": 42, "Ġ336": 34454, "682": 39593, "anka": 14391, "RM": 28580, "Ġalways": 460, "Fast": 35515, "sent": 19530, "based": 805, "alias": 47910, "hot": 10120, "ic": 636, "Ġlast": 94, "129": 21867, "afety": 46467, "ĠRed": 1211, "Ġproxy": 16453, "ill": 1873, "Proxy": 49115, "uming": 20016, "ĠMerge": 46417, "core": 7293, "219": 31105, "27": 2518, "Ġ28": 971, "Pi": 42293, "NR": 17085, "oad": 20657, "Component": 48767, "ero": 5160, "Ġbad": 1099, "ě": 50135, "AE": 16329, "assert": 46346, "making": 5349, "tree": 21512, "ĠAll": 404, "pm": 1685, "pec": 26512, "cht": 8797, "616": 39352, "ner": 1396, "eding": 13118, "Ġ220": 14576, "High": 18522, "Launch": 47269, "native": 34551, "connect": 24501, "cv": 38635, "ĠTra": 8221, "181": 30818, "Ġ59": 5169, "Li": 41198, "attribute": 49202, "res": 1535, "Ġknowledge": 2655, "257": 31297, "LB": 29920, "front": 9289, "NING": 19990, "5": 245, "ptr": 43880, "Ġdeclaration": 9394, "ku": 8644, "970": 35115, "SU": 10466, "Ġsynthetic": 16807, "form": 3899, "header": 24419, "uth": 5914, "ist": 661, "Elect": 31824, "OST": 13556, "Make": 18114, "phase": 35483, "Ġi": 939, "bind": 41744, "Ġ99": 6705, "igen": 8554, "ric": 4063, "enes": 39268, "Ġ219": 30419, "987": 40366, "465": 33544, "car": 5901, "ged": 4462, "483": 37932, "Ġmissing": 1716, "209": 27434, "Condition": 48156, "169": 28219, "sections": 45022, "\",": 1297, "WER": 45117, "rc": 22393, "lan": 6847, "Ġ85": 5663, "684": 37821, "CSS": 47394, "sn": 22617, "Ġuint": 49315, "TC": 6078, "438": 37736, "Mu": 38448, "Ġ188": 29576, "Ġlocate": 12982, "015": 33279, "Values": 48738, "multi": 42274, "store": 8005, "344": 31907, "TER": 7831, "Size": 45698, "ates": 1626, "down": 3955, "030": 37332, "DATA": 48242, "996": 39659, "BUS": 22295, "426": 37911, "Ġsee": 192, "884": 40903, "ji": 5186, "025": 36453, "fu": 23359, "ĠFor": 286, "ĠNexus": 28645, "ken": 6944, "moving": 19838, "2019": 10626, "Ġ[[": 48395, "Ġfatal": 6484, "WOR": 42204, "ww": 33130, "st": 620, "fig": 22699, "AK": 7140, "num": 42666, "ĠSample": 16269, "current": 28311, "Ġfr": 6664, "202": 25155, "stant": 20034, "ch": 611, "ine": 833, "pic": 19017, "ces": 4643, "Sim": 29656, "Physical": 46577, "Ġ55": 3490, "xc": 45421, "217": 30003, "Ġignored": 8266, "027": 40819, "bda": 48631, "Ġdetection": 12673, "CAN": 31448, "Ġexp": 4553, "points": 21996, "Repe": 34053, "Consumer": 42909, "Be": 9325, "irs": 21098, "Error": 30192, "application": 40545, "Ġ162": 25728, "Driver": 46022, "vent": 9399, "Ġtoken": 19233, "De": 13365, "Ġ267": 37000, "655": 35300, "Ġbits": 15239, "Ġ209": 28036, "Central": 25674, "Ġ347": 40199, "Ġcolumn": 6730, "Standard": 35167, "Ġhandle": 3679, "15": 996, "Ġcorrectly": 12461, "cert": 25782, "CL": 7454, "Ġconsolidate": 19752, "ission": 27042, "Ġconstruct": 12558, "Ġrepresentation": 8985, "Ġcert": 21045, "Ġassign": 28467, "From": 7605, "rix": 15072, "greg": 40745, "zz": 7399, "Disable": 49392, "Ġperformed": 3744, "558": 38578, "65": 3506, "Rate": 45630, "during": 37460, "Gb": 43608, "FW": 18514, "Search": 39954, "function": 35435, "AR": 2747, "large": 11802, "extra": 30842, "ĠIns": 6326, "flag": 30160, "codes": 43892, "verage": 33943, "yle": 14143, "rs": 4926, "ĠMessages": 34692, "#": 10431, "Ġ436": 43319, "ht": 6083, "Bs": 28720, "Ca": 38593, "Close": 42841, "images": 39472, "osition": 21553, "Viol": 40883, "Ġwarning": 2892, "dev": 20068, "Cut": 40992, "rust": 23705, "github": 48340, "Ġinstance": 4327, "ql": 44306, "Comb": 42606, "Ġone": 65, "628": 38075, "dat": 36146, "122": 21948, "Ġstatic": 25156, "Eh": 45435, "Ġhost": 1482, "Der": 34788, "Ġbec": 44949, "initialized": 49722, "ions": 2485, "Ġ197": 31633, "727": 39125, "650": 16316, "ĠMOD": 35179, "Ġspecified": 17966, "Hold": 12250, "ber": 1943, "osi": 15879, "Dest": 42551, "Ġ280": 20688, "Auth": 44298, "count": 11432, "SC": 3632, "nn": 15688, "****": 30115, "336": 27624, "419": 37383, "Ġ211": 26763, "080": 32089, "04": 3387, "Ġcreated": 1412, "availability": 39798, "HL": 8064, "occ": 23462, "663": 39505, "scribe": 36037, "ffer": 23926, "ta": 4349, "ĠUnable": 39226, "Loop": 47736, "560": 30207, "Ġ390": 35058, "except": 26837, "dB": 45189, "747": 38886, "Sample": 47241, "ĠUN": 2604, "auer": 9994, "Ġ15": 379, "IZE": 41697, "158": 26758, "ST": 4014, "WB": 36489, "ĠAM": 3326, "Ġ}": 35524, "ĠLog": 9359, "374": 35208, "update": 45061, "exit": 44054, "105": 15274, "ĠSY": 18132, "ĠMessage": 32236, "Tab": 45561, "sv": 36245, "322": 34411, "lev": 9525, ".....": 38917, "alle": 11186, "145": 16504, "Ġconstructor": 47073, "tip": 39080, "Lib": 37688, "sh": 1193, "Self": 39762, "138": 25352, "Ġ262": 35523, "ye": 4717, "496": 37770, "372": 34322, "clude": 46962, "953": 41663, "43": 3897, "674": 38715, "ĠGlobal": 1849, "400": 4017, "ternal": 46378, "CE": 8041, "ostic": 31831, "ĠExecution": 44396, "before": 23033, "windows": 47748, "unc": 23735, "774": 39786, "ceived": 31597, "PO": 14465, "Ġpar": 2242, "222": 16986, "685": 36766, "ĠSafety": 5264, "Ġ451": 40212, "Ġ41": 3492, "484": 37810, "Ġcongr": 41645, "ml": 18517, "Dev": 30504, "Same": 42271, "1024": 47477, "425": 28171, "both": 17143, "Ber": 26795, "ĠEvent": 11373, "Bl": 12654, "SE": 3388, "Ġkeyword": 36585, "Each": 20319, "ective": 38089, "116": 22418, "ĠJSON": 47192, "Ġinterface": 12332, "Ġlane": 6625, "630": 31181, "Ġfollows": 3905, "Ġ357": 41512, "152": 27097, "ende": 14537, "ĠSH": 4584, "BL": 7976, "316": 35092, "now": 8310, "154": 25983, "uld": 29982, "Ġproject": 695, "f": 506, "PH": 7561, "55": 3118, "140": 14753, "ER": 2076, "hard": 9635, "Ġalready": 416, "Const": 35319, "Prof": 42133, "303": 29274, "ĠSet": 8504, "Pref": 48670, "bits": 32131, "Ins": 19751, "pointer": 10475, "ause": 17498, "Ġ196": 31057, "dep": 17272, "ĠHeart": 6924, "Engine": 13929, "Mid": 30238, "de": 2794, "Ġcorrect": 4577, "Ġsim": 16207, "image": 20094, "Ge": 20981, "itude": 11964, "Real": 17105, "urrent": 41937, "Warning": 43370, "resources": 40897, "OK": 9335, "Ġ287": 36286, "hd": 35905, "040": 36016, "puter": 48428, "97": 6750, "8000": 42412, "ĠDespite": 2285, "ype": 37356, "2000": 17472, "910": 36991, "cl": 3998, "2002": 31099, "888": 22410, "ION": 7744, "236": 29936, "Ġmigrated": 34163, "Ġdifferent": 430, "ĠFlex": 19948, "MON": 20911, "learn": 38229, "DIS": 37056, "ital": 8632, "Max": 19854, "339": 31994, "obs": 14247, "364": 34639, "Aff": 41085, "Ġ310": 25444, "light": 6991, "active": 12228, "593": 39785, "fb": 36028, "parser": 49743, "Ġpoints": 332, "544": 38944, "Ġ600": 5594, "os": 366, "CRE": 45503, "Eth": 42301, "tests": 47173, "ator": 2630, ":-": 36185, "%": 207, "228": 29185, "mart": 15964, "Me": 5096, "Ġ-": 111, "500": 1497, "292": 31707, "stop": 8287, "wo": 14869, "upper": 34849, "health": 14388, "Open": 25266, "Ġkind": 761, "ĠMore": 901, "en": 225, "Ġhttp": 2054, "ĠTEST": 41759, "ĠLoaded": 45759, "Ġreturned": 1835, "Ġ503": 34531, "inv": 24701, "323": 32624, "Ec": 44220, "286": 30168, "iter": 8660, "Pers": 43020, "after": 10669, "33": 3103, "includes": 25142, "`.": 49024, "YP": 41603, "Ant": 18348, "!": 328, "bm": 43531, "ract": 15664, "byte": 47692, "au": 1180, "Ġ1050": 43504, "Debug": 49714, "tz": 12527, "392": 36350, "um": 783, "192": 29362, "source": 17747, "Helper": 48825, "itted": 16430, "atible": 45740, "Att": 28062, "DF": 9380, "ohm": 43275, "ĠApr": 14830, "Ind": 15248, "Writer": 45489, "08": 3669, "ĠServing": 35586, "########": 49727, "clean": 28401, "protected": 37659, "Ġblack": 909, "05": 2546, "Ġ172": 28628, "RES": 32030, "118": 21369, "Ġcurrent": 595, "Ġfolder": 32038, "LI": 27049, "users": 31964, "79": 5220, "678": 37628, "iste": 18495, "ĠGeneration": 17362, "M": 448, "entity": 46317, "ational": 5033, "Ġ420": 26748, "ID": 2688, "cpp": 49317, "atus": 29913, "dates": 19718, "Ġmeans": 839, "S": 104, "Ġsystem": 467, "stable": 33435, "sym": 45266, "PATH": 48468, "1001": 45792, "Ġenvironment": 1737, "ĠLoss": 19700, "IAN": 10296, "Always": 37478, "326": 35766, "Ġoperation": 2513, "1800": 38510, "OTHER": 30991, "ĠFULL": 25054, "sk": 7771, "la": 2560, "413": 36108, "Ġrequesting": 14030, "ature": 18830, "ars": 2726, "Look": 15833, "wr": 26522, "294": 32004, "orted": 25654, "Ġactivities": 1713, "159": 27129, "json": 40962, "Ġ...": 1666, "our": 2126, "H": 725, "Ġdependencies": 45371, "183": 30662, "Ġ388": 41109, "Temp": 47971, "tim": 10519, "ĠBundle": 40876, "ading": 8423, "317": 32072, "Sup": 41192, "solid": 34887, "Ġph": 7843, "775": 28801, "pper": 5961, "pha": 44641, "Native": 45339, "ĠBMW": 8588, "Update": 39962, "Bed": 44391, "leted": 36140, "ult": 6070, "ify": 4591, "649": 33787, "Ur": 38046, "800": 3913, "pping": 5435, "row": 4610, "Ġinstead": 1386, "emon": 34344, "1007": 47281, "Ġx": 3023, "Race": 40246, "Shift": 45161, "Ġ164": 27983, "Supp": 33661, "Ġcounter": 3231, "Ġpath": 2718, "Ġbecause": 142, "Stand": 36303, "aff": 3707, "Ġaddressing": 6477, "886": 40294, "Ġunused": 23797, "tax": 11755, "eu": 25171, "Ser": 28498, "Wr": 44142, "197": 30586, "Topic": 48931, "ĠCon": 2585, "zl": 30094, "ĠCluster": 41261, "Ph": 17297, "Ġ127": 20598, "total": 30033, "Ġimport": 6595, "],": 7479, "La": 10766, "Ġthese": 209, "mun": 20614, "Sound": 40866, "da": 6106, "cpu": 49345, "450": 13872, "Ġ173": 30011, "Hor": 39389, "Sen": 24365, "sy": 8628, "35": 2022, "ANC": 9363, "Ġcoefficient": 45979, "ur": 710, "SR": 17973, "shed": 43914, "bat": 12161, "vr": 37032, "LESS": 43023, "amic": 21515, "Feed": 37464, "060": 37143, "nos": 29708, "Lv": 46771, "Ġ176": 28558, "Ġatomic": 21495, "gui": 42299, "DL": 26109, "uid": 29897, "User": 44518, "PN": 21824, "251": 32306, "with": 5632, "Scale": 43737, "Due": 28084, "ination": 8111, "Ġfunctionality": 14749, "ini": 2531, "mess": 38177, "635": 38027, "Ġ131": 22236, "Ġdoesnt": 47320, "RET": 36995, "1100": 40830, "erve": 14477, "su": 9228, "Ġ978": 42154, "Ġ203": 23041, "Ġproper": 4692, "\"\"": 48149, "On": 4148, "Work": 21461, "Ġdown": 159, "CP": 7496, "Ġrepresent": 3594, "view": 5877, "err": 14385, "600": 4697, "allow": 25487, "?": 116, "147": 26629, "Ġtiming": 5801, "gy": 4740, "77": 4718, "ster": 3121, "fts": 21811, "zh": 13808, "1995": 41295, "acer": 11937, "Ġas": 25, "Ġfirst": 78, "MET": 43543, "238": 29567, "Ġ163": 28158, "ĠSt": 312, "416": 30950, "1992": 41073, "cli": 48556, "Kay": 28421, "hal": 11124, "Rod": 30055, "Ġ,": 2156, "Ġencrypted": 25972, "Ġ161": 27965, "233": 29291, "Fest": 27170, "Ġ33": 2357, "uration": 27975, "Lo": 25419, "ac": 1043, "Ġforecast": 1914, "design": 23414, "52": 4429, "100": 1866, "stem": 40859, "ents": 4189, "UE": 9162, "Ġ444": 37067, "ĠM": 256, "dir": 41292, "spr": 34069, "Ġdownload": 4016, "man": 397, "Ġma": 9131, "Ġ132": 19376, "ĠCustom": 16583, "ELL": 25322, "next": 25616, "DO": 19174, "ĠKE": 37112, "Ġ440": 28170, "ATURE": 35576, "Ġapplication": 2502, "RAM": 19496, "NUM": 46758, "loop": 31290, "ĠAut": 9496, "Method": 47967, "Pay": 24522, "994": 40690, "button": 32135, "Ġcoverage": 1953, "uces": 41235, "zer": 6403, "277": 31262, "ĠVector": 40419, "Ġtemporary": 4667, "am": 424, "My": 2387, "ab": 873, "processing": 39221, "Ġinternal": 3425, "k": 330, "ali": 3644, "160": 13726, "052": 40717, "features": 46076, "Summer": 30913, "arget": 45358, "hy": 11108, "Ġ999": 31740, "ift": 9417, "nen": 19596, "context": 46796, "314": 35111, "beta": 44263, "ast": 1988, "Ġno": 117, "Ġmandatory": 8549, "Active": 42586, "1027": 48636, "Ġ9": 361, "find": 26559, "reader": 40536, "Read": 25439, "0000000": 45121, "der": 3624, "Ġrel": 6258, "783": 40184, "ĠEngine": 20008, "Ġperf": 32168, "List": 36583, "Copy": 48233, "Ġ93": 8060, "change": 14035, "ba": 3178, "sa": 11146, "Ġ303": 31218, "Ġbefore": 137, "ess": 3361, "ints": 28954, "fol": 22588, "ittance": 35926, "050": 25423, ".*": 26487, "Ġskipping": 26756, "ĠHTTP": 44454, "246": 30676, "Ġ359": 40598, "Ray": 24185, "Ġ800": 5735, "Ġprobably": 1153, "gel": 24612, "bn": 6316, "206": 27639, "ĠDi": 3643, "Ġc": 740, "progress": 38265, "r": 338, "509": 37046, "AD": 2606, "scan": 43511, "do": 5016, "Dir": 47608, "3": 246, "plugin": 49391, "link": 12139, "Entity": 49448, "ĠLogic": 35078, "color": 21685, "ribute": 25006, "onomous": 24239, "792": 39739, "West": 9634, "Th": 11329, "Contact": 43354, "Spawn": 49475, "quarter": 4409, "ĠSIG": 38499, "Ġlinux": 48523, "im": 757, "Domain": 48527, "ward": 7767, "Ġ292": 37299, "61": 5606, "matched": 38331, "initial": 45696, "75": 2545, "group": 13839, "Pos": 42848, "stract": 47796, "Range": 43430, "OC": 4571, "ure": 2407, "Element": 46331, "so": 2527, "Ġbe": 28, "Ġboth": 258, "Once": 11475, "ĠDEM": 33474, "Project": 33347, "184": 29023, "ĠThe": 20, "229": 26957, "Ġ62": 5356, "once": 25252, "Ġ620": 35794, "MAX": 30187, "Ġ{": 25522, "ĠConst": 11242, "Return": 42555, "atable": 18564, "940": 36509, "Ġ51": 4074, "oline": 18675, "78": 5479, "KA": 14559, "results": 38547, "Ġnumerical": 37920, "zing": 10293, "watch": 11018, "lash": 42044, "Ord": 43670, "ĠThose": 2246, "Fac": 46166, "Ġ378": 41823, "Ġ37": 2908, "KY": 11490, "ĠSG": 16324, "bit": 5881, "Ġ<": 28696, "Rem": 31157, "ĠInvalid": 38539, "ASS": 17042, "Ġdomains": 30700, "reach": 18645, "778": 35534, "Ġass": 8446, "511": 38900, "alpha": 29135, "space": 25414, "Ġgiven": 576, "ular": 8244, "area": 7907, "ĠReading": 4913, "register": 29662, "tta": 16597, "Ġoptions": 1735, "ĠProvider": 31314, "cent": 6342, "interface": 47888, "Ġstill": 202, "Ġ48": 2929, "ĠUTC": 33440, "HR": 16271, "Command": 46785, "Ġproblem": 936, "transform": 44648, "986": 40558, "235": 23821, "act": 7257, "ready": 16402, "925": 34825, "Wait": 36446, "oper": 8428, "Ġ313": 32706, "ĠTC": 21137, "INESS": 28275, "icator": 30931, "89": 5046, "/**": 49795, "FO": 7942, "Ġparallel": 12980, "include": 47209, "Of": 10643, "274": 30930, "echo": 45276, "ĠMode": 22158, "ĠFIN": 20381, "479": 35414, "tions": 31291, "ty": 2553, "Ġlin": 24248, "iam": 6009, "entric": 44581, "72": 4956, "550": 17953, "Ġlo": 4600, "etz": 13126, "wait": 37405, "cod": 29659, "Ġvariables": 25083, "oti": 10939, "Se": 14696, "click": 23008, "FS": 7881, "zone": 13930, "direct": 27555, "ases": 9354, "gre": 28819, "Ġ83": 8101, "St": 5320, "WIND": 44815, "dist": 17165, "control": 17665, "ule": 7590, "Vers": 45399, "DOM": 45092, "Ġeither": 1169, "filter": 46617, "far": 15476, "ĠUnits": 24525, "FI": 14071, "rypt": 39801, "ĠForbidden": 45076, "fee": 33763, "ota": 6804, "Po": 26170, "386": 34109, "Under": 17245, "Ġ430": 29670, "PR": 4454, "street": 20521, "Ġ4": 204, "Ġmul": 22582, "Ġlibraries": 18146, "689": 38349, "number": 30695, "ari": 1512, "Ġadd": 1606, "ware": 10680, "]-": 48520, "parse": 48778, "loss": 13242, "Ġ121": 18872, "qualified": 26505, "AN": 1889, "Ġshall": 5658, "395": 31330, "BER": 11126, "011": 35620, "ts": 1872, "node": 46840, "Ġ14": 501, "Ġres": 5032, "Bot": 40009, "Success": 42697, "cr": 8344, "ĠFailed": 44216, "Ġso": 98, "Ġsource": 1300, "157": 27489, "191": 31080, "Ġconsolid": 24707, "Ġframe": 5120, "Ġ333": 30242, "Ġdenied": 2296, "ously": 9412, "cd": 28690, "eb": 3209, ":/": 44408, "warning": 43395, "Ġ174": 28816, "Ġprimitive": 36005, "operation": 20829, "Str": 29116, "atures": 15488, "Ġstatus": 2194, "489": 37900, "ECT": 15004, "Ġidentifier": 45261, "olicy": 48892, "library": 31674, "Ġplease": 2540, "Ġconsistency": 12787, "imum": 40133, "ĠFrame": 37280, "bin": 9413, "Ti": 42631, "525": 29451, "Interface": 49136, "Ġis": 16, "Ġclient": 3653, "fer": 6646, "bb": 14141, "762": 38997, "pre": 5234, "MR": 12642, "Ġth": 3553, "256": 24554, "category": 42747, "due": 17193, "arm": 4526, "nam": 8697, "ĠMot": 6434, "Ġbit": 828, "BT": 13269, "Ġfollow": 1407, "Electric": 40906, "Lower": 44620, "Sensor": 48733, "Ġstart": 386, "ps": 3275, "it": 405, "ENG": 25049, "limited": 27829, "461": 37381, "Fact": 37724, "ITE": 12946, "530": 30224, "comp": 11828, "Hist": 38657, "VAL": 39766, "Ġ317": 35183, "Function": 47802, "ke": 1071, "Ġip": 36180, "ited": 4560, "Ġproduct": 1152, "920": 29099, "units": 46210, "DT": 23858, "Ws": 41951, "ridor": 46786, "ting": 2577, "Row": 43277, "values": 43994, "travel": 28881, "ounce": 15810, "ĠRest": 8426, "OND": 7054, "Ġwrong": 1593, "vy": 11454, "awn": 11716, "star": 3641, "ode": 4636, "227": 29240, "edi": 19237, "499": 26518, "zed": 16317, "Ġcommand": 5936, "Ġdefault": 6814, "software": 41038, "Ġex": 1931, "Ġ154": 25502, "direction": 42184, "ius": 6125, "Ġscanning": 24333, "Slow": 43725, "sd": 28045, "ĠMissing": 23632, "537": 39155, "478": 37664, "saf": 43425, "ather": 13860, "nt": 3999, "Ġunique": 2216, "Sl": 26724, "FACE": 47031, "orie": 19989, "ception": 20900, "Class": 21527, "derived": 38871, "71": 5339, "188": 28871, "Dat": 43703, "rec": 13139, ":\\": 48347, "434": 38063, "1991": 42478, "driver": 32265, "057": 41298, "ĠMethod": 16410, "350": 10056, "Ġ302": 31773, "771": 40652, "safety": 29926, "Ġ279": 37191, "olog": 8982, "Unit": 43980, "Ġup": 62, "iol": 14215, "very": 5525, "dt": 38585, "share": 12689, "ĠAWS": 26177, "cluded": 26441, "Ġignor": 45513, "fd": 37379, "porting": 18311, "achine": 47480, "pol": 19028, "diff": 32278, "!!!": 16506, "Transfer": 46552, "013": 37129, "luster": 48202, "Ġel": 1615, "Ġ[-": 48906, "ANN": 15118, "lust": 27682, "lambda": 49744, "Parameters": 49725, "opping": 26307, "Boost": 43389, "dd": 16134, "flash": 39837, "059": 41873, "Ġ[/": 48651, "Ġentry": 3555, "CM": 18814, "Ġfrom": 31, "seed": 28067, "Ġ128": 13950, "Ġ105": 11061, "pr": 4862, "center": 15497, "Ġvalue": 923, "ĠTP": 31847, "move": 30191, "bu": 9519, "111": 17500, "Ġpresent": 1455, "performance": 15526, "adapt": 43199, "Forward": 43057, "trace": 46373, "Cat": 34440, "security": 15506, "Application": 46345, "2018": 2464, "loc": 26516, "keep": 27390, "Ġ00": 16273, "Ġmac": 13418, "MER": 26011, "vm": 38486, "ati": 3648, "508": 36911, "LD": 18048, "ĠDownload": 9147, "mu": 24249, "fail": 37694, "108": 18844, "ĠOp": 7286, "Ġover": 81, "spl": 34282, "467": 35400, "ĠFO": 12866, "Format": 48587, "tele": 35336, "fw": 44860, "ainment": 26741, "Cro": 36537, "ĠFunctional": 43082, "mill": 15466, "133": 25037, "Plot": 48812, "Ġsensor": 9626, "ĠExternal": 25468, "high": 3530, "055": 39558, "Ġyour": 110, "release": 27561, "Ġ207": 27354, "IC": 2371, "near": 34664, "vector": 48219, "Age": 39006, "428": 38151, "264": 29137, "fat": 19987, "IM": 3755, "DD": 27140, "ik": 967, "Ġpid": 46616, "Ġinfrastructure": 2112, "hr": 5039, "163": 29425, "Ġincon": 27493, "48": 3818, "1969": 45264, "Is": 6209, "Ġget": 120, "280": 21070, "sin": 20338, "zen": 7889, "763": 39850, "Ġnote": 1591, "sample": 14029, "Ġ296": 40625, "255": 22260, "ï¿½": 21955, "Ġmock": 16177, "Ġ241": 35752, "-----": 46343, "circle": 44467, "Ġfrown": 41588, "Ġ156": 25664, "515": 36565, "Ġmacro": 12303, "rency": 48787, "orig": 34188, "Ġ135": 16157, "ier": 906, "ick": 1758, "Ġ402": 39827, "Ġyo": 25610, "Ang": 25441, "king": 7037, "Ġ53": 4268, "##": 48342, "Date": 39525, "Ġpassing": 3133, "FA": 5944, "Ġ185": 21358, "INE": 13974, "pose": 21519, "572": 39190, "MAN": 11350, "899": 36681, "Ġdetected": 12333, "Version": 47322, "Ġprog": 17618, "aste": 14631, "NT": 16966, "Virtual": 46138, "ference": 23861, "always": 30035, "Ġmand": 17047, "ĠRec": 7382, "Ġexcludes": 26807, "nown": 42114, "ATION": 6034, "Ms": 13123, "Ġ35": 1718, "626": 37190, "storage": 39675, "Ġremote": 6063, "Ġdue": 528, "Initial": 46187, "552": 35544, "Area": 42895, "725": 33741, "writer": 9408, "platform": 29912, "conf": 17075, "54": 4283, "Ġtype": 1907, "706": 34993, "wire": 11208, "dh": 16593, "776": 39402, "Result": 48136, "Fu": 43829, "port": 3427, "088": 40892, "al": 337, "IN": 2444, "ecycle": 35296, "ĠFunction": 42419, "el": 523, "rieve": 20080, "GW": 32880, "worker": 23589, "c": 438, "Ġactual": 3031, "Ġunlikely": 3752, "Ele": 28888, "Ġparsed": 47367, "Ġ117": 16662, "headers": 47288, "Ġens": 23974, "pd": 10398, "7": 406, "<s>": 0, "vis": 9578, "tenance": 42192, "All": 3684, "ressed": 10887, "Ġ/*": 48565, "pool": 10416, "lab": 31479, "Issue": 47676, "AL": 2118, "cre": 34868, "ĠSyn": 16241, "ĠH": 289, "offset": 48025, "Ġ94": 8940, "Ġimplemented": 6264, "730": 34795, "orr": 33085, "PL": 7205, "Ġ200": 1878, "Ġ349": 41091, "Counter": 44057, "stone": 4670, "254": 30959, "Download": 44514, "Check": 26615, "cmd": 48211, "For": 2709, "Common": 40437, "sel": 5317, "mary": 22501, "mask": 43776, "age": 1580, "66": 4280, "361": 33736, "olds": 10736, "Ġalgorithm": 17194, "Ġ529": 37822, "task": 45025, "Ġname": 766, "uct": 21491, "Pa": 28058, "Ġac": 4285, "Sharp": 45949, "EN": 2796, "Minimum": 47940, "ĠIniti": 35743, "Ġits": 63, "Lev": 41157, "Async": 49636, "Ġmodel": 1421, "OF": 21600, "250": 5714, "central": 16620, "700": 5987, "Ġstarted": 554, "ĠVer": 3060, "arter": 24391, "NS": 6949, "av": 1469, "Ġcommon": 1537, "nc": 11326, "oled": 30304, "strip": 34216, "Ġuses": 2939, "is": 354, "relevant": 41017, "Ġep": 14887, "ARD": 11250, "559": 38012, "OD": 7111, "Ġmatched": 9184, "798": 40141, "449": 32940, "ential": 12986, "Links": 45603, "ĠProcess": 19149, "MB": 8651, "adas": 13920, "Ġintroduces": 22007, "Ġsig": 17224, "apps": 32733, "integer": 49465, "my": 4783, "ench": 24071, "picking": 39470, "Ġ1070": 44248, "ds": 11622, "Ġ318": 37207, "Motion": 44088, "Phase": 45657, "ument": 18816, "IZ": 17045, "ĠInteger": 47927, "Ġtr": 2664, "By": 2765, "Cu": 37454, "ĠDS": 22338, "Ġ540": 31366, "Ġ324": 36593, "aration": 36466, "Ġfeatures": 1575, "Write": 45714, "Ġblacklist": 35165, "311": 35925, "520": 31271, "production": 22862, "EU": 14707, "803": 39440, "1985": 42770, "max": 29459, "Press": 20142, "cal": 11762, "fi": 9169, "538": 38425, "Ds": 32634, "db": 33845, "onse": 33098, "200000": 49044, "Ġ125": 10529, "ĠQu": 3232, "ci": 2520, "EF": 22390, "8": 398, "Now": 5975, "Deb": 33402, "Ġ401": 17936, "qq": 31341, "ply": 26308, "Zero": 38423, "check": 15954, "Dec": 15953, "Ġfurther": 617, "orer": 26834, "571": 38173, "Ġconsumer": 2267, "AND": 5945, "ĠCL": 5289, "Ġinterfaces": 33285, "Bat": 43852, "ition": 7469, "motion": 35474, "TE": 6433, "ified": 3786, "pull": 35514, "options": 45012, "Ad": 9167, "bo": 3983, "Network": 40283, "Ġupdate": 2935, "Ġ&": 359, "ĠE": 381, "006": 38049, "Ġassociated": 3059, "Sport": 19451, "Ġ98": 8757, "Az": 25165, "ZI": 40195, "Ġprevious": 986, "Ġ601": 37753, "ĠStat": 15420, "ystem": 37693, "Off": 22985, "526": 30359, "runner": 16537, "797": 40065, "Ġobjects": 8720, "FN": 38350, "Ġ108": 13955, "820": 34212, "vir": 28641, "Ġ290": 28482, "jar": 11978, "AX": 26624, "VA": 9788, "__": 30529, "Ġ305": 29114, "985": 38848, "ro": 1001, "iled": 6691, "ymph": 36935, "urance": 12590, "wind": 9428, "lex": 14726, "410": 31132, "V": 846, "internal": 37559, "Track": 39901, "Ġ\"": 22, "signed": 29328, "fix": 23032, "pi": 19581, "OR": 3411, "Park": 25130, "ener": 5777, "733": 38765, "environment": 37555, "package": 46181, "Ġcontext": 5377, "Build": 36590, "ync": 46707, "ĠLimit": 34741, "Ġonce": 683, "[]": 48992, "intern": 44115, "J": 863, "mit": 8974, "uint": 47157, "Ġprocess": 609, "VE": 8856, "ĠTee": 33698, "amily": 32455, "Ġwh": 8401, "753": 37475, "B": 387, "rate": 7954, "Ġimp": 4023, "dx": 46106, "Q": 1864, "wa": 2739, "ĠOperator": 7854, "LIB": 46690, "OB": 7912, "********": 44116, "ĠWriting": 8123, "387": 32498, "Ġmax": 19220, "50": 1096, "War": 20096, "Ġpart": 233, "COM": 10370, "Tool": 46620, "ICAL": 24308, "Ġ530": 30488, "083": 41260, "channel": 27681, "atic": 5183, "144": 25208, "Gr": 15536, "Ġmigr": 30034, "26": 2481, "189": 28945, "Ġany": 143, "Ġss": 43987, "MG": 21963, "Ass": 26039, "Management": 43266, "tf": 41407, "ĠLoading": 11414, "ALL": 7981, "tile": 47693, "Ġif": 114, "ui": 3371, "look": 13724, "ĠFIL": 28392, "ORT": 12154, "etr": 17985, "Ġ149": 24621, "Ġimplement": 5731, "bed": 5134, "Ġ404": 37014, "params": 49237, "apsed": 40925, "Ġtechnical": 3165, "Sym": 46994, "iler": 10329, "ĠField": 4754, "o": 139, "750": 10569, "28": 2517, ".<": 49069, "rastructure": 43455, "Ġallow": 1157, "Ġver": 4342, "EW": 15251, "ĠAbs": 23709, "ULT": 25938, "Icon": 45686, "Ġparser": 48946, "Ġ^": 37249, "Ġpayload": 29239, "path": 22609, "313": 32827, "col": 9119, "x": 1178, "423": 34986, "VEL": 16641, "Y": 975, "RT": 13963, "Ġ419": 32869, "Container": 48557, "Ġinvalid": 21567, "UN": 4154, "Bus": 30840, "Ġ47": 4034, "Ġhit": 478, "KT": 33893, "IST": 11595, "switch": 43067, "est": 990, "Ã": 3849, "Station": 41925, "662": 36577, "445": 34964, "Duration": 49404, "698": 38080, "ĠCheck": 4254, "fal": 32783, "year": 180, "Ġ140": 9680, "write": 29631, "Ġ73": 6521, "information": 31480, "reg": 4950, "968": 41258, "et": 594, "359": 34414, "Ġ448": 42482, "inished": 45581, "Ġ90": 1814, "eg": 3733, "Var": 27717, "171": 29572, "911": 37157, "Ġspecify": 17151, "part": 7755, "tec": 26838, "Ns": 40737, "At": 3750, "usion": 15727, "Ġsk": 2972, "Qual": 42170, "ulator": 26122, "Ġ88": 7953, "Ok": 26752, "ct": 3894, "git": 20901, "yn": 3892, "ĠClear": 11381, "Hyd": 44537, "Ġcomp": 7753, "Ġ1500": 18597, "Ġunit": 1933, "Model": 45149, "406": 35629, "arch": 13161, "Ġmessage": 1579, "selection": 44209, "SEC": 21536, "Ġconn": 39277, "allowed": 34742, "Http": 49549, "yi": 28831, "iary": 17174, "rx": 45766, "Ġreturn": 671, "Ġnew": 92, "ms": 4339, "Ġ278": 37481, "Ġ343": 34016, "ĠTIME": 18034, "level": 4483, "Ġoption": 1973, "ĠConsider": 13626, "Ġof": 9, "Ġ285": 31023, "times": 14616, "431": 39015, "Ġ747": 34523, "ication": 14086, "Ġ78": 7004, "Value": 33977, "BM": 13386, "Ġ$": 68, "enz": 16481, "035": 39141, "env": 41124, "APP": 17167, "unch": 11842, "Ġ550": 21903, "Ġdirectories": 44472, "dry": 16864, "duct": 43518, "Ġcont": 8541, "211": 30050, "Os": 11078, "Ĉ": 50116, "Ġident": 26702, "sc": 3866, "Instance": 49483, "Free": 18074, "cor": 7215, "SW": 11871, "Status": 47731, "Ġwith": 19, "sil": 26239, "Ġret": 5494, "549": 36476, "Directory": 49226, "Safety": 40592, "itu": 15998, "TABLE": 46859, "JECT": 33302, "Cell": 40216, "180": 14515, "activ": 34276, "408": 32303, "poly": 42460, "Ġrules": 1492, "ield": 8363, "870": 36079, "___": 42593, "fc": 25484, "mented": 19601, "So": 2847, "ELD": 34816, "DH": 38462, "icro": 46473, "Ġcompatible": 16632, "012": 37524, "aking": 7520, "Unknown": 44241, "ĠTo": 598, "OFF": 32794, "VER": 9847, "cha": 7794, "FU": 36693, "viation": 46021, "Entry": 46640, "conv": 40474, "per": 1741, "166": 27855, "Ġposition": 737, "free": 3743, "KS": 18307, "ony": 6119, "Ġwithout": 396, "ĠPower": 3029, "Ġorig": 26225, "description": 42739, "Ġresolve": 5728, "pload": 47098, "disc": 18909, "wall": 12764, "503": 38071, "ical": 3569, "aten": 26511, "uch": 4272, "Anti": 40948, "going": 12891, "Ġincorporates": 24536, "Ġrelated": 1330, "ĠFr": 4967, "ĠPlease": 3401, "ĠSupp": 13256, "248": 28654, "84": 6232, "empty": 41486, "Path": 42119, "Health": 13716, "kit": 23199, "ĠManifest": 41373, "ĠPilot": 22231, "Ġ129": 21234, "utils": 49320, "veh": 17855, "Battery": 47795, "sw": 4184, "Register": 44539, "frac": 48877, "bc": 23219, "Ġ12": 316, "300": 2965, "give": 26650, "sl": 9996, "create": 32845, "tx": 43820, "ĠAction": 5828, "Ġ175": 16041, "gon": 14601, "Ġafter": 71, "PM": 5683, "D": 495, "Ġ249": 36202, "Sys": 45438, "142": 26738, "Line": 18997, "614": 40082, "346": 34088, "typ": 38321, "family": 12368, "mom": 27363, "Position": 46884, "Support": 38873, "REC": 40698, "ands": 8771, "Ġ54": 4431, "Ġ368": 42100, "Ġ226": 30527, "Hy": 30811, "ud": 1906, "udi": 24110, "Out": 14944, "Un": 9685, "ĠAss": 6331, "Ġbool": 49460, "Ġqualifier": 18008, "Ġ7": 262, "runtime": 49600, "ALD": 34791, "Ġtextual": 46478, "communication": 24741, "Step": 25093, "ĠCurrently": 7519, "PRE": 43869, "MAL": 43602, "BW": 42150, "NI": 17640, "779": 38759, "fitting": 22605, "draw": 24686, "ustom": 46278, "ĠHandle": 44883, "Tx": 46634, "Mon": 17312, "Ġcurrently": 855, "OU": 5061, "READ": 29825, "IP": 3808, "38": 3170, "195": 23688, "Ġlong": 251, "ESS": 12147, "ĠRS": 15388, "Compare": 45448, "start": 13124, "LE": 3850, "Circ": 43412, "ERN": 29092, "Ġimplicit": 33583, "OVER": 36933, "Top": 14323, "RED": 36015, "203": 25534, "Ġsafety": 1078, "enge": 20526, "ĠSingle": 15773, "629": 39681, "pe": 2379, "Ġ49": 2766, "\\.": 49410, "UTE": 38300, "Street": 24265, "Light": 31091, "510": 32380, "Ġrun": 422, "ape": 5776, "dal": 20375, "Customer": 44799, "aa": 6621, "670": 34148, "safe": 22725, "language": 19527, "446": 33973, "coming": 7936, "handler": 45291, "BR": 7202, "Maximum": 48089, "Ġwrite": 3116, "www": 1401, "address": 44547, "Aw": 38145, "877": 27806, "Software": 45752, "ĠA": 83, "ET": 3935, "ĠSET": 30229, "ĠShort": 7787, "613": 39669, "Pri": 38817, "men": 2262, "2014": 16310, "Ġ120": 5962, "tails": 36784, "project": 28258, "Ġbo": 5276, "UM": 5725, "det": 17701, "Ġcd": 45584, "gl": 7210, "Cold": 38191, "mi": 5408, "zy": 5144, "Ġdirectly": 2024, "rl": 41857, "032": 40935, "Ġ24": 706, "TO": 6390, "ML": 10537, "ence": 4086, "fort": 12322, "ose": 3876, ">": 15698, "Ab": 13112, "AUT": 42575, "Ġsymbolic": 16868, "269": 31416, "own": 3355, "dm": 43604, "patch": 40353, "states": 26947, "ids": 7823, "last": 13751, "reason": 41995, "ĠTransform": 41792, "ted": 5357, "grad": 18252, "dad": 27398, "rules": 43915, "Ġcase": 403, "121": 22388, "Ġ802": 31551, "ahl": 9791, "126": 24108, "Ł": 4333, "Timer": 49295, "ĠOutput": 38252, "273": 26273, "36": 3367, "Ġ248": 31490, "644": 36520, "cs": 11365, "Shut": 42147, "di": 7506, "Ġholds": 3106, "shape": 43882, "Ġs": 579, "ĠBuild": 15195, "mon": 5806, "Ġensure": 1306, "Ġlooks": 1326, "ok": 1638, "Ġ87": 8176, "ew": 2753, "44": 3305, "Ġboundary": 16358, "uction": 27345, "cur": 17742, "Ġ350": 10088, "ens": 1290, "par": 5489, "gb": 19562, "fake": 18169, "U": 791, "1000": 20078, "ĠOP": 24839, "import": 41975, "Ġtask": 3685, "34": 3079, "579": 37534, "ACH": 11083, "Ze": 39516, "public": 15110, "construct": 42843, "119": 21397, "Ġ169": 28222, "whe": 28884, "ais": 5655, "LS": 10463, "Ac": 26145, "expected": 10162, "HP": 7331, "location": 41829, "Save": 30940, "Ġbranch": 6084, "ï": 43251, "WARN": 48976, "han": 4134, "Mat": 30121, "Store": 40266, "struction": 41287, "Vs": 13436, "318": 34025, "RO": 8727, "Wra": 48265, "*****": 40255, "ZE": 33288, "ray": 5022, "LT": 30395, "analy": 31111, "Bu": 37602, "init": 25153, "SY": 21134, "Ġorder": 645, "Multi": 46064, ",-": 45693, "Runner": 45163, "Ġ243": 35412, "Ġ276": 36803, "aer": 27075, "UP": 9673, "Cand": 41309, "82": 6551, "ĠIndex": 4648, "ices": 6355, "conservative": 36947, "oy": 2160, "ĠProject": 3728, "Ġ###": 22560, "00": 612, "RI": 6934, "Ġ40": 843, "73": 5352, "Server": 47576, "ĠPAT": 28284, "equality": 43119, "ga": 2538, "mark": 6920, "nz": 22973, "Ġ126": 18461, "Neg": 37128, "Ġshortest": 28617, "2": 176, "ĠCoun": 10047, "asp": 9331, "ĠComponent": 43006, "tra": 9738, "ites": 5110, "ĠL": 226, "GR": 11621, "ved": 5202, "Ste": 21426, "393": 35408, "osc": 17591, "vention": 20874, "284": 32769, "Tag": 45650, "DIR": 47992, "Dash": 43653, "Ġhave": 33, "F": 597, "Ġindex": 1965, "51": 4708, "aul": 6695, "IDs": 43452, "Test": 34603, "ĠGet": 2315, "Us": 16419, "NOT": 37049, "uel": 8129, "ceiver": 44168, "Ġ520": 35390, "136": 25966, "Ġmark": 2458, "Con": 9157, "equal": 30349, "_": 1215, "272": 30687, "about": 9006, "ild": 9683, "Ġfails": 10578, "956": 41632, "Ġservice": 544, "DS": 5433, "770": 35061, "Serial": 47070, "invoke": 49573, "MIN": 24765, "erb": 31679, "Beta": 47511, "Lat": 41933, "analysis": 31116, "se": 1090, "Lim": 44222, "349": 27758, "`": 12905, "441": 36011, "Exc": 42765, "Offset": 48772, "scripts": 45930, "las": 15086, "ented": 9663, "ĠSpec": 33534, "575": 28839, "Ġ113": 14881, "Ġstring": 6755, "ĠENTER": 37924, "ĠTO": 3842, "duration": 41218, "Ġcomponent": 7681, "WN": 29722, "591": 40284, "Near": 46034, "Doc": 42291, "388": 34067, "isation": 3258, "598": 38097, "ĠC": 230, "array": 30766, "work": 6014, "008": 37277, "Ġ75": 3337, "standard": 21993, "170": 16218, "660": 31412, "STRUCT": 45302, "]:": 42645, "ared": 6537, "ĠTeam": 2711, "Ġfur": 15503, "ix": 3181, "Ġ234": 32607, "Ġnull": 23796, "Ġ]": 27779, "Ġ328": 37428, "Ġ137": 22619, "Ġcall": 486, "ĠDie": 6817, "gradation": 47055, "ject": 21517, "annel": 28189, "/": 73, "rt": 9713, "inst": 16063, "Poll": 42845, "DCS": 47791, "since": 30117, "wh": 11613, "riend": 36619, "support": 22930, "Ġconfig": 40220, "aky": 18162, "condition": 27503, "uss": 4781, "Camera": 46839, "Session": 48171, "Pass": 20340, "Ġsplit": 3462, "percent": 13566, "Apply": 47456, "Ġsize": 1836, "Ġab": 4091, "Only": 19933, "Z": 1301, "Allow": 47465, "gnu": 49022, "Ġpermitted": 11047, "ploy": 27877, "Ġ76": 5553, "Text": 39645, "Ġrecent": 485, "fin": 13597, "456": 34781, "Ty": 36639, "off": 1529, "ĠPort": 2848, "321": 30111, "til": 31387, "limits": 38942, "070": 37905, "circ": 31362, "389": 34682, "anca": 19740, "ilot": 20366, "BY": 19058, "IENT": 44735, "13": 1558, "Ġ13": 508, "383": 29980, "Ġop": 5963, "ON": 2191, "install": 39567, "Ġsetting": 2749, "driving": 10241, "Add": 20763, "Ġdegraded": 38918, "103": 18159, "ĠComfort": 30202, "Ġ375": 29672, "Ġopen": 490, "ĠAff": 11176, "comment": 44951, "Ġpython": 39825, "................": 47793, "Ġconversion": 10012, "si": 11000, "Ġ340": 26227, "ĠLoad": 38355, "available": 34659, "stri": 25354, "Ġcon": 2764, "fs": 17884, "even": 12963, "poll": 23605, "Ġare": 32, "ass": 2401, "Gen": 15887, "Buff": 42021, "005": 31866, "oked": 17477, "ĠSch": 1811, "config": 43163, "deb": 25607, "crypt": 44675, "MAT": 41229, "Args": 49919, "804": 37413, "Ġexecuting": 19275, "FR": 5499, "Ġ103": 13156, "add": 4917, "Ġarray": 8932, "ĠAccess": 8076, "Vi": 43640, "fall": 7349, "RN": 39151, "404": 32957, "io": 1020, "ĠRunning": 15552, "alloc": 48429, "Ġvolatile": 9234, "p": 642, "ĠProduct": 7702, "Ide": 42233, "qi": 26017, "864": 40093, "Fs": 34417, "Ġ240": 15452, "Ġp": 181, "ĠBM": 25289, "city": 14853, "Ġ281": 36716, "index": 18480, "mid": 16079, "Int": 22886, "mat": 9244, "qu": 2253, "Ġ236": 34962, "ĠRemote": 33565, "aut": 4255, "Ġtrace": 13946, "ĠSum": 9430, "481": 34490, "85": 4531, "flex": 34739, "lim": 10839, "390": 27873, "668": 37867, "Handle": 48678, "tags": 35103, "997": 39970, "loaded": 24919, "366": 34357, "16": 1549, "440": 26634, "124": 22960, "Ġ102": 12747, "Flow": 41779, "aze": 10129, "391": 35848, "score": 31673, "expl": 23242, "692": 39311, "ADD": 37705, "tion": 24659, "Button": 48053, "long": 3479, "Character": 48116, "Ġworkspace": 39603, "coded": 43301, "Ġ405": 35757, "side": 3730, "icle": 11317, "building": 11557, "Tur": 38110, "Ġch": 1855, "Construct": 48402, "ort": 2723, "Up": 10926, "Ho": 29729, "ĠSignal": 27695, "read": 12745, "ue": 1780, "415": 30092, "Ġclean": 2382, "sp": 4182, "ellen": 12128, "\\\\": 48669, "Ġn": 295, "385": 30042, "ute": 4467, "Default": 48398, "Ġtopic": 5674, "BU": 19159, "MIT": 36548, "LOG": 45403, "ITY": 8662, "HK": 24917, "Val": 20320, "ara": 1742, "bird": 15886, "342": 33192, "ĠValue": 11714, "Ġreference": 5135, "under": 5087, "680": 32036, "RC": 5199, "333": 25631, "nexus": 48559, "701": 39293, "Ġ227": 30398, "Ġfinal": 507, "Ġdone": 626, "523": 39864, "ĠMain": 4326, "EX": 6725, "kh": 8467, "Long": 21001, "ret": 4903, "Enable": 48688, "EL": 3721, "amd": 45594, "Mac": 17049, "ors": 994, "igr": 23704, "ĠLevel": 12183, "eth": 4774, "ĠEntity": 46718, "ection": 20970, "FILE": 19572, "scope": 39576, "kind": 11584, "ben": 5720, "atcher": 43824, "143": 26332, "master": 12974, "msg": 48593, "Ġclass": 1380, "ram": 4040, "Offline": 49238, "medi": 34658, "req": 47278, "651": 39060, "vable": 43149, "stre": 24769, "lot": 17508, "Vel": 44522, "029": 41168, "Ġmost": 144, "Thread": 47563, "]": 742, "Coun": 45577, "ĠAT": 3263, "Ġ640": 37101, "ane": 1728, "maps": 44754, "58": 4432, "ĠTotal": 5480, "ial": 2617, "split": 44154, "752": 39738, "angs": 16917, "His": 9962, "Par": 22011, "174": 29221, "Ġexpect": 1057, "ĠAnalysis": 5213, "Ġ16": 545, "840": 34243, "475": 29156, "ĠDW": 24193, "bf": 36920, "Ġr": 910, "ho": 5410, "handle": 26628, "fac": 33492, "Without": 20867, "Act": 26880, "GP": 12694, "Ġ555": 28581, "Full": 31440, "protect": 35174, "Ġ63": 5549, "ride": 23167, "363": 34401, "367": 34036, "Db": 42198, "Sp": 12582, "opt": 19693, "785": 37453, "Heart": 28285, "Ġ460": 33888, "length": 16096, "Ġfailures": 12055, "emp": 37655, "win": 5640, "Motor": 39482, "Ġrepresented": 4625, "fm": 40523, "Ġdebug": 47423, "minimum": 43410, "297": 33342, "uf": 2951, "381": 35155, "working": 10733, "Ġrelease": 800, "Ġ%%": 49893, "018": 33352, "d": 417, "Ġfloating": 11291, "Les": 35057, "Ġitself": 1495, "Ġfa": 18363, "lua": 47132, "047": 41782, "ĠEnergy": 2169, "329": 33269, "efficient": 24645, "aco": 12921, "694": 39688, "Ġ920": 37543, "fields": 21346, "ĠKEY": 23993, "appa": 22181, "ize": 2072, "maximum": 41976, "riv": 16936, "504": 36131, "anged": 17770, "Output": 48293, "uro": 7367, "Internal": 47666, "ĠPath": 16234, "Right": 13984, "4": 306, "491": 37676, "TR": 6997, "Ġthird": 371, "587": 38878, "AY": 2547, "WS": 13691, "Ġ148": 24646, "507": 38235, "str": 6031, "Ġ230": 16242, "erver": 39540, "ird": 8602, "Ġexternal": 6731, "Ġ_": 18134, "ĠSo": 407, "Ġdirect": 2228, "Ġsoftware": 2257, "hh": 36646, "Amb": 36376, "Mi": 39168, "error": 44223, "777": 33416, "ĠMod": 10274, "Ġ84": 7994, "Ġdeveloping": 2623, "555": 33772, "Bre": 31607, "Que": 31178, "Ġdoes": 473, "Stream": 36757, "661": 37499, "ay": 857, "Ġtool": 3944, "ĠTaking": 10883, "BA": 3813, "Ġempty": 5802, "/*": 49051, "Ġstarting": 1158, "nell": 13957, "808": 31731, "ils": 5290, "Remove": 47583, "eric": 41675, "232": 28503, "squ": 30919, "hold": 4208, "Config": 48836, "marks": 23959, "679": 38770, "ote": 6457, "POST": 47060, "565": 37402, "Ġa": 10, "tr": 4328, "Ġloaded": 7973, "Ġ109": 14512, "planned": 23648, "Flash": 42748, "151": 27761, "reme": 21612, "older": 33780, "output": 46234, "Ġsw": 3514, "Start": 33724, "EE": 9993, "tin": 24276, "198": 28773, "833": 39134, "401": 33871, "Ġ09": 12087, "Ġmarked": 4760, "Ġfind": 465, "Ġmodules": 22744, "ĠGovernor": 3383, "fe": 7068, "ĠShadow": 19194, "ann": 2279, "ĠDef": 7858, "ait": 5236, "652": 38413, "Mix": 45628, "fff": 48591, "too": 15605, "LR": 33919, "Trigger": 48339, "vol": 13728, "ĠCould": 9918, "rit": 3961, "ve": 548, "Short": 34256, "hest": 20921, "events": 28615, "ĠAl": 726, "concept": 38498, "C": 347, "N": 487, "Ġcharacteristic": 26293, "ĠTX": 12031, "Rat": 40855, "match": 10565, "accept": 35468, "ĠGenerator": 44750, "ah": 895, "Ġthread": 15019, "Six": 27696, "557": 38781, "490": 30881, "kw": 33294, "ale": 1627, "verb": 37644, "Ġdisk": 21675, "IG": 5969, "Ġhandling": 5516, "OME": 25073, "Ġclock": 6700, "Ġun": 542, "tri": 21237, "265": 26330, "alth": 29547, "Ġli": 16787, "LED": 34482, "Ġsym": 22850, "356": 32760, "442": 35739, "limit": 42425, "ated": 1070, "Ġ384": 41285, "758": 37073, "3000": 31640, "Fre": 35673, "Between": 37257, "ema": 8557, "ith": 3432, "Ġdetermine": 3094, "TM": 14386, "bi": 5605, "asu": 30007, "Hour": 40215, "Ġ57": 4981, "out": 995, "cc": 7309, "Wheel": 43560, "erate": 45329, "ĠDefault": 35364, "works": 11655, "position": 14413, "uc": 3964, "Ġ": 1437, "Name": 31723, "693": 40379, "\"": 113, "ĠFrom": 1740, "lu": 6487, "Ġmore": 55, "-": 12, "ĠON": 5121, "Ġsingle": 881, "Sk": 29186, "Cr": 29792, "nv": 37594, "activity": 30280, "Ġcopying": 34236, "etic": 15557, "CAP": 28494, "Ġprovided": 1286, "Ġcache": 30283, "hash": 25903, "570": 32976, "120": 10213, "Ġ58": 4893, "atch": 11175, "PU": 16821, "arate": 29585, "dp": 43923, "Ġad": 2329, "Ġ377": 37494, "java": 43830, "Sm": 23996, "Mo": 17357, "perty": 49328, "impl": 38731, "Ġwhen": 77, "787": 38444, "cept": 16771, "mer": 2089, "Ġworks": 1364, "aw": 1584, "aka": 5870, "binary": 40155, "....": 17220, "utor": 35853, "149": 22928, "Ġbelong": 9943, "lo": 4082, "eded": 8652, "Ar": 8138, "trigger": 45043, "iqu": 9071, "Ġstar": 999, "depth": 11583, "bas": 15609, "ifest": 42076, "shield": 44656, "Ġexpl": 22907, "REL": 39444, "timeout": 49109, "ARS": 22210, "fact": 24905, "Ed": 5404, "Ġwhite": 1104, "&&": 49145, "ear": 4352, "random": 45041, "FC": 5268, "Ġ42": 3330, "328": 35252, "dc": 34836, "ILD": 27391, "Change": 36657, "275": 21138, "ĠDelay": 44137, "reply": 48317, "dig": 20098, "Ġexport": 5376, "ĠRelease": 15781, "Ġ2": 132, "quad": 41666, "Services": 39868, "Loader": 49621, "74": 5243, "lected": 17970, "Comp": 24699, "12": 1092, "ample": 29069, "548": 38714, "Failure": 45723, "Ġlocal": 400, "W": 771, "Cal": 15117, "by": 1409, "ĠCha": 18606, "GI": 21525, "369": 34248, "ateg": 27586, "wards": 17337, "~~": 48256, "ung": 1545, "889": 40027, "ession": 21308, "ĠActual": 30144, "Ġinteger": 48335, "lich": 9182, "Average": 46315, "ton": 1054, "SN": 12436, "Wo": 44055, "Pres": 28917, "Ġjava": 46900, "Ġequal": 3871, "asi": 8209, "901": 40197, "modules": 48666, "VI": 15176, "Ġreferences": 13115, "ks": 2258, "Ġnamed": 1440, "Ġim": 4356, "UT": 6972, "make": 19746, "started": 33437, "ssl": 48264, "Still": 31133, "angle": 14982, "Inf": 31288, "Ġchecking": 8405, "Ġ11": 365, "PRO": 32863, "Has": 35634, "ĠInfo": 17883, "cy": 4469, "Ġms": 43601, "Ġ625": 37329, "583": 39123, "Ġnum": 15009, "ector": 26997, "Ġsupports": 4548, "Ġrepe": 25633, "Ġcreate": 1045, "comfort": 42250, "ol": 1168, "ther": 12968, "Ġ374": 42309, "ĠCurrent": 9149, "----------------": 24524, "93": 6478, "247": 27011, "No": 3084, "Ġrelevant": 4249, "vice": 36237, "Ġ225": 15751, "profile": 7221, "ril": 20447, "verting": 40606, "Ġroot": 9749, "ten": 3869, "cast": 5182, "activate": 44410, "Ġ./": 48630, "ĠAlso": 1578, "Ġskipped": 22904, "Life": 12116, "gn": 16993, "pt": 3320, "Fail": 48237, "258": 26866, "vere": 12081, "most": 7877, "Ġoverflow": 34391, "ines": 3141, "343": 31920, "104": 17573, "Ġon": 15, "stream": 8656, "ion": 1499, "processor": 45309, "checked": 41641, "Ten": 28612, "ODE": 38023, "518": 33213, "91": 6468, "table": 14595, "Ġseveral": 484, "testing": 33959, "Ġ365": 19671, "sie": 28692, "Ġlist": 889, "cas": 20363, "Best": 19183, "041": 41450, "Meta": 48454, "Ġmaster": 4710, "Lock": 37668, "gorithm": 47549, "Ġbounded": 43490, "internet": 42182, "ALE": 13812, "031": 41317, "SH": 10237, "164": 28988, "Collection": 48426, "day": 1208, "Time": 14699, "Invalid": 49695, "adow": 26726, "define": 47634, "22": 2036, "PAR": 14280, "Ġ06": 15007, "ĠDriving": 19181, "Ko": 42362, "Ġ17": 601, "Parameter": 49752, "RE": 4629, "RP": 15901, "gor": 26084, "ĠIP": 6442, "Process": 46202, "should": 17276, "ABLE": 13732, "101": 12636, "<": 41552, "yu": 29159, "ĠAssuming": 29175, "lied": 17366, "153": 27982, "Ġ25": 564, "stand": 8490, "//": 42326, "Ġretrieve": 22661, "authorized": 42067, "802": 37674, "DW": 39751, "op": 1517, "Ġinstances": 10960, "010": 30583, "Ġinfo": 8574, "ĠRe": 1223, "EV": 19896, "\".": 845, "825": 34715, "Ġu": 1717, "355": 29794, "Ġ\"\"": 41039, "exclusive": 38347, "lc": 45071, "onom": 20890, "ent": 1342, "Ru": 36439, "Ġwritten": 1982, "Ġ{}": 49153, "rid": 10505, "667": 29312, "Ġid": 13561, "ĠPAR": 16083, "Ġexpansion": 2919, "Ġstack": 17709, "Ġcheck": 1649, "Maybe": 14541, "lf": 13491, "469": 37665, "Content": 45463, "Exception": 48847, "oling": 31992, "ĠTr": 2393, "job": 30056, "Ġlock": 7014, "period": 28030, "ll": 890, "Ġ286": 38708, "Ġpointer": 41515, "Stats": 45285, "NN": 20057, "Channel": 17305, "Ġ01": 9465, "ery": 4270, "Ġw": 885, "otal": 35067, "ack": 2990, "563": 39032, "Ġhttps": 1205, "Ġtags": 19445, "operator": 45180, "eret": 28290, "Mass": 20999, "IND": 13796, "Ġmanifest": 19318, "Seg": 42775, "594": 38911, "432": 37296, "ĠOver": 2306, "against": 22268, "ib": 1452, "Ġprevent": 2097, "ec": 3204, "cold": 33912, "665": 35321, "807": 38633, "timer": 36588, "bh": 22549, "AA": 5596, "sec": 8584, "UV": 31812, "95": 4015, "Ġexactly": 2230, "Code": 41555, "energy": 18261, "death": 24483, "ĠReduction": 34895, "Bal": 35917, "Ġstop": 912, "592": 39642, "export": 38099, "Ġ27": 974, "atform": 47346, "broken": 15894, "With": 3908, "................................": 46082, "Bi": 37426, "ĠS": 208, "fan": 19302, "Ġconsum": 20411, "Ġ337": 36205, "Window": 48098, "21": 2146, "system": 19675, "FIN": 25623, "rite": 36500, "Ġincremental": 16548, "buffer": 47438, "Transform": 44820, "RL": 17868, "open": 12592, "Ġ69": 5913, "Last": 10285, "CV": 35433, "country": 12659, "Diff": 45985, "small": 23115, "Ġusing": 634, "simple": 41918, "Ch": 4771, "./": 21594, "Ġones": 1980, "bel": 8494, "Rec": 21109, "463": 36611, "470": 29748, "TAG": 46985, "ipp": 5600, "Ġvirtual": 6229, "istance": 32556, "Red": 15638, "Ġdiagnostic": 20862, "476": 33981, "Static": 48927, "Trust": 18823, "Ġconnection": 2748, "Block": 38866, "####": 49629, "49": 3414, "event": 21680, "rom": 5638, "282": 31219, "pri": 13718, "desktop": 47912, "Occ": 45549, "ip": 1588, "Ġ410": 27393, "Ġsever": 20242, "448": 36246, "pkg": 48481, "707": 34877, "Ġ299": 35768, "levels": 44280, "688": 37199, "992": 40235, "vin": 6320, "fill": 29238, "755": 36434, "};": 49423, "iti": 4933, "Ġper": 228, "Level": 38809, "STE": 40340, "eger": 44091, "223": 27996, "cfg": 49174, "gener": 20557, "ge": 1899, "Ġhere": 259, "tn": 33768, "287": 30928, "URE": 12435, "Ġmight": 429, "/_": 48119, "BD": 18941, "Ġ80": 1812, "ĠThermal": 38137, "umn": 24422, "NE": 9009, "ager": 6988, "Ġmatch": 914, "Dust": 44291, "ĠRead": 1163, "Ġcomparison": 6676, "sers": 48756, "HO": 30542, "ating": 1295, "Hash": 45620, "Ġcached": 47622, "ignore": 47072, "Activ": 43034, "record": 14760, "Ġattribute": 21643, "ince": 15062, "46": 3761, "Den": 27267, "Gas": 34974, "pa": 6709, "676": 39071, "Ġoperations": 1414, "required": 44240, "Ġdisplay": 2332, "Ġprocesses": 5588, "enum": 46284, "user": 12105, "services": 28023, "207": 22782, "850": 19270, "X": 1000, "Cl": 11428, "play": 5785, "Ġmem": 26012, "domain": 46400, "671": 39392, "64": 4027, "ra": 763, "Ġchannel": 4238, "790": 34504, "ĠTest": 4500, "ĠP": 221, "aus": 7743, "Manager": 44854, "Monitor": 45015, "Post": 21585, "etry": 21262, "ĠRX": 31946, "forward": 16135, "Ġbr": 5378, "494": 38249, "Ġsame": 276, "Task": 47744, "ae": 4791, "XX": 18313, "AC": 2562, "Em": 16750, "CBS": 8949, "Ġplatform": 1761, "ogram": 19673, "Ġ356": 39935, "Ġcompleted": 2121, "bs": 4311, "align": 44022, "time": 958, "Frames": 49361, "ains": 5069, "mine": 13523, "unsigned": 49418, "Lin": 40253, "Dynamic": 47515, "rar": 17254, "fixes": 48044, "OH": 11979, "abe": 5084, "ente": 8530, "Est": 27602, "lete": 16746, "groups": 36378, "Ġexpressions": 17528, "ĠRadar": 23606, "Ġcontained": 5558, "olean": 48547, "SUP": 45531, "ution": 15175, "007": 35723, "Drag": 45608, "239": 29561, "Ġ[": 646, "known": 6421, "Tree": 33731, "After": 4993, "files": 42018, "969": 40996, "Pr": 21077, "MD": 12550, "ĠDO": 14010, "ĠKe": 3350, "Ġtim": 15679, "Ġterminated": 18450, "face": 9021, "950": 24378, "Ġneeded": 956, "ĠTry": 11087, "Ġbelow": 874, "ached": 12552, "show": 12005, "Ġfinished": 1550, "Ġargument": 4795, "Ġ490": 40569, "Ġresults": 775, "DB": 10842, "cies": 32510, "ety": 12637, "472": 37401, "Inter": 26267, "send": 37785, "Reference": 45963, "Norm": 46333, "Micro": 39599, "THE": 13354, "Ġ95": 6164, "ART": 11328, "ar": 271, "gi": 15696, "cycle": 23060, "ifier": 24072, "Mer": 24291, "elli": 13750, "y": 219, "ĠByte": 46594, "471": 36678, "365": 24406, "ĠPass": 7124, "shared": 42502, "Ġme": 162, "Ġend": 253, "Ġ10": 158, "Sign": 25675, "Ġfail": 5998, "Ġpass": 1323, "DER": 28073, "full": 16320, "ĠAb": 2060, "CA": 4054, "196": 30137, "213": 29127, "Ġ840": 41714, "Ġ208": 26703, "stan": 22398, "ipped": 8246, "ful": 2650, "Ġupper": 2853, "org": 1957, "Ġ>": 8061, "ledge": 21945, "IS": 1729, "cop": 30551, "LCS": 34311, "FF": 7389, "Im": 20470, "654": 38138, "Cod": 47436, "amer": 8015, "Pre": 22763, "stage": 10850, "ĠBam": 23871, "Ġmain": 1049, "L": 574, "bable": 44230, "ensor": 35354, "DEP": 41372, "Heat": 44644, "Pac": 35625, "spec": 38928, "421": 38785, "69": 4563, "ti": 8063, "720": 29721, "have": 11990, "960": 35154, "Ġtake": 185, "info": 23999, "551": 38749, "float": 46349, "ĠStack": 31197, "643": 37853, "oth": 6157, "ĠNOTE": 26099, "To": 3972, "Ġlimit": 3000, "765": 35632, "Information": 38741, "Ġvariable": 15594, "ĠExtended": 36358, "Ġ433": 42617, "abil": 14148, "Nav": 42051, "links": 40822, "ite": 1459, "394": 35705, "\\": 37457, "imal": 16980, "execute": 48592, "Wire": 22120, "Ġ106": 13442, "ĠJul": 9654, "216": 26912, "UID": 46508, "Ġtunnel": 10615, "gz": 45328, "ym": 8307, "coord": 39219, "1987": 43587, "eh": 14897, "right": 4070, "gs": 15453, "Load": 47167, "786": 38925, "146": 27457, "Ġdescription": 8194, "termin": 42985, "162": 29899, "ĠNote": 6068, "185": 23334, "535": 37020, "398": 35556, "osis": 13310, "OT": 3293, "and": 463, "dump": 46593, "155": 21403, "Ġ23": 883, "MF": 41583, "xp": 44813, "REF": 45935, "CDC": 33194, "606": 36101, "null": 15755, "ide": 1949, "Bas": 40258, "fo": 21466, "Grad": 44908, "parts": 41466, "secure": 34153, "ord": 3109, "lines": 11723, "Pod": 29138, "501": 36144, "Ġ737": 22300, "512": 35033, "ĠFound": 11911, "Ġco": 1029, "Ġwhole": 1086, "Ah": 17986, "Wi": 42756, "Band": 36283, "pipe": 30131, "Ġanalyzed": 13773, "way": 1970, "Ġ1986": 11265, "acl": 40054, "ĠSensor": 34066, "FIL": 46008, "WA": 8460, "ubs": 19424, "Cons": 24514, "iss": 3006, "fre": 18178, "Ġus": 201, "ios": 4544, "Ġ124": 19446, "her": 1843, "creator": 37652, "nis": 10892, "go": 2977, "ĠElements": 40322, "Ġwhose": 1060, "Su": 20689, "flow": 19322, "ĠInc": 603, "ior": 7375, "403": 34030, "proxy": 47315, "Transaction": 48132, "esi": 20046, "phi": 32079, "erk": 13760, "Hu": 39087, "Ġsupport": 323, "voc": 31375, "ĠEX": 10649, "ĠRequest": 18593, "consumer": 31666, "Ġlocation": 2259, "STR": 30549, "PER": 21260, "Des": 28324, "Ġ264": 36223, "char": 24262, "453": 35261, "Ġca": 6056, "YY": 40969, "ĠSend": 10683, "Ġit": 24, "display": 34045, "358": 34392, "ĠSAF": 30334, "Ġdiagn": 25378, "Creating": 44308, "CON": 15299, "ade": 1829, "Reg": 23007, "ĠFas": 21433, "Gate": 37155, "242": 28698, "ĠSource": 4253, "117": 21598, "layer": 39165, "TION": 10263, "582": 38020, "Point": 20416, "list": 8458, "Exec": 46891, "Num": 48184, "Al": 7083, "ed": 196, "ĠFix": 25088, "eng": 3314, "ATA": 25912, "era": 3843, "Available": 47354, "Ġvoid": 13842, "bad": 10999, "End": 18547, "tes": 12782, "Ġopt": 7996, "ary": 1766, "Ġsignal": 6029, "ns": 6852, "581": 39263, "aly": 7776, "moderate": 19397, "ETH": 31076, "Ġcollect": 5555, "Ġ820": 40260, "None": 29802, "Ġ//": 21277, "shift": 37641, "ĠCopy": 22279, "Ax": 39884, "FIELD": 19095, "alid": 29849, "Ġ152": 23902, "Not": 7199, "exe": 45911, "Ġartifacts": 23150, "erv": 8649, "690": 33636, "Ġ457": 42346, "Ġhtt": 49805, "CF": 25388, "Ġ465": 40525, "Ġ364": 38930, "Ali": 37358, "ĠU": 121, "Ġrealize": 4883, "TF": 20249, "Interest": 44468, "priority": 41565, "Ġthan": 87, "ĠCSI": 31888, "ĠST": 4062, "CO": 6335, "Ġ52": 3135, "BF": 21265, "ECK": 30438, "Ġt": 326, "spe": 18462, "IV": 6372, "hend": 21150, "Cast": 28605, "gm": 41502, "Ġ18": 504, "AGE": 14426, "177": 28129, "Ġdeprecated": 48500, "ĠProperty": 10491, "urs": 4668, "ected": 21722, "757": 38127, "Vol": 30616, "Ġfe": 10668, "raft": 13001, "459": 36022, "Serv": 44175, "Ke": 19226, "Performance": 44002, "CLASS": 47986, "0002": 42436, "009": 37892, "Ġsuper": 2422, "ĠResource": 13877, "pro": 4892, "Did": 20328, "verse": 15189, "VERSION": 48195, "02": 4197, "Ġ110": 8017, "Ġfull": 455, "Ġverify": 12881, "Limit": 47593, "263": 29969, "Basic": 46255, "578": 38588, "exp": 18793, "536": 39147, "132": 24083, "ang": 1097, "ritten": 40251, "533": 38037, "ĠAg": 3303, "498": 37412, "Plan": 35351, "Ġassigned": 5530, "Direct": 33038, "Side": 42530, "setup": 48672, "SM": 15153, "ations": 1635, "td": 26767, "ĠB": 163, "Cur": 42090, "Menu": 48301, "ascal": 40657, "Ġ1": 112, "Ġcol": 11311, "uri": 6151, "Ġer": 3335, "Ġ500": 1764, "ader": 7292, "ĠDirection": 29332, "Ġwriting": 2410, "Wh": 14447, "237": 30069, "ĠEthernet": 34677, "valid": 42679, "ĠAp": 8712, "ant": 927, "607": 32774, "Ġ130": 8325, "Sat": 29918, "True": 36948, "instance": 48768, "Ari": 30195, "park": 15129, "Ġ114": 15900, "mp": 6195, "physical": 41359, "Ġcontent": 1383, "azel": 43874, "ome": 4399, "iverse": 32273, "Ġ297": 40588, "Year": 22004, "Ġunsigned": 39023, "60": 2466, "kel": 5576, "Ġbyte": 47893, "*,": 36592, "Ġ20": 291, "tracking": 29978, "Ġloc": 18327, "ĠSTART": 33714, "onym": 41433, "One": 3762, "Product": 41257, "BC": 3573, "Ġhe": 37, "none": 39763, "Ġsupp": 32535, "ECTION": 44583, "Sub": 23055, "guard": 12984, "tur": 18346, "ĠWarning": 21505, "Ġmay": 189, "ger": 2403, "leton": 9991, "launch": 37757, "txt": 46795, "its": 2629, "ĠXML": 46917, "bar": 4901, "Ġ193": 29021, "ĠVehicle": 16730, "612": 38222, "ĠLo": 5463, "ully": 19678, "sm": 9426, "Struct": 44523, "external": 43166, "Flag": 46191, "Ġidentifiers": 46033, "ues": 3663, "Smart": 25415, "Cache": 48572, "Qu": 12444, "Ġrounding": 31144, "Ġcontender": 12122, "Ġdipping": 26501, "ĠHert": 22177, "Ġloving": 8520, "quished": 49350, "Ġjails": 25559, "itone": 38704, "printed": 36818, "ĠServices": 1820, "Ġloads": 16277, "ĠDebt": 19392, "ela": 6658, "pixel": 44546, "ĠCONTROL": 45119, "Ġadds": 3639, "ĠMew": 42628, "Ġowning": 15487, "ĠReggie": 24065, "sequent": 39022, "ĠAlzheimer": 11520, "Ġpropos": 44779, "ĠShapiro": 24281, "Ġfortune": 13016, "Ġtravelling": 7290, "ĠKushner": 10552, "Jeremy": 37185, "ĠPegasus": 40257, "ĠGael": 27835, "Ġsuccinct": 39280, "forced": 25258, "ĠMontana": 8920, "ĠThrow": 28106, "Price": 36677, "ĠMorning": 5843, "larg": 42710, "verbal": 40328, "ĠParticipation": 39332, "Ġcorrelation": 22792, "Ġceleb": 25622, "Ġundergone": 19674, "ouch": 12746, "visible": 42152, "ĠLIVE": 14737, "ĠTreasury": 4732, "Ġcorrobor": 25223, "ĠPractice": 22084, "Ġcandid": 14039, "Ġresigned": 6490, "Ġrectangle": 45140, "Ġallocated": 12971, "orem": 43375, "eryl": 25309, "zee": 38702, "ĠSimone": 22751, "ĠSoci": 35160, "ĠDEC": 16718, "Ġanalysts": 1066, "thing": 13247, "ĠDeL": 35240, "ĠPSU": 38408, "Ġcath": 31420, "ĠLyft": 18648, "Ġguideline": 35075, "ĠAngular": 47009, "ĠPorter": 9028, "ĠClan": 39849, "ĠAsian": 3102, "Ġscream": 22093, "Ġwisely": 27466, "ĠMeng": 20107, "Ġcons": 7407, "ĠSpear": 37828, "Ġdose": 12234, "Ġbreathtaking": 24206, "ĠBurg": 16588, "Ġsnow": 1958, "ĠCountries": 17658, "Ġnaval": 15272, "Ġsemen": 41291, "ĠSounds": 24661, "ĠTech": 4569, "Ġmars": 35899, "ĠZika": 19924, "Ġprogrammers": 37638, "ĠMia": 19156, "Ġpreempt": 35333, "cca": 17782, "sale": 25248, "ecided": 46041, "ĠCliff": 19428, "£ı": 49971, "ĠLaz": 15619, "ĠSavannah": 17316, "ĠOlder": 32203, "ĠShipping": 26466, "ĠScheme": 21759, "ĠHoff": 22590, "Ġfracking": 25752, "ĠRend": 29110, "Ġbanned": 4968, "made": 7078, "Ġstake": 1968, "ĠRi": 16221, "azed": 16314, "Ġmetabolic": 30798, "ĠShi": 13496, "ĠCoral": 21465, "legates": 34220, "ĠCAP": 7778, "Ġsynd": 7504, "ĠAnarchy": 45639, "Ġlowly": 34666, "ĠMuhammad": 6728, "Ġdepreciation": 15910, "Ġtouchscreen": 24642, "ĠCox": 8278, "Ġtoxicity": 35260, "ĠBrand": 7379, "ĠLange": 29167, "Ġquotations": 42727, "Ġtouchdowns": 5020, "Ġspells": 20154, "imeters": 38983, "ĠGall": 7155, "erenn": 45904, "Ġcal": 13011, "ĠGeorgia": 3090, "ĠCan": 2615, "ĠUnivers": 24066, "Ġspaghetti": 33362, "ĠKill": 14212, "Australia": 25533, "Ġolive": 14983, "Ġbuzz": 8775, "Ġobjective": 4554, "ensed": 25144, "PF": 16088, "achers": 19040, "ĠConquer": 44703, "ĠAccord": 26335, "othe": 15244, "ĠNero": 42247, "ĠAppearance": 45054, "ĠRapp": 16199, "Ġ9000": 43420, "anuts": 43931, "ĠVaj": 31786, "ĠBTC": 7432, "Ġfantastic": 5500, "Ġdenies": 9118, "Ġcryptoc": 48478, "Ġdiminishing": 28953, "fuel": 20118, "Ġfeed": 3993, "Ġ1989": 10206, "Ġsurrounded": 7501, "Ġtopped": 8319, "ĠPython": 31886, "ĠJoan": 14557, "Equ": 28568, "Ġjumped": 4262, "Ġabduct": 28600, "Ġqui": 15087, "Ġreve": 26911, "Great": 19065, "Ġbills": 4033, "andy": 10708, "Ġstunning": 5835, "foundland": 48799, "Android": 42375, "Ġconsuming": 16997, "abin": 17531, "uppet": 43317, "Ġimperson": 23153, "Ġvagina": 32461, "Ġpopularity": 7347, "ĠSour": 39411, "romancer": 48594, "lings": 16283, "ĠJOHN": 30000, "ellig": 37448, "Ġadvisory": 7640, "bleacher": 16243, "ĠClaire": 10399, "ĠOsaka": 19380, "ĠCertain": 25122, "uv": 13996, "Ġske": 32470, "ĠSite": 19307, "Ġsudden": 7207, "ĠAdelaide": 13577, "Ġframed": 18699, "ĠTrafford": 13592, "Ġquotas": 25819, "Ġblew": 10879, "ĠNHS": 8681, "DNA": 39287, "ĠHonestly": 29260, "ĠVolvo": 18674, "Ġtion": 49011, "Ġrockets": 19367, "feat": 42800, "ppo": 38648, "ĠMuslim": 3346, "ĠChr": 22006, "ĠFounding": 37884, "Ġslower": 9992, "Ġpersist": 16403, "ĠPin": 12009, "Ġslammed": 9597, "igrated": 28844, "ĠStraight": 30020, "iferation": 37551, "whether": 29676, "ĠADV": 38558, "Ġlocated": 2034, "Ġlackluster": 28369, "Ġ247": 24462, "Ġfog": 11048, "ĠInstruments": 27498, "ische": 17225, "ĠRift": 32334, "isp": 19291, "Listen": 32917, "Ġwave": 4605, "border": 16720, "aced": 8988, "ĠBa": 5597, "Ġgears": 24767, "Gun": 39916, "ĠDavis": 2505, "iband": 47083, "Ġtropical": 10602, "Ġrobbers": 26379, "ĠLTE": 20066, "united": 33557, "ĠCNN": 3480, "Ġfarm": 3380, "Ġseparation": 10875, "erman": 7043, "acky": 32753, "film": 21928, "ftime": 40749, "Ġpartner": 1784, "Ġroses": 25612, "ĠLeonard": 8763, "Ġharassment": 4331, "INS": 15102, "Ġdeposited": 24232, "ĠHTC": 16484, "Ġprevalence": 21087, "wid": 36680, "orsi": 45318, "Ġpopulation": 1956, "Ġadmitting": 13874, "Ġnarrated": 29601, "Ġprofits": 4632, "ĠLeslie": 12504, "ĠWatson": 5399, "Ġdevastating": 7360, "Ġbears": 10361, "Ġprivat": 16884, "ĠMeadows": 16438, "ĠTuc": 33759, "vation": 19914, "alsa": 37987, "ĠOlsen": 22497, "jong": 40435, "Ġprosper": 30435, "Ġreinforcement": 37700, "Ġdust": 8402, "ĠEmpress": 43485, "Ġcruise": 9135, "Ġaccol": 19946, "Ġplentiful": 32199, "Ġkg": 14091, "ĠLiberty": 7616, "Ġcourageous": 24219, "ormonal": 47470, "Ġcleric": 24105, "ĠNikon": 29850, "Ġtyping": 29691, "Ġstory": 527, "uilt": 49139, "Ġmothers": 8826, "etter": 24585, "Ġ423": 38611, "Ġliquor": 13782, "ĠPreston": 14056, "Ġgang": 5188, "Ġceiling": 9920, "Republicans": 39044, "Hart": 39657, "Ġdecre": 33186, "ĠXuan": 44730, "Cross": 34385, "ria": 6374, "ĠAllow": 28217, "Ġguardians": 27496, "ationally": 29688, "Mary": 24877, "Ġinfiltr": 39636, "ĠPressure": 26324, "bold": 30508, "Ġeuphem": 41569, "ĠSocket": 48115, "ĠHunts": 18571, "COL": 18047, "ĠStanton": 16294, "Ġcoal": 4051, "Ġouts": 10229, "Ġstabilize": 21020, "Ġenzymes": 35309, "ĠCONFIG": 49517, "ĠAstron": 24494, "ĠDom": 11349, "But": 1708, "ĠStevenson": 21076, "ereo": 41312, "Ġaspiring": 18885, "Ġextent": 5239, "Ġoverwhelming": 8642, "ĠContinue": 5603, "Ġmeaningless": 27782, "Ġthugs": 30773, "ĠAvalanche": 22996, "foo": 48359, "worthy": 17328, "Ġabolish": 31165, "Ġlandsc": 19342, "ĠSoup": 31905, "umbling": 16250, "Ġcooperation": 4601, "ĠCentury": 9348, "ĠChern": 34340, "Ġunaware": 14021, "Ġcloset": 16198, "Ġrefres": 39240, "Ġpurple": 14327, "olars": 43018, "Ġdeflect": 29188, "'ll": 581, "ĠDemand": 15936, "ĠTate": 16255, "inese": 33965, "Ġsuperficial": 34501, "Ġbackend": 43159, "Ġcomr": 49616, "vich": 31073, "Ġplank": 32608, "Pakistan": 20700, "ĠReps": 31560, "Fif": 43875, "aylor": 28897, "ĠAssets": 20741, "ĠHelsinki": 23253, "Ġembarrassment": 19124, "allery": 47798, "bot": 12749, "ĠComm": 9204, "ĠMeditation": 42493, "cerning": 41770, "ĠCNBC": 17826, "Ġappalled": 31514, "ĠABE": 48602, "umenthal": 48679, "Ġthroughput": 33418, "AIDS": 30968, "ĠPop": 7975, "Ġbuckets": 26598, "Ġmisconduct": 6046, "ĠFuji": 35991, "ĠTRUE": 44929, "ĠExcellence": 19092, "Ġbreached": 18646, "();": 47006, "History": 38261, "ĠMedic": 26413, "Ġhobbies": 36365, "Ġforged": 17695, "Ġdebit": 20471, "Ġapartments": 10867, "Ġoperating": 1633, "Brother": 43422, "rador": 45377, "inducing": 34909, "ĠBet": 6525, "ĠEquity": 11462, "Ġenvy": 29778, "Ġfacade": 30914, "Ġcapit": 31567, "Ġunf": 9515, "ĠSailor": 41535, "ĠLunch": 25090, "oting": 12653, "ĠAsked": 5937, "jen": 7623, "iken": 22966, "ãĤĬ": 48861, "know": 27066, "Ġaster": 44063, "ĠIsis": 38931, "Ġrightly": 19765, "Marvel": 40302, "Ġfra": 26830, "Ġboarded": 22250, "Ġspice": 22157, "ĠMods": 45932, "ĠDispatch": 29517, "Ġpanel": 2798, "ĠTyph": 46518, "Ġcandidacy": 17231, "ĠSeries": 3265, "ĠLuk": 10920, "ĠDowns": 21144, "abbling": 37333, "Ġadministrator": 11417, "ĠMalays": 35312, "ĠFifty": 22525, "Ġfamously": 13455, "Need": 40181, "Ġearthquake": 8969, "Ġatop": 12619, "Sent": 35212, "Ġexpel": 30721, "ĠREL": 5698, "ĠFormat": 43825, "asio": 20821, "particip": 42038, "Ġvariety": 3143, "ĠGenius": 36552, "Ġemits": 43098, "ĠSaints": 6290, "ĠFerrari": 10482, "Ġembracing": 16105, "reon": 45143, "Ġcru": 11806, "ĠMyers": 11366, "ĠBleach": 47941, "Ġlobe": 45776, "centered": 32055, "ãģķ": 49173, "ĠPUR": 36759, "Ġstern": 23427, "ĠSylv": 28856, "Ġposs": 28001, "ods": 20529, "ĠâĢĭ": 12227, "ousands": 41290, "Ġtattoo": 12904, "Ġloudspe": 37459, "ĠCheong": 44045, "ãĤª": 49502, "ĠNIH": 38029, "Ġkinetic": 42801, "Ġsrf": 49831, "ĠHUGE": 43125, "Ġlicensing": 10765, "Ġlikelihood": 11801, "Ġfinite": 40001, "immer": 15912, "ĠGuns": 29735, "OY": 20664, "ĠGau": 26651, "Ġomega": 37633, "ĠSong": 10264, "Paper": 44986, "Ġsue": 14811, "NOW": 42218, "Ġesoteric": 43962, "Sky": 26018, "Alert": 42556, "ĠGB": 7216, "marg": 43037, "Ġsteril": 32472, "Ġtriangular": 42265, "stru": 23543, "Ġpear": 30023, "erves": 22812, "idget": 20356, "Ġdesirable": 21453, "ĠJed": 23436, "Ġarm": 3124, "Ġdupl": 30501, "ĠForces": 8717, "Ġgon": 38197, "Ġworsened": 23307, "parents": 34846, "Ġferry": 15169, "ĠFerr": 22826, "ĠPrev": 20878, "Ġche": 5851, "ĠCircle": 13087, "ĠFla": 7178, "ĠPossibly": 39993, "arb": 25364, "Ġobscene": 32433, "Ġpracticable": 45130, "Ġconcealed": 17180, "ĠShane": 10235, "ledged": 45666, "tested": 33882, "tering": 14322, "Ġ275": 25949, "ĠSabha": 13347, "ĠShah": 5277, "Ġfinalists": 14654, "odor": 28145, "ished": 6555, "ĠBrah": 28895, "inet": 28430, "Ġhaunted": 22717, "Published": 29642, "sterdam": 47669, "Ġintriguing": 14816, "human": 19003, "Ġwra": 37515, "aucas": 47317, "urity": 25075, "\":\"/": 19207, "llers": 20855, "ãģ®å®": 49957, "ĠCitation": 45452, "ĠENT": 27329, "Ġpicnic": 22297, "Ġdeceived": 38079, "ĠMR": 18838, "pot": 8024, "ĠMit": 12663, "Ġhalluc": 40510, "ĠFacebook": 622, "Ġopting": 19182, "Ġcharging": 6489, "moral": 32661, "ĠexternalToEVA": 50168, "Skip": 28056, "ume": 9271, "Ġcollectively": 14332, "Ġvoter": 6679, "Ġvacation": 7196, "å¦": 49131, "udging": 34432, "Ġtasting": 18469, "ĠLEG": 34060, "ĠEvening": 19620, "erg": 11249, "$.": 48292, "Ġforgiving": 36341, "rones": 30133, "Ġsquid": 40619, "gly": 35799, "ĠMighty": 34028, "Ġintervening": 29970, "ĠTot": 23898, "helps": 44590, "Ġdeliberately": 12507, "Detailed": 48275, "ĠPeyton": 23258, "Ġconfir": 48178, "Ġfamine": 26612, "Ġpay": 582, "Ġaccompanies": 38487, "elect": 6930, "Ġstamp": 13236, "Ġlying": 6480, "ĠManga": 45772, "ĠArmy": 2938, "Ġbalancing": 18442, "him": 24770, "Ġvertical": 12194, "Ġ(_": 49828, "Ġcavalry": 43339, "Ġhref": 48225, "Ġanswering": 15635, "Ġ198": 30858, "gard": 20474, "Ġaccompl": 17872, "ĠKardashian": 7584, "emer": 17615, "ĠãĤµ": 49942, "Ġshark": 14441, "inarily": 41145, "ĠCobb": 19694, "ĠClose": 10041, "Ġaboriginal": 41579, "Ġofficials": 503, "ĠMuseum": 4355, "Ġinvestigations": 4941, "iments": 25132, "ĠMarkets": 5123, "Ġdodging": 38990, "ĠOPS": 27414, "Ġtrilogy": 26105, "Ġfold": 14789, "Ġmorp": 45293, "Ġcohort": 26268, "Ġunveiled": 6431, "River": 32960, "Ġunavoidable": 35074, "Ġadherent": 48059, "Ġcartoons": 32162, "Install": 48218, "Ġgorge": 39966, "Ġsquads": 22820, "ranging": 20091, "Ġpending": 5319, "Ġcolonists": 44845, "Arcade": 48736, "``": 49519, "ċ": 50119, "Ġbaths": 28650, "ĠSport": 5413, "ĠResp": 40076, "ratulations": 48198, "Ġoffsets": 41471, "ĠChev": 43642, "grades": 25579, "ĠMana": 42361, "Ġreimb": 28248, "Ġbeaut": 28651, "ĠInnocent": 40797, "Ġwildfires": 12584, "ĠWonderland": 35607, "ĠDisapp": 39133, "ĠFitzgerald": 12458, "ĠMall": 6633, "ĠChildren": 4278, "killing": 34549, "Ġobedient": 44729, "Ġsecretive": 27174, "ĠSeasons": 27016, "oÄŁan": 38989, "ĠRIS": 31775, "Ġwillpower": 43873, "Ġshaved": 29511, "Ġaides": 10049, "Spirit": 43862, "criptions": 43324, "Ġharbour": 23849, "Ġbalcon": 39653, "Ġice": 2480, "ãĥŁ": 49644, "Ġcompetent": 17451, "WATCH": 42050, "Ġprinters": 29379, "Ġprostitution": 23105, "Ġcharg": 34143, "Ġloves": 6138, "ĠRamp": 34173, "Ġprovisions": 7668, "ĠAdvocate": 19248, "anza": 19209, "INC": 26055, "ĠIMAGES": 38329, "kb": 41238, "BI": 5383, "tek": 28205, "ĠLon": 16461, "ĠMLB": 9536, "itarian": 20444, "Ġchief": 834, "Ġdepartures": 25624, "QL": 42111, "Ġrecounted": 21994, "istrates": 15596, "Mur": 32405, "Ġ1950": 9323, "Ġinj": 30272, "cipled": 46561, "Ġcarbs": 33237, "Ġcyt": 44193, "Ġdoubled": 7113, "flix": 47274, "Ġsharing": 3565, "ĠChampions": 3666, "ĠAbbey": 20481, "Ġinternally": 16985, "Ġregulars": 29684, "Ġfavoring": 32372, "Ġgraduate": 5318, "Ġult": 20265, "ĠCong": 12249, "ĠMcL": 11167, "Ġblades": 28296, "ĠDocument": 27246, "Ġworry": 4022, "ĠPepper": 18061, "PRESS": 27177, "Ġvanquished": 44400, "Ġsociety": 2313, "Ġnuclear": 1748, "Ġrelation": 9355, "Ġpathology": 38951, "Ġcull": 29044, "Ġlandscape": 5252, "ĠCinderella": 34800, "violent": 28330, "Ġpopulace": 36921, "Ġscreenshots": 33328, "Ġpowered": 8852, "Ġinteracts": 39999, "ĠTWO": 34302, "Ġahead": 789, "ĠPebble": 29773, "Ġcomposing": 40983, "redited": 39618, "ĠAndroid": 3208, "usa": 13253, "ĠPeters": 11975, "ĠZi": 35323, "money": 17479, "Ġgenerosity": 19501, "ĠTHAT": 24394, "Ø¨": 41117, "Ġpronounced": 9015, "Ġobjection": 24763, "Meg": 40555, "imensional": 30846, "Ġlogistical": 25994, "Ġkinderg": 42242, "anky": 30451, "Ġresentment": 27111, "ĠBett": 23479, "Ġenvironments": 11534, "arya": 23588, "Corp": 25313, "Ġrespectful": 18025, "ĠAmph": 29103, "Ġteaser": 19690, "Larry": 38544, "ĠCAN": 12471, "ĠYears": 10426, "ĠBreak": 13211, "Ġdistortion": 36075, "Ġrenovations": 18748, "Ġleaned": 27627, "incerity": 47523, "Ġbeams": 28890, "Ġmaterial": 1468, "Cy": 25826, "Ġblur": 28133, "Ġinternationally": 9275, "Ġpromising": 6177, "Ġowner": 1945, "ĠNiÃ±o": 39170, "Notice": 47077, "Ġaer": 16482, "+++": 48845, "atalie": 44510, "Ġtacit": 36502, "Ġforfeiture": 33191, "usk": 14570, "Ġrotating": 22218, "ĠTsukuyomi": 50029, "verend": 47156, "Ġcommands": 16388, "ĠBarker": 21998, "Ġ),": 31311, "Ġeject": 29277, "Ġsaturated": 24191, "ossal": 46307, "Ġinflammatory": 23785, "Ġequipped": 8895, "reck": 24598, "ĠRudolph": 26072, "ĠAug": 2049, "elled": 16349, "ublic": 40171, "offensive": 34361, "Ġdeep": 1844, "Ġlarg": 22503, "Ġdash": 12575, "buff": 43637, "ĠNetflix": 3909, "Ġrailways": 24396, "Ġrhy": 38463, "ĠKare": 19492, "ĠRated": 40723, "itans": 31520, "âĢĶâĢĶâĢĶâĢĶâĢĶâĢĶâĢĶâĢĶâĢĶâĢĶâĢĶâĢĶâĢĶâĢĶâĢĶâĢĶ": 45437, "Ġimpetus": 27431, "ĠFOIA": 43695, "Ġaccounts": 2349, "Chair": 31602, "Ġæ": 47416, "ĠAssass": 42731, "Ir": 34547, "ĠSeah": 41592, "Ġpostp": 22674, "GG": 24592, "Ġspa": 18179, "Ġtreatment": 1416, "emade": 43598, "1970": 38051, "ĠRobertson": 11951, "innamon": 47975, "Ġwhichever": 29047, "ĠCirc": 26762, "ĠIndy": 12421, "ĠDrone": 37227, "Ġ#####": 49518, "igs": 15409, "Ġcube": 37179, "ĠLav": 18126, "ĠAbd": 15312, "ĠExcel": 27241, "anted": 17184, "Black": 11368, "turned": 18255, "ĠErie": 16525, "Ġaggro": 48853, "Ġhaz": 32468, "ĠNvidia": 18520, "Ġemergencies": 20601, "IU": 36452, "Ġalternate": 14417, "Ġensures": 14905, "manent": 39713, "Ġengulf": 36272, "Ġrevolution": 7977, "Ġcontemporary": 8708, "bill": 24916, "ĠMcCain": 6973, "ĠSus": 10471, "Ġassume": 6876, "ĠGit": 35495, "ĠWal": 6092, "donald": 24139, "icy": 24363, "ourses": 33165, "Ġsexuality": 17969, "ĠWan": 18015, "ĠPhysics": 31590, "ĠPolicies": 39474, "ainers": 41912, "ĠNottingham": 17142, "Ġexecutions": 23729, "Ġprec": 16057, "Ġrallies": 10881, "Ġhappened": 1102, "Ġfreelance": 18150, "ĠHide": 27646, "Ġsurrounds": 29010, "ons": 1790, "andering": 32741, "Ġsimple": 2007, "ember": 22542, "ĠScottish": 5411, "Does": 27847, "ĠCOUN": 40848, "ĠJPMorgan": 9934, "Ġener": 38351, "eds": 12080, "Ġiterations": 37922, "rums": 31860, "Ġstep": 1149, "Ġhomosexuals": 42410, ".(": 21154, "metal": 32961, "Screenshot": 45296, "Ġcolossal": 33568, "Ġunex": 39432, "finger": 32297, "Ġformatting": 44924, "ĠTheNitromeFan": 50233, "fur": 25937, "Ġwil": 27487, "ĠGur": 11062, "ĠHoward": 5218, "issy": 20157, "Ġquantify": 30127, "ĠPL": 12901, "Ġ,\"": 41066, "Ġdeems": 35214, "Ġpowdered": 39143, "Ġnano": 36924, "ĠWarner": 6123, "Ġinfinitely": 40489, "Ġoverthrow": 23850, "Ġrising": 2227, "Ġnamely": 13953, "ĠBerserker": 48744, "ĠBec": 18870, "Ġsurpr": 47149, "aren": 9475, "rera": 24736, "ĠPerse": 42447, "Ã»": 27564, "Ġviolating": 10343, "Ġdetailing": 14901, "Ġconveniently": 31032, "Ġwat": 20162, "ĠClass": 4210, "mates": 11139, "ĠAngeles": 1422, "ĠCath": 20349, "hai": 30279, "Ġkitchens": 28096, "Ġshrink": 17652, "Ġhold": 946, "Ġdeterioration": 21980, "Ġleve": 16066, "ĠForms": 40293, "scene": 38652, "Ġ256": 22078, "ĠGoodwin": 22488, "ĠPompe": 8452, "ove": 7067, "Ġvetoed": 30910, "Ġner": 38286, "ĠSoviets": 40971, "ĠReply": 6672, "MAG": 41543, "ĠBun": 16757, "ĠMedia": 2454, "Ġ[|": 50084, "Ġcondemned": 8686, "ITAL": 33069, "ĠRivera": 14272, "ĠeBay": 18595, "SEA": 40111, "Ġincreasingly": 3150, "Ġhumor": 12073, "querque": 48973, "Ġridge": 32467, "Ġag": 5951, "isher": 13761, "ĠBrands": 11885, "Ġpersonally": 5636, "iland": 24676, "ĠCauses": 43847, "Query": 48382, "Ġbrains": 15813, "Ġcrow": 35946, "Ġaux": 27031, "*:": 47365, "ĠTOD": 41694, "Ġward": 11898, "Ġdaytime": 19436, "×Ķ": 47824, "ĠSmoking": 38001, "acle": 24618, "Ġexhaustive": 29180, "ĠBlank": 21577, "ĠmacOS": 32469, "trip": 30674, "Ġprotest": 2790, "ĠReports": 8753, "lethal": 41700, "neapolis": 46815, "Ġsearching": 6062, "Ġmission": 2511, "laus": 33012, "ĠOtherwise": 17592, "Ġassorted": 35987, "ĠGarfield": 27119, "ĠMember": 10153, "anasia": 37935, "ĠConclusion": 23518, "Ġaccents": 29296, "Put": 35123, "Ġopio": 49462, "ĠWednesday": 307, "ĠTransactions": 40798, "Lead": 32258, "ivably": 40548, "Making": 31845, "ĠPush": 23726, "ĠPrevious": 14422, "ĠCustoms": 10465, "Ġanonymously": 20797, "ĠMario": 8782, "Ġparadox": 30556, "bearing": 26195, "Really": 30327, "ĠMTA": 33126, "ato": 3938, "Region": 43575, "ĠTracker": 35368, "igor": 24929, "Ġdazz": 32614, "above": 23444, "Ġasleep": 15028, "uddled": 23521, "rarily": 48243, "Ġvirtue": 21484, "Ġfo": 9565, "ĠCoC": 47319, "ĠMissions": 43322, "ratom": 44120, "ĠOriental": 32719, "ĠPortuguese": 13053, "Ġlov": 31180, "Ġheritage": 7788, "Ī": 23133, "Ġ501": 25977, "ĠIronically": 26527, "Ġquot": 39809, "âī": 48054, "Ġslumped": 16168, "Ġclothing": 5296, "ĠBenghazi": 30473, "Ġlament": 25532, "ĠCedar": 15875, "Ġmyths": 28787, "ĠContemporary": 28729, "Ġhips": 28097, "Ġnationalism": 21847, "Ġpricey": 26428, "isin": 29761, "ĠTIM": 18685, "etus": 43161, "Ġbring": 836, "Translation": 48940, "Ġquarters": 5666, "WC": 17314, "ĠLO": 29504, "ĠGrape": 36109, "akeru": 49782, "Ġchuck": 34600, "ĠAns": 16866, "rawdownload": 50173, "ĠDip": 23919, "Ġdebtor": 43757, "ummies": 38098, "Ġharmonic": 46336, "Ġspeculative": 21779, "ĠDocuments": 32682, "ennial": 13952, "ĠResearch": 1624, "ĠKahn": 30636, "rowd": 34298, "This": 713, "ĠEvents": 13634, "ĠBeauty": 12625, "ĠHeld": 30870, "ĠAmit": 16841, "Ġlurking": 31742, "Ġeviction": 26950, "Ġ1910": 36012, "oxide": 24260, "UX": 29150, "Ġcolors": 8089, "ĠGal": 4537, "Ġstances": 37765, "Ġtotaled": 15137, "Ġtoddler": 16290, "ĠMick": 13580, "Ġsurges": 32167, "Ġ..": 29942, "Ġflashes": 25975, "ĠPeck": 29550, "Ġcalam": 28857, "Ġthemes": 12049, "Ġë": 47672, "Ġbisexual": 27100, "Ġbroch": 34050, "Ġcarbohyd": 49745, "Ġrash": 21563, "aah": 46909, "Ġalleged": 1697, "Ġz": 992, "Ġfearless": 29107, "Ġprox": 43860, "Ġpeek": 20003, "Ġbarley": 34822, "ĠGray": 7274, "ĠKY": 20284, "ĠVampire": 39119, "Ġdisclosure": 6262, "Ġvillagers": 17603, "Ġ1907": 42262, "Ġcontact": 1511, "Owner": 46182, "ĠCommentary": 40070, "ĠMessenger": 21439, "ĠBoehner": 31344, "Ġjihad": 31400, "Ġruler": 23586, "Ġdet": 6769, "Ġclaim": 2026, "boss": 40426, "Ġexqu": 44477, "Ġirrational": 31338, "Ġcircled": 36110, "Ġcorrid": 48649, "ĠPere": 15738, "Ġaroma": 37410, "sites": 18791, "ĠCookie": 34662, "Authent": 48151, "Ġscripts": 26878, "cmp": 48427, "+=": 49419, "Ġrefusal": 13646, "ĠKats": 27509, "Daily": 26339, "Ġhatched": 35391, "Ġenigmatic": 38910, "agers": 14979, "ĠPoint": 4937, "Ġshake": 8559, "ĠNTS": 29351, "Â·": 43413, "Ġplaces": 2127, "tank": 24236, "Ġnostalgic": 28055, "Ã¶": 3671, "Ġemails": 5575, "arser": 48046, "ĠFalling": 35647, "vard": 29013, "Ġsignaling": 22436, "Ġlonger": 1181, "Ġperiods": 5788, "\\\"": 48110, "Ġquantitative": 17836, "IFIC": 36497, "Ġrul": 48725, "Ġkicked": 5836, "Ġuniformly": 41919, "ĠSavage": 18654, "Ġpassed": 1595, "Ġupl": 17627, "ARGET": 40325, "Ġbruising": 26693, "Ġderivatives": 19069, "###": 48134, "Ġtongue": 15686, "dam": 15177, "Ġfulf": 39527, "Ġconced": 24647, "Ġkiller": 7844, "Ġwaiver": 15851, "çĭ": 49534, "Ġchurches": 10550, "Ġlegalization": 18426, "iesta": 25865, "ĠScully": 36660, "ĠKabul": 15767, "Ġreopen": 13490, "ophical": 47212, ".;": 10116, "Ġammonia": 38219, "ĠQueen": 3929, "nw": 45372, "Ġwear": 3568, "Ġvacated": 25147, "ĠLoans": 26935, "ĠKant": 25340, "ĠGov": 3483, "Ġadapters": 44449, "ĠBand": 6191, "Ġhurts": 15774, "Ġcalendar": 7127, "ĠSummers": 26718, "Ġreceptions": 15468, "awk": 13225, "Ġdreams": 7416, "Die": 28535, "ĠBrain": 19743, "youtube": 36666, "Ġ274": 38415, "undo": 20870, "ATCH": 24321, "Ġfestival": 3241, "Dam": 33905, "ĠDwell": 45515, "Ġdepend": 6723, "Ġve": 5030, "Ġintent": 5927, "ĠGamer": 45670, "ĠDaily": 1681, "irms": 21871, "Walk": 33150, "ĠKlopp": 11116, "Ġcorners": 12078, "Ġskull": 19444, "alsh": 41849, "Ġpreseason": 7894, "Ġleague": 1267, "vell": 22752, "ĠMate": 12869, "ĠAbram": 28739, "ĠElvis": 20131, "ĠBrookings": 33725, "ĠLawson": 16074, "Ġreactive": 34729, "Ġcohesive": 33033, "Ġplenty": 2710, "Ġobligation": 9061, "ĠMatters": 26588, "Ġsupporting": 3117, "ĠKids": 9151, "ĠEthereum": 18353, "Ġflattened": 34395, "ĠDemocrat": 3661, "Ġkiss": 13301, "Ġrepent": 42665, "Ġlabour": 6610, "Ġdiagnosed": 6443, "Ġimpulses": 37981, "Ġjan": 10408, "Ġconserv": 23923, "Ġuncons": 38420, "ipe": 11387, "chlor": 39220, "ĠFit": 14950, "Ġut": 16080, "hus": 25134, "Ġmonog": 43907, "Ġtrolls": 25668, "Ġlistener": 30443, "Ġblogging": 37744, "ãģĦ": 47780, "Ġcomply": 8096, "Ġalter": 11330, "ĠNorman": 11704, "ĠSonic": 30777, "Ġstabbing": 12676, "critical": 25398, "Ġslew": 15665, "Ġevolving": 14007, "Ġsuccessive": 12565, "Ġadvisable": 40791, "ĠMast": 23190, "ĠAsgard": 45626, "pared": 33160, "ĠJones": 1454, "ĠStyle": 18149, "anooga": 47401, "Ġenh": 45378, "',": 3934, "ĠShaun": 16065, "ĠHandling": 40556, "\"],": 49177, "Ġdocking": 39424, "Ġexperimental": 14073, "ino": 1696, "Ġvision": 3360, "ĠScouting": 36795, "disciplinary": 32231, "Ġdaring": 21832, "rays": 24192, "Ø§": 29438, "Ġquarantine": 37059, "Ġgiving": 1311, "dark": 30423, "ĠDrama": 22916, "Rect": 48987, "Ġcommunal": 20460, "creen": 37346, "Ġcrying": 9701, "Ġcontended": 24952, "Ġpraying": 17587, "Ġbankers": 13432, "ributed": 18926, "Ġmunitions": 37819, "Ġ272": 36745, "Ġpreset": 44074, "ĠMillion": 8399, "Ġ1963": 18733, "Ġveins": 31694, "ickey": 23988, "Ġprevents": 17410, "Ġconcerted": 27006, "Ġinspecting": 35430, "Ġiron": 6440, "ĠGarland": 22280, "ĠPERSON": 42733, "Ġcargo": 9145, "vt": 26390, "ĠIrish": 3445, "Ġlifts": 19241, "Ġawe": 21531, "Ġshelter": 5159, "ĠAND": 4248, "Ġdelinquent": 39614, "ĠJoshua": 7848, "ĠKad": 10912, "Ġguarded": 25853, "acements": 38545, "ĠDow": 4614, "Ġwitness": 4562, "Ġignition": 32026, "ĠMount": 5455, "Ġflavors": 14250, "Ġexpedition": 25512, "ĠCursed": 45504, "jug": 39909, "Ted": 40348, "Ġmansion": 15906, "Party": 38210, "confirmed": 30677, "zie": 14807, "ĠAnkara": 14606, "uh": 2957, "ĠHealing": 35479, "Ġfrightened": 26851, "ĠROS": 38344, ".--": 42604, "Ġeducate": 11427, "ĠTrader": 31999, "ĠBackground": 32070, "ĠNRA": 15090, "Ġsearch": 1707, "iro": 4712, "Ġcars": 1677, "Ġshiny": 21199, "Initialized": 50026, "ilic": 22586, "Ġhorr": 48067, "ĠTexans": 10818, "Ġrenowned": 12086, "Ġfalsely": 19349, "ĠLol": 36293, "Ġreceives": 9524, "Ġsubur": 49943, "Ġcondos": 32837, "ĠActs": 37219, "brate": 39518, "Ġdrilled": 20463, "ĠFram": 27335, "Ġhrs": 37852, "Topics": 49020, "ĠThink": 9387, "Ġthirteen": 30361, "ĠMcD": 8175, "Ġsorts": 9477, "Ġassassinate": 40205, "Ġsmiles": 14504, "MHz": 38333, "Ġhinge": 33503, "fx": 44830, "ĠNorn": 48463, "ender": 7232, "INGTON": 18396, "ĠTens": 29031, "Ġpillars": 23986, "ĠBase": 11056, "ĠOCT": 33885, "wich": 11645, "ĠZed": 40064, "football": 11107, "Ġdeserve": 6565, "Ġhaze": 34008, "essee": 39941, "ooks": 28937, "ĠBows": 47313, "OSH": 38336, "Ġcolder": 19727, "gage": 42307, "ĠPacks": 45849, "Ñ": 22063, "ĠUSPS": 41886, "Adam": 24671, "Ġsubscription": 6656, "Vo": 37660, "Ġtaboo": 31041, "username": 48852, "Ġconstructed": 11236, "Ġhair": 2549, "Ġdiverted": 19070, "Ġtyre": 13406, "Ġcolleges": 8975, "Ġcombination": 4069, "ĠRiy": 35353, "ĠIraqis": 33817, "Adams": 36288, "Initially": 42052, "otor": 33523, "Ġdeprivation": 31322, "ĠPJ": 28529, "ĠÂ»": 9313, "Ġforceful": 32165, "YES": 41010, "RGB": 46647, "âĪĴ": 47677, "ĠBurma": 35044, "Ġpollen": 35971, "Ġautomated": 11554, "iour": 39192, "leave": 38457, "00007": 46983, "ĠGoose": 31933, "ĠReverse": 41775, "Ġsleeping": 8416, "Ġmonitor": 5271, "Palest": 47695, "Ġcoming": 567, "ikarp": 47169, "Ġtraff": 30246, "ĠRelic": 45574, "Ġcourses": 7484, "Ġlush": 25115, "Ġmun": 32868, "inatory": 42350, "ermanent": 47958, "ĠDick": 8639, "+(": 43988, "Ġpioneering": 22653, "Ġrotation": 10134, "imble": 25794, "_>": 49982, "ĠStamford": 15951, "Ġtriumphant": 32025, "Ġlaced": 31923, "Ġapparel": 14710, "Ġexpenditure": 12187, "Ġrewarding": 16044, "ĠLoot": 44632, "Ġleather": 9219, "torn": 25566, "Must": 41033, "Ġinteroper": 37307, "hetically": 31667, "iom": 27074, "Ġmyriad": 19539, "Ġconstructing": 25886, "ĠRB": 11191, "azz": 7706, "Ġblends": 28337, "Ġmentor": 11989, "Ġresponsive": 20666, "Ġinline": 39491, "Ġdescendant": 42496, "ĠAssault": 27143, "Ul": 41436, "Ġshaken": 17548, "ĠAvg": 43730, "ornia": 43052, "ĠFly": 16122, "Ġreports": 690, "Ġtimid": 39649, "Ġcondol": 35279, "Ġsignings": 21769, "Ġstark": 12664, "umption": 21236, "leased": 35830, "Ġsentenced": 4018, "Ġcompanies": 451, "ĠMatthew": 4508, "Christ": 26352, "ĠHodg": 20452, "ogun": 37803, "apolog": 30961, "Ġgeometry": 37639, "pins": 33227, "Edge": 37054, "ĠScient": 46244, "ĠRand": 10714, "ĠCunningham": 16503, "ĠBeetle": 41537, "missive": 41687, "Ġbattle": 2168, "Ġdefensively": 17417, "Ġanecdote": 40938, "Ġpig": 13280, "Ġembodiment": 39441, "ĠHumanity": 29383, "ĠLethal": 43817, "ĠCop": 9351, "Ġbrainstorm": 33692, "ashi": 11786, "ĠKoreans": 16818, "inces": 47292, "Ġnic": 18657, "Ġcolleagues": 4025, "reetings": 43761, "Ġcraving": 32659, "Ġhikes": 10204, "ĠFant": 33679, "becue": 41368, "Ġunfolding": 25451, "Ġlower": 795, "ãģĹ": 47918, "Ġtir": 28005, ";\"": 42777, "Ġpalace": 15653, "aques": 32441, "pound": 8833, "Ġbaptized": 42836, "Ġteach": 6396, "ĠMystery": 34039, "EMBER": 26653, "Ġcontroversy": 6170, "Ġparanormal": 41939, "Ġprosecution": 6914, "#$#$": 50065, "Hmm": 47519, "Ġwik": 47764, "ĠLIMITED": 43999, "GROUP": 48320, "ĠRL": 28483, "Reply": 49084, "Ġmaterials": 3183, "ĠCargo": 36375, "Ġmult": 7268, "severe": 26251, "Ġdecency": 30338, "Ġguarant": 33148, "ĠComing": 12540, "Ġgaining": 8079, "punk": 29813, "ĠHale": 20810, "Ġstartling": 26556, "ĠClapper": 33068, "erving": 25373, "Ġgroundwork": 27615, "Ġsounds": 4428, "idespread": 38327, "picture": 37587, "ĠBarbarian": 47953, "devices": 44326, "appro": 27666, "Ġsang": 11944, "Ġindisp": 46978, "ĠRainbow": 22060, "Ġbearer": 37720, "Ġcut": 847, "got": 22371, "furt": 45464, "Ġclues": 14885, "Ġhandset": 17621, "iegel": 26082, "ĠHL": 38690, "ĠFloating": 40480, "Ġship": 3627, "ĠKoh": 6987, "ĠJulie": 9786, "ĠJoker": 36658, "Ġtotally": 4940, "ĠZur": 34037, "ocese": 12074, "ĠJamie": 6541, "ĠEpic": 21523, "orne": 12266, "Ġmonuments": 17525, "ĠFurther": 7029, "ĠAH": 30227, "ĠAlmighty": 37990, "Ġprovocative": 21051, "Ġcabin": 11657, "ided": 8598, "Ġdisappro": 36631, "Ġnaturally": 8366, "Ġgrandmother": 8853, "Leary": 26448, "Lex": 43551, "cz": 10608, "ĠELE": 44501, "Ġprud": 34481, "î": 49190, "ĠPhilos": 44310, "Ġdeceive": 37267, "mere": 25416, "ĠReed": 7781, "Ġqual": 22043, "Ġconjunction": 14949, "Ġraises": 7700, "Ġimperial": 31377, "Ġweaken": 15310, "?,": 33647, "Ġ:)": 44660, "ĠLeave": 15084, "Ġplumbing": 28104, "Ġcontinuation": 18719, "Aim": 47451, "Ġnoble": 25097, "Ġunre": 21153, "ï¸": 49232, "Ġimmoral": 33231, "Ġidiots": 39984, "ĠAnn": 3921, "ĠWatergate": 32485, "Ġsponsorship": 15663, "ĠMayhem": 44621, "Ġinstruct": 20587, "Ġ288": 35395, "Ġrespectively": 4067, "ĠRoland": 15897, "thinking": 22710, "Ġrescuing": 32484, "Ġheightened": 14048, "Ġstone": 7326, "à¤¾": 35636, "ĠKand": 26275, "ĠLanc": 19766, "avez": 46075, "cule": 38884, "Ġperpet": 21456, "Ġrelocation": 21326, "aintain": 37205, "Ġill": 4812, "ĠSpons": 18182, "Ġbogus": 28007, "Ġimper": 21245, "ĠMoj": 31241, "Ġcamp": 2205, "ĠDA": 9036, "Ġsus": 12495, "Pur": 39740, "ĠFei": 46262, "Ġretake": 31090, "Â©": 14800, "DOWN": 39200, "Ġgarage": 8247, "ĠWit": 28768, "Ġominous": 28415, "Ġillegally": 5176, "ĠPatreon": 44452, "ikes": 13349, "ULTS": 35843, "ĠRebels": 18271, "Ġ1952": 26891, "birth": 33272, "ĠMedical": 3067, "ement": 6285, "Ġesc": 11363, "ourn": 8371, "bye": 33542, "olina": 27343, "ĠInfinity": 17688, "Ġlatency": 35940, "Ġseem": 2045, "Ġhow": 141, "ĠSw": 3323, "Ġprivatization": 33381, "ĠFib": 28174, "Ġredesign": 23392, "National": 18285, "ĠHorton": 22477, "Ġstarship": 47935, "ĠMaps": 21089, "Ġcomedian": 10688, "Ġrods": 33920, "ĠMMO": 46359, "ays": 4113, "Ġverbal": 14580, "Ġrows": 22162, "Ġsequels": 36715, "Ġclarified": 18135, "Ġsituation": 1068, "Ġ331": 39507, "Ġslash": 18304, "ĠAir": 1754, "Ġviolated": 8245, "Ġaka": 19056, "Ġcurls": 34422, "ĠRefugees": 29859, "ĠBuster": 31771, "ĠIb": 14643, "oine": 21012, "Ġbleach": 38317, "Ġmoderator": 36990, "Ġepidem": 29027, "aign": 26483, "Davis": 36787, "Ġè£ıè": 50192, "icated": 5554, "Ġpapers": 6665, "Ġpiracy": 33551, "oire": 41154, "ĠRumble": 25720, "ĠWh": 3990, "Ġspurious": 43310, "livious": 48797, "Ġperish": 42515, "Exper": 45395, "Ġlogically": 42531, "Ĵ": 10659, "ĠMusic": 3920, "ighty": 25529, "Ġsalsa": 33367, "ĠAssistant": 6267, "hem": 9506, "ĠPoe": 29273, "Ġqueues": 29803, "Đ": 50124, "ĠDerby": 11211, "Ġresilience": 13790, "Ġ<[": 50161, "loo": 37521, "ĠClinton": 2235, "Ġfundamentally": 16894, "Sony": 40183, "Ġsupplement": 15981, "Ġtrustee": 19467, "Ġenterprises": 10445, "ĠBattles": 42176, "ĠWidow": 40372, "Ġshores": 20597, "Ġotherwise": 3680, "Ġlaboratories": 29007, "Ġtrembling": 44912, "II": 11194, "aughs": 45206, "Ġext": 8935, "Ġwielding": 34068, "Ġdiagnoses": 35618, "Ġbatters": 15207, "Ġvers": 19431, "Tools": 47351, "Ġmural": 21281, "Ġpitch": 3242, "City": 15075, "Ġausp": 31045, "Ġfavour": 5976, "Ġsynt": 45774, "Ġrec": 3872, "ĠRober": 44607, "ĠHP": 13064, "ĠCongo": 11536, "Ġtubing": 40924, "oho": 24019, "ĠBorg": 20651, "Ġaccordingly": 14649, "ĠiPads": 29265, "Ġreciproc": 31516, "Ġramp": 6854, "Ġaffiliated": 13778, "ĠBrowse": 28947, "ĠJimmy": 5905, "ĠMean": 30750, "Ġglory": 12594, "uckland": 47079, "Ġsplitting": 21128, "Ġtabloid": 25135, "thy": 23875, "ĠHB": 22783, "Ġbrightly": 28416, "Ġgrabbing": 16004, "----------": 45072, "EEE": 47146, "Ġbananas": 31130, "Ġrev": 6910, ").[": 48999, "ĠCutter": 44390, "Ġpriesthood": 41740, "podcast": 43264, "Ġpaper": 2225, "gdala": 49538, "+)": 42053, "Ġricher": 24230, "Ġla": 897, "Ġwhore": 45590, "inker": 30606, "charg": 36068, "Whenever": 32395, "orea": 33594, "Ġguidelines": 6401, "ĠEle": 21615, "ĠAbuse": 23827, "Ġarchetype": 46186, "addle": 33151, "ĠRusso": 26479, "Ġutility": 6041, "urally": 28108, "esity": 46461, "Ġsequential": 29698, "Ġcircumcision": 45096, "untu": 45244, "ĠPayton": 21935, "Ġgrips": 29706, "oking": 14805, "ĠFaith": 14161, "Ġmilliseconds": 44450, "Throw": 45920, "ĠLanguage": 22205, "ĠKh": 2218, "ranked": 8970, "Ġhumanities": 38915, "ĠCompl": 20722, "Ġbolster": 12397, "Ġpus": 32349, "bread": 23181, "Roaming": 49114, "ilege": 44210, "ĠPavilion": 21813, "ĠInsurance": 6799, "Ġincredibly": 5784, "ĠSweep": 27394, "door": 11219, "ĠHampton": 15737, "ĠTrad": 10430, "Ġfruition": 25789, "Ġsending": 3981, "ordan": 29742, "aclysm": 43464, "Ġgains": 3077, "Ġexemplary": 29032, "ĠHem": 10869, "Ġregarding": 2624, "Ġvan": 3538, "izen": 26821, "redible": 29921, "ĠMaur": 12381, "ijing": 40049, "blance": 49267, "Ġstrange": 7782, "Ġgod": 9069, "Ġcomics": 19453, "Ġindef": 39689, "ĠAnaly": 4749, "shall": 42065, "Ġclash": 6064, "Jo": 19842, "iann": 30265, "ball": 3512, "ĠHobbit": 44742, "Ġsomewhere": 6152, "ĠRam": 3513, "Ġcapita": 21914, "ĠGods": 35382, "ĠDiseases": 34477, "ĠLamp": 23418, "ãĤ¤": 48611, "pmwiki": 50062, "rint": 39907, "ĠProsecut": 39039, "ĠAirways": 13337, "ĠJacksonville": 9811, "istors": 43951, "Ġrolled": 6387, "Ġadjusted": 5493, "had": 12186, "Ġdefund": 39483, "Hidden": 43024, "ĠHurricanes": 13697, "ĠEm": 3676, "ĠDirectorate": 23691, "asured": 29323, "Ġpeculiar": 28178, "Alabama": 37388, "anche": 13706, "Ġmist": 12241, "Ġasserting": 29855, "Ġnested": 46902, "Ġrelaxation": 26545, "ĠTrinity": 13544, "ĠMW": 19370, "Ġhobby": 21039, "ĠRolls": 22924, "Ġdetectors": 25458, "Ġwarrants": 11958, "ĠAnswers": 41034, "Ġconstructs": 43978, "lik": 16741, "ĠDefence": 7518, "iven": 19239, "items": 46740, "ĠAsheville": 25608, "ĠSeat": 31169, "Ġwax": 19957, "Ġangles": 19811, "WW": 20904, "ĠCe": 15858, "ribune": 14392, "Ġcalib": 34544, "Ġcautious": 9420, "ĠFEC": 39731, "Ash": 29460, "ĠHOR": 37394, "dding": 42753, "PIN": 46558, "Pocket": 47964, "Ġbenz": 39862, "Ġantidepressant": 44149, "dash": 42360, "Ġparanoid": 33554, "Ġnoticing": 27515, "ĠEdison": 21670, "Ġsurgery": 3012, "Ġluxurious": 20755, "Ġsou": 22272, "Ġflower": 14214, "Ġsea": 3342, "hma": 36050, "Lay": 42510, "Ġsweep": 9808, "Ġev": 7630, "oway": 20574, "ĠTitle": 13497, "ĠGOODMAN": 44520, "ederation": 41447, "Ġcooled": 25524, "Ġsuccessful": 1800, "Ġpint": 28143, "ĠPikachu": 44464, "Ġmilitias": 21015, "Ġpolite": 24908, "nation": 17409, "ĠJerusalem": 7007, "Ġantics": 24728, "onomy": 38217, "Ġmisled": 25022, "Ġsid": 16742, "Ġsuccumb": 38975, "ĠQuestions": 18964, "Williams": 23886, "Ġattack": 908, "radius": 48480, "Ġinsufficient": 16429, "idem": 42896, "ĠPlayoffs": 32224, "ĠKorra": 49292, "Ġheat": 2859, "Ġtransformer": 40878, "Continue": 46982, "Ġflavour": 24253, "ĠNor": 6567, "campus": 28135, "Ġcontrary": 11159, "avia": 21866, "Ġnegligence": 20037, "ĠIcar": 46358, "ĠSending": 40940, "Greek": 43394, "isms": 28599, "Ġcanon": 32839, "ĠRut": 18825, "azi": 12934, "Ġaccelerating": 17604, "ĠInsider": 9203, "Ott": 41691, "ibi": 17310, "ĠArmor": 43378, "Ġsleeve": 24150, "ĠWITHOUT": 46089, "Ġtherein": 35410, "matical": 45816, "htaking": 47141, "âĸĳ": 48473, "Ġarresting": 22534, "adding": 30547, "unicip": 46951, "ĠTopic": 42295, "/>": 49666, "rew": 10461, "Ġgestation": 42983, "kies": 16731, "Ġform": 1026, "uca": 26802, "moil": 46981, "Ġinver": 39312, "seen": 24196, "Ġtwitch": 44745, "come": 19807, "ĠJub": 20949, "Ġgrain": 10924, "Ġcens": 26489, "ĠMIA": 37860, "pole": 33254, "Ġtaxes": 2556, "Ġmiracle": 16829, "Ġhuman": 1050, "Rank": 46052, "ĠGutenberg": 47327, "Ġoutlawed": 30827, "Ġkernel": 34751, "Ġviolently": 26435, "ĠKind": 17161, "Ġintentional": 18797, "SHA": 45004, "ĠOnce": 3128, "ĠGaw": 39338, "ĠHand": 7406, "kan": 11334, "Ġdoubtful": 26645, "...)": 41137, "ĠUM": 22759, "Ġmystic": 43834, "imilar": 36692, "achus": 46798, "ĠStorm": 5809, "ĠReserved": 13147, "division": 29418, "ĠBritain": 1444, "spring": 36741, "Ġreversed": 13173, "andon": 19490, "Ġflav": 37564, "Ġprov": 11570, "pox": 40682, "ĠAlberto": 21071, "HAHAHAHA": 48109, "Ġgasoline": 9358, "ĠStatue": 35549, "footed": 26620, "ĠIGN": 38171, "semb": 26660, "Ġdoorway": 37951, "ĠCancel": 31543, "ĠBild": 21444, "APE": 38851, "drop": 32597, "ilia": 10990, "Ġagon": 27497, "Ġdiscard": 37952, "Ġsquat": 31147, "issan": 39489, "ĠKnicks": 11836, "Ġnumerous": 3617, "ĠTheodore": 26164, "Ġfilthy": 35200, "Throughout": 36428, "Ġclassified": 8967, "ĠDR": 10994, "Ġlesser": 13514, "Ġeconomy": 866, "cms": 22408, "Ġsleeper": 36170, "Ġspeaks": 4922, "Ġtweets": 6245, "van": 9965, "ĠCowboy": 34584, "Ġclimbing": 10907, "ĠRandolph": 24500, "Ġclamp": 24241, "ĠFalls": 7459, "ĠCatalyst": 34701, "ĠKun": 15941, "Ġsentient": 45517, "lette": 13476, "ĠDor": 7318, "ĠSiberia": 36554, "ĠTec": 28389, "ÃĹ": 6230, "Ġbarr": 31471, "Ġabras": 37722, "Bush": 43294, "ĠKung": 39592, "Ġgoodbye": 15364, "Ġdeposits": 8874, "Said": 47117, "Ġindifference": 34239, "Ġlacked": 13385, "Nature": 43984, "Ġ'.": 48694, "Ġmourning": 19293, "ĠNaz": 14618, "mittedly": 36946, "Ġlull": 29620, "Ġenlightened": 38853, "ĠKurdistan": 22953, "LinkedIn": 48005, "Ġimprovised": 29996, "Ġwide": 1810, "Contents": 49482, "Â¯Â¯Â¯Â¯Â¯Â¯Â¯Â¯Â¯Â¯Â¯Â¯Â¯Â¯Â¯Â¯": 49998, "Ġnext": 220, "uterte": 46489, "Ġpt": 46238, "Ġbites": 21482, "Ġtriple": 6436, "ĠHMS": 33810, "isconsin": 47124, "Ġdysph": 44153, "Ġrelinqu": 24637, "ĠCle": 8388, "pled": 18331, "Ġsubmitting": 19965, "Ġcele": 20661, "Ġcoupling": 43437, "Ġ1901": 40193, "ĠBuffer": 44314, "Ġlegisl": 23241, "Ġrm": 45900, "ĠPrayer": 28003, "ĠIw": 28579, "ĠPT": 7008, "ENC": 29076, "Ire": 48000, "ĠSecondary": 16021, "igated": 21750, "Ġavenue": 24797, "ahon": 42343, "filled": 13268, "Ġquarrel": 39486, "ĠLake": 1777, "ĠLara": 21696, "Ġconvey": 15451, "Ġsl": 3369, "ĠTHEN": 45893, "chy": 17414, "hair": 34019, "Ġions": 41985, "ĠDoomsday": 45867, "ĠENG": 40565, "Ġslight": 7019, "Ġintellect": 36414, "ĠEQU": 39135, "Ġsufficient": 7719, "ĠPyongyang": 7625, "Ġembry": 48223, "ĠSeb": 36357, "Ġfallen": 4491, "ÙĨ": 31746, "Ġsettling": 15433, "Ġanecdotes": 35922, "iltration": 43605, "ĠLoop": 23005, "Ġjet": 4900, "ĠWent": 14597, "Flor": 45344, "Virginia": 38477, "wordpress": 42789, "ichita": 47011, "Ġdecrease": 7280, "ĠRender": 46804, "ĠWolfgang": 30310, "oki": 28439, "ĠVerizon": 10422, "Ġachieve": 3042, "ĠÃĹ": 17935, "Ġbranded": 12301, "Ġbeforehand": 23882, "DEF": 44438, "edition": 31855, "Termin": 45720, "Plugin": 49577, "ĠTheo": 24338, "ĠNightmares": 47381, "agos": 31058, "ĠAugust": 830, "Ġspecialized": 14120, "Ġber": 14719, "worldly": 39860, "ĠKal": 5507, "alm": 30293, "Ġanus": 45938, "Ġvolunt": 43763, "Ġsunk": 21168, "ĠSurface": 17111, "Snow": 31100, "ĠPrincipal": 13619, "YN": 31644, "ĠPull": 18143, "Ġplays": 1974, "Orange": 37264, "Ġindifferent": 34657, "Ġnearby": 3027, "ĵĺ": 49917, "ista": 6377, "estone": 18873, "Ġblast": 7814, "ĠHarold": 18289, "Ġsecondly": 36013, "cessive": 37013, "ĠProc": 33046, "around": 13837, "Ġbracelet": 31996, "Ġbacon": 18599, "Ġtipping": 22737, "ĠAlone": 34171, "ĠExaminer": 23556, "ademic": 41551, "ĠVI": 11663, "Ġvac": 18721, "Ġmillion": 153, "ĠOklahoma": 4020, "ĠRW": 34573, "Ġvulnerable": 4478, "imer": 15677, "imilation": 43616, "gression": 42223, "Ġpodcasts": 25647, "Ġfirearm": 9823, "Ġ(&": 47659, "Looking": 17629, "ĠBaltic": 24532, "ĠPASS": 38798, "OULD": 33835, "ockey": 16303, "Ġwhatsoever": 14778, "Ġhad": 56, "Ġloans": 2973, "Ġsibling": 21771, "United": 20556, "Ì": 44025, "Ġdared": 28335, "ĠJoh": 9924, "inx": 34511, "Ġredu": 32558, "Ġsmoked": 19894, "Ġonions": 21568, "Ġorient": 33379, "Ġclumsy": 38734, "ĠSinn": 23946, "Ġopener": 5346, "ĠAway": 19685, "ĠCooperative": 28331, "Ġdowngrade": 19637, "ĠHernandez": 7816, "Ġmillions": 2535, "essert": 38979, "ena": 4242, "Unity": 46024, "Ġcrops": 9774, "ĠHick": 23587, "isions": 12545, "Ġcompuls": 44245, "Ġwavelength": 43165, "Ġ4000": 32542, "ĠBeer": 15065, "Ġtaco": 34656, "Ġnerds": 43153, "ĠTim": 2668, "Ġheadquarters": 4351, "Ġfrequencies": 32407, "aeus": 39174, "ĠJas": 15504, "Ġpsychiatry": 39620, "odus": 45933, "Construction": 43147, "ĠPitt": 9386, "Ġdimin": 29063, "agic": 25725, "Ġfirearms": 9855, "ĠSwan": 20617, "adden": 23004, "ĠAdamant": 49031, "adh": 16397, "Ġcrew": 3419, "ĠBush": 3516, "ulent": 25841, "ĠMile": 14640, "Ġdragged": 10840, "Ġcommenters": 40471, "Ġslang": 41046, "Ġrefriger": 20659, "ĠPossible": 32104, "Ġbounds": 22772, "ĠForgotten": 43799, "Ö¼": 49105, "Ġration": 32031, "orama": 29762, "Ġdetox": 31838, "Ġstaggered": 37646, "tv": 18724, "ipt": 10455, "ĠShine": 28276, "traditional": 30172, "Ġsubtract": 40033, "Ġacoustic": 21979, "Ġinterfered": 29900, "Ġtill": 6612, "Ġwig": 29478, "ĠShock": 27986, "Ġnovice": 32219, "Ġempathy": 17805, "ocused": 38787, "Ġasserts": 32838, "onential": 47782, "ĠSpl": 25873, "zb": 19831, "Ġlikened": 26847, "antically": 38600, "Ġpictures": 3493, "Ġported": 46464, "ĠLine": 5562, "rons": 26573, "Ġriff": 31457, "Ġexecutable": 47251, "Ġdispro": 39792, "Ġdeeply": 4814, "Ġgriev": 34713, "ĠBuckingham": 18786, "otional": 23745, "being": 9442, "Ġrecover": 5312, "oran": 25036, "ĠBrief": 14201, "ĠMaximum": 35540, "ĠMuch": 7840, "vernight": 28370, "Ġsket": 43577, "Ġfetus": 35502, "ĠCass": 11710, "Ġleth": 35370, "Ġperson": 621, "Ġcompletion": 5687, "HTML": 48085, "cit": 34630, "ĠSquare": 5041, "Ġnearest": 14712, "Ġforbidden": 27686, "Ġcozy": 23889, "Mach": 45971, "Ġpseudonym": 41093, "Ġdoctor": 3299, "Ġrested": 21249, "Ġbeware": 36798, "Ġsir": 21958, "Ġsubscriptions": 22715, "Ġrough": 6744, "Ġobservers": 12136, "Ġtouches": 12325, "consuming": 27900, "ĠDickens": 34120, "Ġroutes": 7145, "ĠLeopard": 41889, "STAR": 39602, "ĠAX": 31697, "Ġkeywords": 32712, "ĠHib": 22842, "Ġmuzzle": 41751, "ĠScal": 23062, "ĠAdjusted": 15928, "Ġcontaining": 8200, "Ġapproximately": 2219, "orth": 22494, "Ġlandmark": 10043, "ĠGreenpeace": 31637, "Ġsting": 19049, "Ġtemper": 18586, "ĠDisneyland": 26043, "ĠAm": 1918, "ĠRights": 3941, "ĠKev": 30762, "Ġorphans": 38479, "Ġpigment": 39461, "Ġconj": 21044, "ĠMitt": 16272, "ĠRubber": 31170, "Ġoutlined": 10634, "ampions": 34459, "Ġcommunism": 35754, "ĠCalif": 6863, "inho": 13265, "ĠDarius": 28489, "ĠRampage": 43304, "jab": 39805, "ĠSolution": 29381, "usky": 24813, "Ġblatant": 26248, "ĠTriple": 8424, "ĠBubble": 40362, "omed": 12781, "ĠMurder": 25129, "Ġmethods": 6448, "Ġdevices": 2110, "ĠRaqqa": 23277, "impro": 33491, "Ġdeployed": 6400, "Ġfund": 1391, "Ġramps": 27465, "hip": 4128, "ĠOmni": 37899, "Ġsulfur": 34196, "Ġwooden": 11678, "ĠDEA": 30671, "ĠChloe": 15336, "Ġunst": 35993, "Ġcheer": 9450, "Ġdehuman": 39454, "Ġcreat": 34113, "Ġdamage": 1880, "ĠRen": 6340, "Ġdeleg": 25112, "Ġproc": 17987, "Ġsuddenly": 6017, "Stud": 46011, "Ġ1992": 8548, "Ġ((": 41006, "Ġbund": 37035, "Ġdoi": 36815, "ĠOdyssey": 28394, "Ġconfirm": 4559, "Ġlabels": 14105, "Ġreckoned": 35108, "ĠDell": 11889, "abby": 35878, "Ġ])": 49670, "ĠDodgers": 7002, "Ġvelocity": 27229, "ĠSparks": 22320, "Ġgroceries": 20279, "Ġinverted": 40998, "Ġvideos": 3424, "rox": 31726, "Ġlearn": 1532, "Ġunnoticed": 26850, "Ġfundra": 24556, "Ġharvesting": 23820, "Ġglobally": 7197, "ĠAriel": 25586, "Ġascending": 41865, "ĠSecrets": 34702, "ĠBahrain": 13800, "Ġdilig": 49155, "ĠJew": 16495, "ĠHerrera": 19176, "Ġhomes": 1611, "asts": 13651, "ĠDaylight": 41992, "Ġappealed": 9826, "Ġpumped": 19153, "ĠTheNitrome": 50232, "icum": 35753, "ĠNYU": 35102, "ĠInsert": 45707, "OG": 10207, "Ġprogress": 2017, "Ġconsideration": 6077, "ritis": 37830, "ĠKendrick": 21548, "Ġmus": 11721, "yang": 20603, "Ġgloves": 14341, "Ġinterns": 34470, "ĠNeo": 31176, "ricks": 24214, "Ġbatting": 8032, "ĠMuscle": 40221, "ocated": 23283, "Ġenvironmental": 3039, "Ġuninstall": 46721, "endment": 40720, "ĠHots": 20302, "Ġlegend": 7875, "ĠMcCoy": 16992, "Ġhazard": 19895, "edited": 40137, "market": 2989, "Ġantibiotic": 25465, "because": 13437, "2500": 41374, "Ġvouchers": 25137, "ĠTenth": 44173, "chers": 7873, "Ġsix": 411, "Ġfacial": 11560, "lining": 16526, "obic": 30059, "Ġsaf": 25277, "Ġ1915": 36398, "Jews": 44451, "Ġleading": 981, "ĠKDE": 46418, "body": 9773, "ĠCalories": 46406, "Ġrefinery": 13628, "Prop": 41895, "ĠValley": 1739, "Connect": 31161, "Ġmentally": 10072, "uns": 12140, "Salt": 44095, "Ġprobable": 15186, "ĠHedge": 18635, "Ġquotes": 11495, "imar": 34599, "ãĤ¯": 49326, "ĠSabb": 42365, "Ġcreators": 15520, "Ġeurozone": 24860, "Ġfeeling": 2157, "Ġinfluence": 2712, "Jordan": 34057, "ĠSteph": 20863, "Ġpts": 32215, "ĠTer": 5094, "Ġnowhere": 9261, "âĢ¦]": 48021, "urther": 39212, "Ġstitches": 31223, "flu": 33266, "ĠGABA": 47644, "foreseen": 47765, "Dark": 35268, "ĠWallace": 10379, "ĠCameroon": 14781, "Ġregulated": 13588, "enny": 11867, "Ġstrategic": 3461, "ithering": 37414, "urate": 23412, "ĠParent": 7783, "ORGE": 38288, "Ġpesticides": 25393, "cam": 16767, "Ġfree": 481, "Google": 20441, "Ġspecialist": 6857, "ĠMail": 6313, "Ġtactical": 15714, "Ġnonviolent": 36887, "Ġfisherman": 28783, "Ġdiffered": 38320, "Ġphysics": 17759, "ĠKore": 18650, "Ġ189": 29304, "ĠDHS": 23066, "Ġoffering": 1839, "Ġconcern": 2212, "Ġglare": 37355, "Ġgl": 5921, "Ġhash": 29524, "Ġauthoritarian": 19574, "ĠScor": 40219, "»Ĵ": 49834, "Ġovarian": 29944, "Ġelectorate": 17412, "Ġsenators": 7028, "reatment": 29340, "oids": 22926, "ĠStatements": 22898, "Ġheartbeat": 28288, "ĠScientists": 14008, "inen": 11072, "Ġchemotherapy": 17930, "Ġword": 2136, "ĠCoc": 23344, "/#": 29064, "Ġcritically": 11960, "Ġ1850": 40384, "Ġjudge": 1679, "Ġfeeds": 17456, "Ġmuscle": 8698, "Ġannouncement": 2443, "Ġunimagin": 46046, "Even": 8170, "Ġdeepen": 23176, ",'\"": 10076, "Ġwherein": 26134, "Ġpolling": 8511, "ĠFSA": 35236, "atches": 24700, "Ġchemistry": 11877, "ractive": 33041, "Ġchron": 24600, "ĠPlasma": 43826, "ĠIsraeli": 3465, "Ġfentanyl": 16938, "priv": 25943, "religious": 32300, "ounty": 42440, "Ġprominently": 26584, "Ġemptied": 35371, "Ġbecomes": 3374, "Ġnothing": 1085, "Ġearned": 2208, "ĠWinged": 46784, "Ġcruising": 27068, "idding": 27346, "Ġitiner": 26785, "Ġconfined": 18687, "Bar": 14507, "leaf": 24999, "Ġtherap": 49566, "Ġbandits": 37953, "Ġendemic": 34047, "Ġhid": 20119, "Ġpicking": 6201, "Ġanimosity": 34351, "Ġquestionnaire": 31067, "otonin": 48665, "ounding": 10773, "fork": 34886, "Hundreds": 36062, "Ġlobbyist": 25238, "Ġimpacted": 7284, "ĠAntonio": 4578, "Ġerosion": 19407, "cakes": 33579, "irez": 45082, "OPS": 33641, "Ġimmunity": 17381, "Ġeighty": 42991, "Ġprinted": 11118, "Ġnood": 38709, "Ġliberation": 22211, "ampire": 47560, "Ġpoisoned": 27041, "Ġtitan": 39996, "rawling": 42595, "Ġscheme": 3552, "ĠBeef": 26888, "ĠSonia": 23961, "Ġsax": 31365, "ĠParameters": 47930, "otes": 17467, "ĠPrimary": 11518, "adia": 20329, "ifies": 10687, "Ġparcels": 27626, "lem": 10770, "Ġcoc": 29472, "ĠHI": 35393, "olas": 17084, "ĠSummon": 47982, "ĠDash": 18946, "alore": 45013, "Ġsurfaced": 12671, "Ġroar": 31733, "Ġsomething": 402, "ĠPublic": 1909, "Ġglitter": 19053, "Ġreferees": 23811, "Ġobtained": 4756, "Ġstairs": 16745, "ĠFar": 4256, "ĠHaj": 19708, "Ġmedicine": 6150, "Morning": 23736, "ĠLeh": 15765, "ĠBelarus": 22514, "ĠMSM": 43596, "Ġstripped": 12850, "ĠAerial": 37550, "Ġlung": 10665, "Ġmum": 8562, "Ġsab": 19978, "Ġrate": 731, "Ġwarranties": 40551, "Ġfranchises": 18154, "Ġalleg": 38147, "ĠPalace": 5928, "alty": 12107, "ĠEleven": 22243, "ĠItem": 39870, "ĠHamilton": 4127, "ĠChristopher": 5469, "Ġsay": 224, "Ġdiversion": 24112, "Ġwaivers": 18027, "Ġinfect": 27802, "Ġdepiction": 31388, "ĠSoldier": 29845, "ĠLP": 8765, "Utah": 34969, "cat": 8729, "OSE": 7949, "Ġchemist": 40475, "Ġshootout": 13818, "reddits": 49607, "ĠMonkey": 34546, "Ġultimate": 7017, "Ġshowcased": 16527, "ranking": 19217, "Ġgr": 4435, "earned": 23231, "south": 25515, "ĠSasuke": 49254, "Ġstricter": 20674, "yre": 15974, "ĠOrders": 32335, "ocratic": 23337, "Ġdeserves": 8613, "ĠBlasio": 20641, "Ġgit": 45996, "Ġdiscovering": 18152, "CCC": 29083, "espie": 47712, "oxicity": 46513, "Category": 46308, "ĠVit": 24589, "Ġwisdom": 12320, "quiet": 35750, "Ġcans": 17029, "ĠCornel": 33053, "udes": 21683, "ĠDM": 18695, "ĠMikhail": 29300, "Ġbadass": 38525, "Ġ395": 39026, "erie": 23834, "erion": 45677, "ĠNag": 7729, "iful": 16170, "Ġmisses": 16857, "Ġtestament": 17750, "Admin": 48175, "Ġpers": 20187, "ĠDianne": 24488, "ĠLetters": 23937, "Ġwhiff": 36850, "OAD": 43021, "ĠVide": 33590, "Ġfastball": 20604, "INK": 23617, "Ġvib": 23338, "Ġadministered": 16556, "Ġtranssexual": 47147, "Ġdirects": 24564, "idious": 43964, "ookie": 31113, "OA": 16024, "ĠIdentification": 36309, "Ġimg": 48599, "Ġbiological": 12243, "Web": 27521, "ĠZombie": 40751, "Ġmountainous": 29074, "asionally": 47030, "ĠRestoration": 32569, "Ġrewards": 12840, "Ġscare": 13207, "Ġstrangers": 15595, "Ġinitiated": 9608, "Ġsummoned": 17323, "Ġoriginate": 37435, "ĠTrend": 14154, "Ġaccuse": 15311, "Ġ399": 41279, "Ġnonprofit": 6651, "phrase": 40726, "iami": 40879, "electric": 18986, "ĠHew": 16251, "Ġrespected": 9132, "Ġmetab": 49239, "radio": 35248, "Ġstringent": 19940, "Ġtables": 9248, "Ġ($)": 41945, "ATES": 27704, "accessible": 43343, "ĠFOX": 7481, "Ġomit": 43388, "ãĥ´ãĤ¡": 50033, "abases": 41520, "ĠCad": 15307, "Ġrecommend": 5940, "Ġbriefs": 34672, "Seven": 35731, "estyles": 48143, "ĠContributions": 42927, "ĠIc": 24768, "ĠLegs": 45394, "asha": 15144, "Ġ-----": 45364, "Ġamount": 1280, "ĠYale": 15122, "Ġmobility": 11525, "Ġaforementioned": 15785, "Ġkarma": 43011, "emy": 27171, "ĠNeuroscience": 41942, "Ġcement": 10546, "Ġsuppose": 19792, "ĠHA": 27842, "employment": 37011, "oust": 17778, "obia": 33693, "mallow": 37359, "Ġ386": 42161, "Ġextermin": 43191, "Ġslip": 9215, "ãĤ«": 49063, "Ġmysteries": 30621, "ĠWhitney": 17249, "Ġparasite": 37004, "Ġsugar": 4696, "Ġinvested": 5221, "Ġsystemd": 48608, "ĠSed": 17134, "ĠRocks": 27535, "Ġbrut": 43478, "ĠJustice": 1659, "ĠVirtue": 41733, "ĠPhi": 34918, "Ġrendered": 18728, "Ġworkplaces": 28717, "ipop": 42818, "Ġmodifiers": 47605, "ĠConstitutional": 18221, "Reports": 32339, "Ġoutnumbered": 28103, "Ġdischarged": 16406, "ope": 9877, "Ġir": 10209, "Ġobserved": 6373, "bare": 35219, "Ġcasually": 26294, "Ġvisibility": 11915, "Ġsuffer": 6297, "1966": 45485, "Ġexceptionally": 20135, "æĢ": 48483, "Ġneur": 41213, "Ġelectrom": 45475, "Ġdescend": 29195, "Ġtrivia": 35317, "ĠAccording": 767, "ĠKB": 29006, "Ġwhistle": 16867, "Ġslander": 39455, "ĠMayer": 21296, "Ġcaste": 26336, "Ġschematic": 46183, "Children": 31008, "cription": 33112, "Ġpoop": 36733, "\":\"\",\"": 44374, "Ġpots": 26520, "Ġgmaxwell": 50182, "Ġquicker": 13927, "ĠParty": 1643, "Ġtournament": 1967, "åĮ": 48418, "Ġrunaway": 25727, "lude": 34646, "Ġrecre": 35244, "Ġbackwards": 19312, "heter": 31995, "ĠCameron": 5628, "ĠÙħ": 42620, "ĠReddit": 6844, "ĠElection": 7713, "IAS": 43227, "Ġwatered": 36408, "ATIONAL": 23771, "Ġá": 25974, "Ġendeav": 34078, "why": 25800, "Ġtempting": 25057, "Ġcontradicted": 35407, "Ð¼": 46056, "Ġordinance": 11020, "ocytes": 44601, "Ġcounting": 10581, "Ġdiverse": 5544, "Ġcancelled": 8102, "ĠNEXT": 10000, "Ġbackground": 3618, "ÃĤ": 2537, "ĠPowerPoint": 39814, "ĠCornell": 15634, "dyl": 48541, "Ġdispose": 26178, "urst": 30141, "ĠTex": 21718, "Ġprofess": 29200, "ĠRecently": 11800, "ĠPioneer": 16999, "Ġdiabetes": 7704, "Ġdictator": 18529, "rave": 15132, "Ġ702": 24402, "Ġreelection": 28683, "Ġupon": 2115, "Ġregulating": 24555, "forge": 47822, "ĠAngle": 30098, "Ġshrinking": 16921, "Ġprohibitions": 42982, "Ġprocure": 32560, "pret": 42354, "ushes": 27843, "Ġrosters": 31096, "ĠNathaniel": 29299, "ĠHBO": 10240, "ername": 48285, "ĠAmpl": 37522, "Ġtolerate": 17028, "Ġcollective": 6981, "hetamine": 45634, "rik": 8836, "Ġelev": 14478, "ĠGorge": 31407, "Ġmagn": 16150, "Ġundertook": 34471, "vana": 40949, "Ġwounded": 5424, "ĠPiece": 40689, "Ġroared": 29115, "ĠJur": 16816, ">>>": 47457, "ĠTitus": 33697, "Ġcowboy": 29864, "ĠJessica": 7103, "Ġwinner": 1924, "ĠHigher": 13620, "Ġguardian": 24413, "Ġnewcomers": 19298, "Ġtex": 45968, "ĠPit": 12670, "Ġpious": 44843, "Ġcloves": 38028, "Ġexploiting": 26005, "Ġcontractual": 26015, "ĠClockwork": 47530, "ĠAmateur": 25757, "appings": 38391, "Ġeffected": 36689, "amm": 12614, "ĠKaw": 13694, "ĠHY": 38005, "Ġburglary": 11910, "ĠViolent": 36483, "Ġ421": 40685, "ĠCorey": 10855, "ĠSlime": 47387, "Ġattends": 16298, "Pixel": 46548, "Want": 38576, "hesis": 35571, "tale": 31029, "berman": 43049, "Ġremembering": 21556, "Internet": 40622, "Ġattm": 49967, "Ġproperty": 1038, "ocks": 6368, "highly": 29003, "Ġhugged": 27425, "berry": 8132, "azard": 38306, "ĠFurthermore": 9870, "Ġsatire": 31368, "Roy": 20512, "Ġlifestyles": 28182, "Details": 45360, "ĠJane": 7343, "ulty": 38431, "Ġhemisphere": 32515, "ĠSpaceX": 14973, "Ï": 45704, "Ġspl": 11743, "Ġinevitable": 11066, "Ġirresist": 47668, "Ġmillionaires": 36826, "ĠMaver": 28920, "ĠSTE": 26538, "Ġdors": 48779, "Ġrocked": 14311, "ĠYuri": 35944, "sold": 14908, "Ġschemes": 10419, "Ġseals": 28707, "ĠPA": 5931, "ĠIts": 3139, "ĠCardinals": 6293, "ĠVinyl": 40236, "Ġjohn": 41906, "ĠApostle": 41275, "Ġrelatively": 3487, "Ġeld": 47527, "Ġpeppers": 28314, "ĠCame": 31476, "Knowing": 40170, "lÃ©": 24227, "ĠStatement": 19356, "ionage": 43150, "Ġundoubtedly": 14217, "Ġhereditary": 40633, "Metal": 44791, "Ġguts": 29294, "Ġstatutes": 31706, "note": 32903, "IGHTS": 26686, "ĠWheeler": 14456, "Ġassets": 1781, "Ġscant": 26583, "ĠBapt": 42856, "gaming": 43129, "Ġpropriet": 32130, "ĠPublished": 13002, "Ġmor": 14628, "opolis": 42310, "ĠEthnic": 42652, "å": 42393, "Ġdrown": 30431, "lator": 44006, "Ġcompartment": 29040, "Ġvulnerabilities": 20715, "ĠCond": 12108, "Ġaccept": 3264, "ĠIntake": 46793, "ĠCharles": 3163, "ĠPhase": 11028, "abi": 10810, "Ġinformational": 31603, "Ġchats": 28975, "Ġwarehouse": 12283, "ili": 4715, "chens": 34456, "Ġsomet": 45420, "ibl": 41074, "Ġministerial": 22822, "Ġcounters": 22420, "Ġsunscreen": 29728, "ĠBig": 1776, "ilight": 45100, "ĠAncients": 48860, "ĠIsrael": 1870, "ĠEpisode": 16012, "ĠAnswer": 31652, "ĠIowa": 4109, "ĠRepair": 34223, "ising": 3009, "Ġthous": 49412, "ĠIllum": 36792, "acting": 24906, "Ġpm": 4751, "ĠActivate": 47492, "ĠUNCLASSIFIED": 49924, "Ġproductions": 18943, "urized": 41003, "ĠVoid": 43789, "ĠOfficers": 6359, "Ġlifted": 4639, "Ġspike": 12490, "Thomas": 25089, "Ġadvice": 2949, "changed": 37541, "duction": 42705, "Ġfading": 25189, "imbabwe": 39329, "leading": 10140, "Ġdairy": 9616, "ruct": 16018, "ĠNumerous": 29251, "ĠASS": 20860, "ĠRao": 17347, "ĠAirl": 41680, "ĠTRA": 17511, "Ġintegrated": 6818, "Ġobscurity": 41425, "ĠOperating": 11763, "gew": 23740, "1983": 43887, "Ġankle": 7451, "ĠReferences": 43633, "unte": 29998, "Ġoutfits": 14755, "Ġacres": 6419, "ä»": 46890, "Ġembargo": 21313, "Ġrespondent": 33802, "Ġfootballer": 19931, "ĠBore": 37896, "ĠDempsey": 29463, "ĠBob": 3045, "Ġsubscript": 49660, "ĠSeymour": 28903, "ĠSeym": 49454, "Ġaccessories": 10131, "'?": 35661, "ĠGovernment": 1621, "Ġtranslations": 41762, "Ġafforded": 24528, "itual": 47388, "Hal": 40306, "Ġusable": 33927, "sav": 27816, "Ġcleaners": 32552, "Ġassisted": 9728, "ĠWind": 7247, "Ġerrors": 9126, "Ġbelieved": 2047, "Maria": 38517, "Ġrecession": 7306, "topia": 43139, "Ġrunes": 48622, "Ġcomprehend": 30030, "ĠJournal": 3642, "ĠGujar": 44331, "Ġsage": 31235, "cle": 16008, "Ġdiscount": 6720, "Ġfired": 2277, "Ġrestitution": 26783, "ĠCf": 47445, "ordon": 19228, "Ġchair": 3428, "ĠMichel": 11026, "Ġcredits": 7751, "urai": 38903, "ĠPixel": 11699, "iper": 17453, "ĠOrigin": 21042, "ĠCK": 35281, "ĠDiamond": 7128, "Ġwhine": 45103, "Ġwire": 8869, "Ġroll": 3825, "ĠDum": 16664, "Ġavert": 21758, "ĠConstable": 25218, "their": 25017, "ĠBarron": 20316, "Ġstaying": 4959, "Ġsacks": 10531, ";;": 48640, "ĠFrem": 18663, "Ġconcrete": 6369, "ĠGore": 16603, "Ġ[+]": 49632, "Ġsexy": 13350, "Ġjuveniles": 28320, "piring": 30429, "Ġdimensional": 43654, "ĠHak": 23162, "oms": 6806, "Ġjudges": 4674, "ĠRegistry": 33967, "apped": 11251, "Ġselector": 41851, "Getting": 28750, "Major": 37038, "ĠHERO": 42874, "ĠPres": 7946, "idental": 27350, "Ġsacrific": 47271, "ĠRecre": 40337, "ĠNRS": 47135, "raphics": 47665, "endum": 44428, "xxxxxxxx": 42523, "ĠOrig": 32432, "Ġfertile": 31351, "Ġaltru": 41088, "Ġhamstring": 12517, "Ġfederation": 15666, "ĠCaldwell": 18050, "ĠCock": 22714, "ĠSco": 30735, "Ġprostate": 20501, "Ġah": 23184, "Ġcommenting": 18240, "ĠAjax": 24857, "Farm": 36587, "Ġruining": 34733, "ĠFl": 4150, "Ġreally": 269, "ĠActiv": 18953, "ĠGalaxy": 5325, "Ġpredomin": 40615, "Ġdrying": 27402, "Footnote": 49627, "alking": 32708, "Ġcook": 7142, "Eat": 43800, "ĠBelt": 10322, "Ġrear": 5081, "Ġham": 11402, "Ġoffend": 34563, "ĠCOURT": 33260, "ĺ": 711, "ilipp": 33465, "Ġlawn": 11853, "IFT": 32266, "osion": 39005, "Ġingrained": 37095, "Thom": 33050, "ĠRocket": 21599, "imi": 7517, "Ġinspire": 9769, "clusions": 41092, "ĠChef": 13821, "Ġshifted": 9679, "izard": 44417, "AKING": 16371, "fight": 16695, "ĠJace": 38699, "Ġdarkest": 29985, "Ġtransformative": 26408, "ĠBloody": 38274, "ĠFri": 12860, "ptives": 49057, "ĠKatie": 8679, "ĠMcK": 9859, "ĠHalls": 41621, "Ġintervened": 21187, "ĠIdol": 25810, "¥µ": 49810, "Ġthey": 51, "Ġnewer": 13964, "orously": 38564, "Ġunnecessary": 10495, "Ġtaped": 26580, "Ġbrings": 3291, "ĠCampus": 14416, "esthes": 42466, "okane": 47851, "ĠWood": 3132, "Nev": 35881, "dating": 40651, "iPhone": 43688, "ĠBoots": 27221, "odic": 30054, "rations": 27748, "Ġcomed": 30632, "Ġtrillions": 35245, "ĠGree": 26023, "Ġpredict": 7006, "Ġexpectation": 9250, "tub": 30326, "Ġfeminist": 17799, "Ġthw": 48416, "Ġdismissed": 4768, "Ready": 38458, "ĠSpiritual": 41522, "ĠSav": 9721, "ĠDial": 28985, "Ġugly": 11355, "SPONSORED": 49228, "\")": 8070, "Karl": 43397, "ĠErica": 22743, "Ġptr": 49892, "alde": 37331, "Ġanarch": 45889, "olutions": 30445, "Ġdarling": 30213, "heric": 41481, "Ġrepl": 19236, "Ġ308": 35343, "ĠMC": 11826, "Ġnose": 8658, "ishop": 44517, "ĠTough": 31155, "ĠFather": 9510, "Ġexacerbate": 33658, "Ġtracing": 35105, "essional": 38418, "ĠGears": 45079, "risis": 28461, "ĠTammy": 23354, "Ġdistracted": 16573, "ĠFeb": 1927, "Ġforemost": 16501, "Ġsellers": 12649, "Ġswitching": 13536, "åĬ": 47645, "ĠGym": 13846, "ĠUniv": 35232, "Ġpub": 8881, "Ġfinely": 29535, "Ġenvelop": 26526, "Ġlasted": 9200, "Ġrationality": 45374, "Nich": 41784, "Ġkillers": 20480, "ĠTen": 4527, "ĠRPC": 44889, "Ġstir": 14351, "ĠSnapdragon": 17642, "Ġmath": 10638, "Cash": 32987, "Ġscissors": 36063, "ĠKenya": 6241, "ĠByrne": 19788, "ĠEating": 30437, "agna": 33281, "occupied": 22385, "Ġwitnessed": 6957, "Tony": 26156, "ĠCoffin": 45542, "ĠAvailability": 36540, "Ġpromoter": 23408, "Ġvacant": 11042, "ĠMongolia": 32150, "Ġcascade": 39718, "Ġfunnel": 23662, "Ġheter": 39872, "ĠHughes": 7799, "Els": 48246, "Ġcollege": 1564, "Ġdisqualified": 19429, "Ġtemperament": 33419, "ĠMasquerade": 46967, "etsy": 46450, "ĠðŁ": 8103, "Ġdevote": 19479, "Ġpans": 31592, "Ġrelegation": 15403, "ĠAlz": 42794, "Ġenc": 9689, "tymology": 48499, "ĠMahmoud": 23470, "Ġjudgments": 28728, "Ġfly": 3598, "asia": 19036, "azer": 14609, "ĠDartmouth": 30873, "Ġexporting": 25405, "rible": 24786, "Compl": 45312, "mann": 4621, "Ġoverd": 21985, "ĠFernand": 26740, "Ġaversion": 33814, "Ġscript": 8543, "ĠHos": 16502, "ĠRaf": 13710, "Ġprecursor": 31892, "Ġclue": 18664, "ĠZoro": 47283, "Ġjets": 10622, "Ġresidents": 1196, "blow": 42671, "illo": 6491, "Ġfraction": 13484, "ĠOVER": 25133, "ĠTurk": 19683, "OUNT": 34494, "ĠGerm": 24063, "Ġplac": 15155, "ĠJa": 9982, "Ġwrest": 22160, "ĠRelated": 3283, "rolling": 20640, "Ġsections": 9042, "uana": 30585, "ĠMond": 21387, "ĠForum": 7665, "Pir": 42483, "ĠCorvette": 36276, "ĠExtreme": 24495, "Ġperformances": 4476, "Ġinterstate": 22233, "etheless": 49539, "gart": 22739, "ĠChain": 18610, "erald": 26755, "ĠColo": 22378, "Ġenvelope": 21035, "ĠSX": 33040, "Ġfilled": 3820, "aj": 1176, "ĠITS": 27409, "Ġdefied": 25952, "Ġhunting": 8217, "Ġsnack": 17687, "ĠMurd": 28109, "Ġroast": 25149, "Ġind": 9473, "ĠOlivia": 11924, "ĠDeclaration": 24777, "Ġhurried": 35100, "ĠEVENT": 44805, "ĠWalker": 4461, "Ġgodd": 46438, "Ġscholarships": 15012, "ĠâĢ": 44, "ĠCall": 3310, "Ġya": 13531, "atican": 47474, "ĠArea": 4121, "Ġacting": 3501, "Tai": 41064, "Ġbeam": 23480, "ARR": 26952, "Ġdisillusion": 33447, "Ġpastry": 29166, "edom": 45556, "Ġpurpose": 3508, "Ġmortg": 45755, "Ġfreel": 30270, "ĠBrewer": 23404, "ĠGTA": 34296, "ĠAnnie": 17739, "Ġconsole": 12304, "Ġbegun": 5812, "ĠIdentity": 30805, "Ġchanging": 2992, "tick": 41791, "indal": 45259, "ĠNation": 5857, "Ġcivilisation": 40769, "Ġhandful": 6095, "Ġpremises": 11457, "ĠPosted": 16171, "xf": 45678, "ĠTavern": 25307, "Ġtalks": 1431, "ĠWasserman": 36127, "ĠBAR": 26676, "ãģ«": 48016, "ĠCust": 37513, "ĠMusical": 18435, "Ġ1400": 28577, "ĠDirty": 30375, "USD": 14505, "ternally": 41076, "ĠRusty": 37369, "ĠMinotaur": 48330, "lucent": 48638, "ĠEnjoy": 16013, "ĠThief": 43088, "aptop": 39782, "Ġinstalls": 41153, "tesy": 44594, "ĠBL": 12413, "vern": 12170, "ĠChina": 436, "icent": 27909, "ĠHera": 47421, "ĠDou": 11260, "Ġclipped": 33914, "ija": 12733, "ategic": 32281, "ĠGund": 21828, "oglobin": 43202, "ĠRoz": 26532, "ĠMAKE": 39853, "ĠHash": 21653, "ĠCastle": 8834, "Ġmonarch": 20303, "Ġbung": 26459, "Mad": 21067, "ĠLime": 30466, "Ïĥ": 47721, "Ġpersists": 31284, "Ġsort": 2345, "Ġgoods": 3057, "ĠRegulation": 18912, "Ġloader": 44500, "Ġsoothing": 32625, "Ġwealthy": 8581, "ãĤ¦ãĤ¹": 49985, "eter": 5906, "Ġethn": 35526, "Ġtweaks": 27299, "Indeed": 40566, "ĠOwen": 12212, "ilant": 37682, "Kansas": 38959, "Ġdrafting": 21374, "Ġdisrupted": 15902, "Ġnovelist": 29613, "Ġcontradict": 28204, "Ġprescribed": 14255, "Ġgloss": 27293, "aja": 10737, "ĠYe": 11467, "Ġheterogeneity": 47788, "Editor": 31611, "Ġsquare": 3925, "Claim": 45699, "itbart": 43701, "urned": 28426, "wu": 13104, "eson": 21564, "ĠBrother": 13233, "Parts": 45305, "Ġlodged": 15434, "ĠSmart": 5900, "Ġpositive": 1313, "Ġrooft": 37888, "ĠLicensed": 43345, "ĠCampaign": 11068, "Ġmat": 7821, "Ġstorage": 3521, "Ġclosed": 1367, "Ġmovement": 2079, "Ġfilibuster": 33109, "ĠNed": 22309, "Ġannoy": 36074, "Folder": 49262, "Ġrecreate": 27981, "Ġawarded": 4241, "Ġushered": 30155, "ĠSetFontSize": 50212, "Ġfooting": 19941, "orn": 4244, "Ġprovoking": 35359, "Stage": 42378, "Ġjewels": 34971, "Ġgrease": 34483, "ĠMoor": 19524, "Civil": 41044, "Ġembarked": 19179, "Ġrebate": 31949, "Japan": 21318, "Ġloyal": 8259, "Sense": 38239, "Ġactors": 5552, "Ġhapp": 48288, "Ġcontributes": 17992, "ĠMedicaid": 7426, "Ġadmired": 22610, "ĠSheila": 24455, "Ġcustomizable": 36036, "Ġinconvenient": 35489, "Ġappreci": 14137, "ĠLIST": 33513, "Ġbasement": 12288, "Ġadventurer": 44090, "Ùİ": 46297, "Ġstrained": 15718, "Ġlogic": 14578, "Ġoverturned": 13164, "ĠBravo": 19337, "Econom": 44494, "where": 8569, "ĠChen": 10136, "Britain": 29246, "ributes": 13183, "ĠShot": 20796, "Ġpassions": 28367, "ĠLocation": 16287, "XXX": 47980, "ĠYamato": 47562, "nesota": 46295, "combat": 42880, "ĠSurviv": 48721, "Ġprojectiles": 41800, "btn": 49231, "Ġinvaluable": 21991, "arthed": 48061, "present": 25870, "ĠFate": 31719, "Liverpool": 30760, "Ġpoisons": 45265, "ĠMcN": 11090, "Ġmoniker": 30543, "Ġjs": 42898, "baby": 29126, "Ġjazz": 11057, "Ġdecisions": 2390, "ĠImperium": 48437, "Ġnutrit": 48297, "Ġpage": 1842, "Ġcaliphate": 34708, "iscal": 26104, "idan": 34343, "anging": 23786, "ĠGallery": 9017, "ortmund": 47867, "Ġorcs": 48401, "ĠMitch": 8703, "},\"": 37637, "idas": 19926, "ĠSOLD": 44490, "Ironically": 46805, "Ġcocoa": 22348, "ĠChurches": 37391, "Ġentitlement": 28610, "Ġspawns": 47575, "Ġvarying": 15958, "Ġ1897": 44113, "chery": 26154, "ĠPhoenix": 5524, "eus": 41728, "ĠAadhaar": 23296, "ĠME": 12341, "0100": 45231, "Nintendo": 44689, "Ġdefamation": 21869, "Ġcreed": 40318, "_-_": 48898, "Ġanatomy": 38272, "ĠAcross": 15581, "Ġnostalg": 47540, "Ġfacet": 34407, "flame": 45992, "ĠPipe": 35386, "ĠPodesta": 33735, "yond": 32565, "Ġunb": 28363, "flying": 28781, "ĠSkill": 37456, "Ġdeviation": 38369, "ĠRankings": 34151, "ibble": 42958, "ction": 14970, "Ġcivilization": 25492, "ĠKemp": 16030, "Ġconfused": 10985, "Ġmerging": 29002, "starting": 34845, "Ġpreliminary": 6104, "Ġarose": 22465, "Ġtractor": 17007, "Ġbrakes": 17690, "Ġaxe": 27729, "/+": 47155, "ĠGord": 20095, "Ġultimately": 3284, "ĠTow": 20232, "Ġtherapies": 17094, "ĠFunding": 21859, "ĠIlluminati": 46667, "Ġfitt": 35580, "Ġmelanch": 45565, "×©": 48352, "Unt": 47402, "igma": 34719, "Ġgarnered": 15913, "ĠOy": 17311, "ĠConsulting": 18330, "juven": 45257, "Ġaston": 44434, "ĠBody": 13048, "Ġdelayed": 5943, "TB": 16566, "Ġtail": 7886, "bash": 44551, "ĠFleming": 22273, "ĠTent": 39052, "Ġsymmetry": 43769, "gettable": 46280, "Ġflats": 20250, "ĠAth": 17463, "Enough": 41844, "ĠHeader": 47959, "Ġ1931": 36332, "Ġ412": 38554, "Ġcontem": 44634, "ĠArcane": 48963, "Ġstartled": 37747, "ĠHalf": 11353, "isky": 18845, "ĠHive": 42369, "ille": 4061, "embedreportprint": 50171, "ĠFacility": 18214, "Ġlabeled": 16274, "ĠSchro": 21877, "Ġsubmissions": 18219, "Ġactiv": 30264, "ĠOPEC": 9349, "Ġemperor": 36179, "Ġfortun": 48740, "ĠPork": 35385, "Ġthirsty": 37762, "Ġturbulence": 28742, "oat": 34827, "iated": 15253, "Ġkidnapping": 12311, "efficients": 49785, "sect": 41147, "ethyst": 46867, "GN": 17567, "Ġrapper": 9102, "osp": 16497, "ĠResolution": 22565, "mia": 24238, "ĠVOL": 34503, "ston": 6712, "bles": 11060, "ĠHirosh": 43271, "Ġcrude": 2976, "Ġregistration": 5770, ".\"\"": 39732, "Ġdozen": 4039, "idel": 22088, "XT": 29070, "Ġsectarian": 25454, "stasy": 46059, "Magikarp": 49879, "dead": 18758, "ĠStrategies": 26208, "Ġ02": 15140, "ĠFlame": 40107, "Ġhex": 38810, "ĠSparkle": 45884, "Ġcommissions": 20772, "eping": 24320, "Ġaccomplished": 9370, "ĠSex": 15516, "ĠDAY": 16995, "Ġheaven": 18478, "January": 19904, "Ġneb": 40639, "Law": 22532, "Ġsciences": 17874, "Ġskirt": 16576, "Ġrestaur": 34577, "foreign": 35229, "ĠPaddock": 17763, "ĠBUR": 37173, "ById": 48941, "Ġselected": 3919, "acceptable": 32047, "Spons": 43753, "ĠMessiah": 41547, "ICE": 9292, "ĠBuk": 18607, "Ġfreshwater": 34769, "Ġbicycl": 34984, "anny": 13749, "ĠNokia": 10951, "Ġfatalities": 16982, "ĠAlabama": 3053, "Ġstream": 4615, "ares": 5347, "ctors": 38636, "ĠColonel": 21253, "ĠUd": 23917, "Ġoutcome": 4258, "ĠFoo": 36155, "ĠHercules": 38688, "Ġlooking": 546, "apest": 45860, "Ġplans": 708, "ĠMarian": 19035, "ĠguiName": 50163, "oses": 18575, "Ġroots": 8121, "ĠLaura": 6939, "aca": 11893, "albeit": 41324, "Ġmedi": 18422, "ĠBulls": 9926, "Ġsubjective": 22262, "Ġattention": 1503, "IDES": 42635, "ĠOlson": 19617, "ĠScare": 44429, "Ġcolumnist": 11711, "ĠMcH": 29075, "Ġlured": 25653, "Ġpeach": 34022, "ĠCARD": 30378, "zilla": 44155, "ESA": 32416, "Ġcomplement": 14364, "ĠGround": 13391, "ĠPrin": 26093, "ĠPortugal": 8062, "Ġrubber": 11283, "Ġdrills": 13553, "ushed": 17387, "Ġceilings": 26060, "ĠConsent": 41764, "ĠMothers": 35666, "ĠAntar": 48120, "Could": 35299, "().": 49123, "ĠDeadpool": 29014, "ella": 8461, "Ġfortified": 34334, "Ġcouncil": 1676, "ĠNir": 28140, "Ġstrateg": 18506, "ĠKejriwal": 26796, "Whe": 44413, "ucha": 29782, "Ġparliamentary": 7179, "Ġauthentication": 24790, "ampoo": 44864, "ĠNak": 13806, "Ġsteps": 2402, "ĠOperation": 13346, "Ġbatch": 14398, "Reilly": 16626, "ĠChili": 32878, "Ġexamined": 10543, "Ġunpredict": 38038, "Ġhun": 26458, "ĠNost": 39233, "IX": 9482, "Ġcit": 29403, "Ġoutfield": 21088, "Ġexclus": 25948, "ĠCivic": 14906, "Ġreincarn": 43792, "ĠAS": 6015, "Ġdetectives": 10412, "ĠSL": 10962, "ĠSTORY": 28365, "Ġimprisoned": 19537, "Ġthrows": 6989, "intensive": 28447, "Happy": 21136, "Ġrecalls": 10270, "Ġrestored": 9530, "ĠSher": 6542, "Ġcontestant": 19872, "Ġpatented": 29104, "Ġassistance": 3485, "vant": 21454, "Ġmasterpiece": 27107, "Ġlocked": 5930, "Ġgrou": 22970, "Syrian": 38291, "Ġmenstru": 39691, "flo": 40693, "Ġglut": 23457, "Dream": 27124, "ĠJohnson": 1436, "Ġbenign": 27197, "Ġwebpage": 36336, "Ġdisturb": 32366, "ĠNi": 11568, "Ġaromatic": 42193, "ĠVendor": 41319, "ĠCompare": 35585, "Ġrobotic": 20701, "Ġabdomen": 28398, "Prosecut": 48410, "Ġmanifold": 43030, "ĠAlf": 15246, "){": 48512, "Ġbrutal": 8513, "ĠGina": 18887, "Ġrabbi": 37925, "Ġdoors": 4259, "ĠCOP": 14637, "geon": 20989, "Ġdou": 25605, "ĠSignificant": 35498, "Ġheard": 1317, "NV": 31668, "Ġorgan": 6757, "Ġâĩ": 48850, "ighters": 38361, "ĠOlive": 17925, "ĠCyr": 22055, "ĠUntil": 9012, "Ġ'(": 46250, "Ġscore": 1471, "Ġisland": 2946, "Ġbulletin": 31960, "urd": 6831, "SER": 41877, "ĠGuam": 18798, "bach": 12842, "ĠBerger": 18738, "Ġprism": 42641, "atism": 44329, "ĠEDITION": 46520, "Ġpedestrian": 11038, "Ġspokes": 31950, "ĠCY": 32854, "Ġoverlooking": 20703, "ĠJarvis": 25745, "Ġprayers": 8786, "ĠRemy": 35927, "Ġ\"#": 35290, "ihara": 40573, "Ġants": 32855, "Ġbal": 17832, "ç¥ŀ": 49684, "ĠBayern": 10402, "Ġexpans": 44201, "ĠBil": 11611, "Ġimprovement": 3855, "Ġlaboratory": 13154, "itizen": 31020, "Ġsheets": 12208, "Ġcutting": 3931, "Ġsteady": 5204, "bitcoin": 47197, "sem": 26976, "Ġadolescents": 29545, "Ġnan": 14770, "Ġdemonstr": 30673, "shr": 42098, "Ġfallacy": 44469, "Ġbooster": 27028, "Ġreferencing": 24595, "Working": 33105, "orescence": 45094, "ĠLak": 25453, "Ġvertically": 32039, "Ġallegations": 1857, "Whether": 18259, "aton": 12665, "Ġdeprive": 35858, "whatever": 38745, "Ġdistort": 39841, "Ġinterrogated": 37154, "ĠTol": 17686, "ĠSamar": 17882, "IPP": 33950, "Ġswollen": 27722, "Ġunbelievable": 14011, "ĠHaven": 12050, "ĠUkip": 38532, "unctions": 36006, "Ġprophetic": 43059, "ĠTaken": 32032, "hops": 39294, "ĠGig": 14448, "Ġweakest": 19261, "ĠTokens": 47121, "Ġinfring": 25827, "ĠOW": 40395, "enaries": 47934, "ailand": 43068, "Ġcomedians": 28972, "EGA": 42373, "Ġmarkets": 1048, "ĠWashington": 663, "Â¯Â¯Â¯Â¯": 50063, "ulia": 21048, "emis": 41875, "Ġparachute": 34872, "Ġunison": 38280, "ĠPediatrics": 33680, "ucked": 23289, "Tax": 29386, "Ġlinkage": 42117, "Ġcomposed": 14092, "Ġlabor": 4178, "ĠBoyd": 14449, "Ġappetite": 11037, "Ġlistens": 25245, "ĠArbit": 28533, "Ġ...\"": 43101, "Ġspear": 21106, "Ġdise": 40177, "Ġwaiter": 38233, "Ġadminist": 42220, "ccess": 47862, "Ġcreations": 23582, "Tour": 31814, "ĠAge": 8927, "Ġtits": 46772, "Ġgenetic": 9186, "ious": 6514, "opoulos": 15872, "Balance": 47537, "Ġambiguous": 33406, "Ġtoile": 48484, "Ġbinge": 24348, "Ġpipelines": 15771, "Ġyouthful": 22758, "Ġnegotiations": 3377, "Ast": 39021, "ĠMemor": 31641, "haired": 29542, "Ġalters": 43093, "Ġexample": 1246, "Pitt": 37164, "ĠMM": 24537, "Ġrightful": 32374, "Ġseal": 10192, "Ġcommodity": 8497, "Ġpolyg": 39158, "Ġnifty": 37161, "Ġabandon": 12506, "ĠRuff": 28352, "Magn": 43600, "Ġminority": 5688, "photos": 40259, "Ġcompan": 40005, "Ġemployees": 1321, "ĠSean": 4640, "hent": 37754, "Ġteleport": 47860, "Ġdot": 16007, "Ġincidentally": 40075, "Ġmeals": 7317, "Ġdestructive": 15877, "ĠSupplement": 44484, "nesia": 40324, "ĠBunker": 40775, "Ġprogression": 16739, "Ġcer": 25380, "Ġresignation": 6985, "ĠHHS": 30835, "ĠMalik": 13502, "Ġlives": 1074, "Ġsucceeds": 28121, "Ġdab": 35454, "Ġjournalists": 4225, "Ġcavern": 37472, "ablished": 28477, "Ġaround": 198, "ĠDuncan": 11123, "Ġlongitudinal": 45045, "ĠWrestling": 17541, "Ã±o": 14182, "Ġ\".": 43809, "ĠLivingston": 21845, "chemical": 22987, "ificant": 44358, "ĠFin": 6513, "Ġsnatch": 31237, "Ġresign": 6749, "Ġfiction": 11845, "APH": 30638, "Ġpsychedel": 45444, "Ġgarbage": 11671, "ĠBullet": 35894, "ĠSatan": 33649, "1976": 44835, "Ġtre": 6110, "Ġbubbles": 26054, "Gh": 28916, "cknow": 47678, "Ġdevice": 2187, "ĠPE": 12238, "Ġincapac": 37195, "ĠDemonic": 49341, "Chris": 16084, "ĠRating": 8998, "Ġsidelined": 12915, "abo": 21763, "Ġnovels": 19405, "ĠEverybody": 16225, "ĠUFO": 32729, "ĠGw": 17822, "nostic": 40997, "REDACTED": 48686, "Ġleash": 32652, "ĠKan": 7542, "ĠSYSTEM": 43221, "ĠCorner": 15211, "Ġpamph": 42622, "Ġ2003": 4999, "Spoiler": 46928, "ĠDOS": 45988, "Ġturret": 45702, "Ġunwitting": 44099, "ĠJudiciary": 11719, "ĠExtrem": 40313, "ourt": 14103, "Il": 13693, "ĠACL": 21147, "Ġspaceship": 39881, "Ġlays": 22533, "ĠSexy": 41582, "Ġvegetation": 22178, "Ġverse": 26346, "ĠBelow": 4421, "Ġappellate": 28500, "andan": 20828, "Ġacne": 30360, "Ġminded": 32945, "ĠNan": 13690, "ĠLess": 10862, "ĠTale": 21802, "uay": 36919, "Legal": 43408, "Ġseamlessly": 23458, "Ġoutbreak": 8507, "Material": 47180, "Ġnexus": 40626, "ĠDaredevil": 42796, "ĠCipher": 47450, "imate": 16633, "ĠSie": 17023, "ĠCoffee": 12596, "otle": 23592, "Anderson": 41186, "Ġfitness": 5704, "Ġprisoners": 9545, "Ġblackmail": 23616, "Ġacid": 10395, "ĠGood": 2497, "Ġchoose": 2807, "Ġabbrevi": 40993, "oko": 11136, "ĠIran": 1603, "Ġanalogy": 33460, "ĠMam": 15627, "Ġimprove": 1477, "Ġclerics": 35627, "Ġallev": 32216, "Ġretali": 18570, "agnetic": 44650, "ĠAph": 37509, "ĠGenesis": 24716, "ĠEEG": 46023, "ĠEnt": 9860, "ĠPvP": 47026, "Ġclust": 46644, "Ġrehears": 22698, "Ġgender": 3959, "slaught": 49168, "Ġforefront": 14295, "ifter": 33211, "ĠWriter": 11662, "Ġtreatments": 8289, "Ġcow": 12094, "amen": 21228, "essor": 33728, "acles": 26915, "Ġmisunderstood": 32085, "ĠWarcraft": 44037, "Ġpens": 19394, "GREEN": 38159, "Ġalthough": 1712, "ĠREAL": 30323, "Ġmanipulating": 30830, "Ġbub": 23792, "ĠManufacturing": 12047, "maxwell": 49204, "ocaust": 43328, "idae": 46780, "Kat": 27029, "ĠTrem": 31103, "ĠTutorial": 47903, "Ġslated": 8735, "ĠLower": 9978, "Ġamazed": 22431, "Ġmog": 23327, "ĠRei": 43572, "Ġshuffle": 34321, "ĠWorse": 32650, "Ġkb": 47063, "ĠCelsius": 15807, "arsh": 14980, "icker": 13917, "Ġspecifically": 4010, "Ġ(/": 48229, "IVE": 10002, "Ġaroused": 42941, "ĠVideo": 5338, "Ġwillful": 40960, "Ġasks": 6990, "Ġdeclare": 10152, "Ġmaximize": 16189, "Characters": 49282, "Ġstupid": 12103, "Ġgard": 23118, "Ġrealism": 35402, "Ġbur": 12601, "ourke": 18338, "lee": 7445, "Ġplatinum": 17722, "Ġtypes": 3505, "Ġholy": 15410, "Ġwasteful": 34460, "ĠJuven": 28738, "rence": 21557, "ĠDistribution": 20344, "åĳ": 49126, "Ġarche": 35680, "Ġren": 14237, "Ġexploits": 25924, "Ġreliever": 17188, "ĠPHI": 45006, "ĠViolence": 17101, "Ġexits": 21855, "ĠParsons": 20384, "Ġwor": 45155, "ĠLag": 5115, "Ġnuts": 15092, "Ġexplaining": 8926, "Ġimposing": 13223, "Ġreborn": 43524, "Ġdoc": 22053, "cash": 20122, "Ġunforeseen": 33257, "Ġredd": 39275, "Ġforay": 26826, "Ġwholly": 16123, "lier": 14730, "ĠOffice": 1387, "wy": 13434, "Ġsupervisors": 19971, "ombies": 48325, "Afee": 35491, "Ġlecture": 17299, "Ġastroph": 38685, "business": 11880, "anas": 16264, "ĠConsole": 44293, "Ġattach": 24051, "rely": 39041, "ynt": 45122, "ĠGoing": 11733, "Ġunveil": 18834, "Ġscored": 1008, "Alternative": 46759, "ĠTall": 12388, "Ġfinan": 23019, "Gary": 33761, "kid": 30704, "incinnati": 40783, "Ġbandwagon": 34438, "ĠWass": 36442, "Ġfodder": 30996, "ĠBarrier": 34933, "iesel": 34368, "Ġtension": 8556, "Ġroaring": 29862, "Ġjungle": 21086, "ĠAsk": 12738, "Ġstandard": 2526, "Ġstroke": 8579, "Ġprimer": 27783, "Ġaffordability": 21254, "clusive": 15871, "ĠCarib": 34093, "ĠContra": 32319, "Ġhorrifying": 28242, "Ġspeedy": 18096, "Ġpredicting": 15924, "ĠTypically": 18410, "ĠNeg": 13912, "Ġlateral": 30972, "zona": 45954, "Ġstriving": 25514, "ĠRepresentative": 10308, "Ġburger": 18079, "wana": 19102, "gments": 30237, "illus": 43335, "Ġsatisfied": 10028, "nick": 16346, "Ġcellphone": 13605, "Ly": 38683, "Ġunprepared": 35578, "roying": 43417, "Ġmalfunction": 24189, "ĠDoug": 6289, "Ġrehab": 9949, "Ġunrealistic": 25477, "Ġbarred": 12678, "Ġcivilian": 8233, "Ġmoaning": 44180, "Ġaffinity": 31232, "ĠTechnician": 42951, "het": 4626, "Ġmil": 9209, "ANA": 14629, "Ġfactory": 5566, "ĠGolem": 48035, "ĠMorg": 32720, "ĠQuint": 17404, "Ġliability": 9416, "individual": 42333, "Ġwrites": 5789, "Ġmantle": 30849, "ĠPratt": 17269, "Ġenthusiast": 27330, "ĠInstruct": 45769, "Ġafraid": 6023, "callback": 49499, "landish": 48453, "ĠSteven": 5031, "Ġsynaptic": 47621, "Ġhostility": 22069, "Ġteenage": 9231, "Ġcopper": 7621, "ggy": 25958, "Â½": 14989, "Ġnurturing": 30560, "ĠBeast": 13645, "Īè": 49512, "Ġrubbed": 34737, "Ġbehest": 35330, "Ġmileage": 28070, "Ġshouts": 32622, "ĠTT": 23529, "umping": 14672, "ocolate": 43910, "ĠMcCann": 22358, "Reporting": 1670, "Ġpresupp": 46954, "ĠIntrodu": 32687, "ĠThy": 29039, "Ġbrake": 18507, "ĠFrances": 11442, "Ġpenn": 30081, "Ġpreserving": 18368, "Ġbystanders": 31504, "ĠEver": 7989, "Ġdeliveries": 11336, "ĠStill": 3180, "Ġtease": 29993, "Ġrecurrent": 35583, "plin": 28291, "blank": 35763, "Ġsouthern": 3174, "Ġreleg": 43436, "Unfortunately": 16861, "Ġascend": 33290, "XL": 35826, "Ġmorning": 662, "fortune": 47600, "Ġexperience": 676, "Ġfreezing": 11074, "Ġcorpses": 36650, "ĠRockefeller": 32474, "ĠKathryn": 23175, "ĠCollections": 42121, "ĠMaj": 9894, "Ġtin": 12899, "designed": 23866, "Ġspecs": 21634, "ĠMorrison": 11285, "Ġinfusion": 29016, "Ġvolunte": 49588, "ĠProgressive": 15174, "ĠSprings": 6388, "Ġcheese": 7134, "Ġinfringement": 26461, "Ġballs": 6751, "ĠAnthropology": 44567, "Ġdegradation": 30223, "uku": 20787, "Mit": 39340, "Ġrequiring": 7980, "Ġambitions": 12294, "sorry": 39088, "ĠBeijing": 3332, "Ġpan": 5730, "Ġocc": 37627, "edd": 13093, "ĠBaptist": 9457, "oan": 26681, "ĠWeinstein": 6669, "Ġdyed": 39744, "Ġdisple": 43709, "Ġconnected": 3665, "ĠFind": 6449, "ĠAtk": 47891, "opus": 33259, "Ġfaced": 2713, "Ġfill": 3300, "Ġstationary": 31616, "Ġpreference": 12832, "Ġtends": 11818, "ĠBelieve": 28305, "ĠCove": 19452, "ĠMisty": 38793, "Ġrelates": 16009, "Ġundergrad": 37340, "ACE": 15949, "pherd": 47501, "rab": 14191, "Pool": 27262, "Ġsandwich": 15649, "Ġsnipers": 40085, "ĠFellow": 16728, "Building": 37500, "elo": 13961, "âĢĶ": 578, "ĠPermanent": 20132, "ĠMcM": 11271, "Ġoffline": 17786, "ĠAdvantage": 29113, "Ġprospective": 12429, "Ġcharact": 49650, "Ġdisclaim": 32417, "Ġcab": 11148, "ĠLiberal": 7612, "ouver": 45624, "Ġculmin": 32887, "boys": 22505, "toe": 26383, "yahoo": 32874, "Ġ~": 14434, "Ġconcent": 28289, "Ġmulticultural": 30286, "Ġteasing": 29752, "ĠCelebr": 19736, "ĠWTO": 21896, "Ġneoliberal": 39061, "terrorism": 19151, "urban": 24350, "Lenin": 47458, "oon": 3863, "Ġmonastery": 39065, "\\\":": 49871, "ĠCaucasian": 39787, "Ġori": 36468, "ulnerable": 39010, "thal": 27534, "Ġchocolate": 7548, "ĠBuddy": 24180, "ĠWage": 36438, "Ġsomeday": 23090, "ĠRaiders": 6194, "Ġvolumes": 7267, "ĠÂŃ": 18231, "Ġcriticised": 9923, "ĠCounty": 413, "Ġstrengthen": 5920, "Ġnovel": 5808, "Ġradical": 7371, "Ġintoler": 39348, "Ġpassengers": 3670, "Ġcomplementary": 25402, "ĠGiant": 21606, "Ġ\"[": 11227, "Ġmarching": 16969, "ĠStrat": 21074, "Ġtrusts": 21513, "ĠMIS": 39697, "ĠDeg": 35446, "Ġgritty": 27846, "thin": 31507, "ĠScores": 26341, "Ġbureau": 12331, "ommel": 36164, "Ġdumping": 18128, "Ġflashback": 39765, "roversial": 34689, "-+-+-+-+": 36467, "ĠAmelia": 26405, "Ġhostages": 26445, "ovic": 4834, "Ġupro": 32402, "ULE": 39477, "ĠEarn": 7535, "Ġobligated": 29301, "Ġwaterways": 24416, "ĠCamer": 30370, "Ġpen": 7670, "iver": 8538, "Terry": 43062, "âķĲâķĲ": 49619, "ĠEntityItem": 50257, "Ġsmaller": 2735, "Allows": 49634, "Ġcherished": 27252, "Ġwithdrawn": 13375, "heon": 37254, "ĠVK": 42033, "tier": 15512, "Ġrecipes": 13204, "Ġnewcomer": 21971, "ĠUsers": 16034, "Ġcrack": 7009, "Ġfisheries": 25173, "ĠTourism": 11860, "Ġenhanced": 9094, "ĠRuby": 19642, "Ġ---------": 45793, "Ġkcal": 48130, "ĠRib": 23634, "Ġexcitement": 8354, "Ġeducator": 23356, "idav": 46121, "ierrez": 48036, "ĠMunicip": 26169, "ĠBrowns": 7549, "Ġpaperback": 42979, "yp": 18198, "ĠiOS": 6894, "Ġgravel": 26923, "Ġreactor": 25476, "ately": 7223, "amaz": 26732, "ribution": 35719, "Ġcounseling": 15789, "ĠFALSE": 46007, "Poor": 43094, "ĠKurd": 41797, "Jean": 35689, "ĠPNG": 32796, "itable": 11010, "ĠMaw": 27990, "Ġbeat": 1451, "ĠAntioch": 33604, "ĠImp": 17550, "Ġcleansing": 25642, "ĠLCD": 20808, "Ġapart": 4102, "ĠSass": 30089, "ĠHuck": 42424, "habi": 45220, "ĠExport": 21916, "ĠKimberly": 19278, "Ġinsightful": 29804, "Ġstro": 28561, "ĠAj": 9674, "Ġstereo": 31436, "ĠAmbro": 47043, "election": 6414, "amorph": 41801, "Ġpodium": 11158, "Ġaudio": 6086, "ĠJP": 14621, "Ġdiced": 36864, "Ġmethodology": 18670, "Ġease": 5136, "Ġfaithfully": 38666, "aple": 44003, "KING": 22889, "Ġanecd": 46480, "isel": 28318, "å°": 47842, "Ġimpacting": 18081, "ĠEveryone": 7632, "Bomb": 42984, "ĠPRO": 23093, "Ġpave": 19175, "Ġsurgeries": 15948, "ĠJays": 10929, "ĠGolf": 6111, "Ġevidently": 32156, "odynam": 48009, "ĠBloom": 14394, "ĠHELP": 38439, "Ġeveryone": 961, "effects": 38375, "ĠMoves": 39905, "ĠLockheed": 19317, "ĠDefinition": 38764, "ĠCanadiens": 18761, "Ġsovereign": 9595, "ĠPixar": 32000, "Member": 45899, "Ġflesh": 18940, "ĠOptional": 44526, "Ġwrapping": 20325, "ĠBrady": 5333, "OPE": 23075, "Ã±a": 14379, "ĠCoy": 27767, "Ġheck": 17835, "Ġpromotions": 16668, "Ġwrapped": 8144, "usc": 20214, "ĠInnov": 20067, "Ton": 44100, "netflix": 47273, "FUL": 39419, "Ġprotestors": 27992, "abled": 19875, "Ġclip": 7200, "Ġdollar": 1404, "Ġsuperf": 39910, "ĠUtility": 27832, "immune": 42866, "Ġbarrel": 5484, "ĠTotem": 47855, "ĠPremiere": 30409, "ĠPost": 1869, "ĠUltr": 36081, "ĠMohammad": 11552, "ifact": 46460, "Ġwanna": 23126, "ĠPhillies": 14890, "ĠPCB": 29627, "uffy": 33650, "zon": 15892, "ĠSpectrum": 24607, "roleum": 47004, "German": 27709, "Ġinstitutions": 3353, "Ġindicated": 4658, "Ġdissemination": 35426, "Ġdonate": 8253, "æĸ¹": 49257, "Ġfeet": 1730, "reements": 39510, "Ġsmells": 28078, "oyd": 27559, "Ġroyal": 5754, "Ġamongst": 9783, "iem": 9173, "rian": 10713, "isans": 24103, "ĠWalsh": 10323, "Arab": 33054, "Ġverbally": 27054, "Ġquer": 31212, "ĠEA": 23506, "Ġruby": 43368, "Ġresur": 21816, "Ġchoke": 25777, "ĠDa": 8318, "Ġeighteenth": 46111, "Ġaid": 2887, "arty": 17513, "olkien": 49592, "Bloomberg": 35450, "stories": 43176, "Ġdebating": 24996, "uded": 15432, "ĠComics": 28018, "ĠRegional": 4722, "Extra": 44923, "Ġcomplicate": 29036, "ĠBoth": 1868, "Ġpickup": 8517, "Ġelites": 24004, "Ġdict": 28700, "ĠInfluence": 41284, "ordial": 44577, "ĠMubarak": 27667, "Ġthwarted": 28299, "ĠHaram": 12067, "Ġdeck": 9124, "Uncommon": 49203, "ĠGuer": 25893, "udge": 14328, "atha": 20647, "estern": 47723, "ammers": 25690, "Ġdetermines": 23483, "Ġshun": 23795, "Ġtransmitting": 39199, "Ġfellowship": 27580, "ĠGamerGate": 49165, "ĠEach": 4028, "Ġessentials": 28146, "Ġdistance": 4472, "swing": 32123, "ĠClaud": 41001, "Jump": 45958, "ĠâĢ¦": 1555, "Ġoutdoor": 6185, "Ġostr": 35902, "Ġzipper": 43805, "Ġupbringing": 29653, "Ġevangelicals": 38876, "Ġacet": 37662, "atives": 11649, "-$": 10068, "ĠLIN": 39671, "Ġrogue": 22251, "nov": 33278, "Ġcatapult": 31009, "Ġshif": 37503, "Ġfruits": 12849, "Ġcarved": 20209, "Ġdecades": 1724, "ĠFrey": 32052, "ĠSupports": 44570, "ĠWraith": 47294, "Ġ323": 36086, "ĠFranchise": 35130, "Ġmonstrous": 34957, "ĠGemini": 26577, "Ġpaternity": 37841, "ĠEzra": 34862, "rha": 48518, "ĠBern": 6552, "ĠPicks": 34191, "Ġunpleasant": 26262, "Ġfreak": 21905, "hews": 22168, "ombs": 33726, "Ġclipboard": 44595, "Ġeventual": 11870, "Ġkitchen": 4647, "ĠINV": 18638, "Ġcough": 21768, "Ġunderpin": 18035, "ĠIrwin": 26062, "Ġtoler": 30795, "ä¿": 48003, "ĠHans": 15803, "ĠRin": 22995, "Ġprolonged": 14308, "ĠVladimir": 6546, "Ġenterprise": 6789, "Ġ1918": 26589, "fing": 30097, "cend": 34097, "Ġblot": 39144, "Ġextensively": 18808, "isbury": 17262, "page": 8596, "Ġvariation": 21875, "redd": 45989, "iden": 12145, "ĠPharaoh": 43901, "èª": 48537, "PLAY": 43784, "Ġcann": 36541, "ĠNad": 7157, "Ġhidden": 7397, "Ġdecriminal": 33926, "Ġpsychiatrist": 27321, "FX": 24119, "ĠPROC": 36352, "Ġcast": 2471, "matic": 29753, "ĠRey": 15278, "Ġreservoirs": 29896, "Ġsummon": 33411, "Ġthug": 40447, "Ġmoderates": 32519, "orpor": 36370, "eday": 43975, "Ġfutile": 32628, "Ġnail": 13517, "Ġpornographic": 38739, "Ġsilhou": 36133, "Ġself": 1403, "Ġmysterious": 12754, "ĠMobility": 30480, "Ġdrafts": 28233, "Ġcontam": 43337, "Ġmurky": 30324, "Ġwhat": 99, "Ġmisguided": 27422, "Ġinterpol": 46687, "Ġawful": 11522, "ĠGenerally": 25817, "irming": 20277, "ĠBare": 22888, "Ġprecept": 45048, "hall": 12023, "ĠRecreation": 14028, "âĢķ": 45725, "Ġenergies": 34185, "Ġ2009": 2338, "Ġpeaceful": 7053, "ppa": 31279, "Ġsane": 37091, "pired": 25002, "ĠWorcester": 22963, "ãĥģ": 49511, "ĠAmin": 20205, "Ġdistraught": 30719, "Ġundisclosed": 15120, "ðĿ": 40756, "ilyn": 45410, "anamo": 49018, "Ġauditory": 44630, "Ġcoarse": 38667, "Ġswirling": 27065, "heads": 16560, "ĠMorrow": 27096, "Cas": 36061, "Ġmotivations": 30337, "uddenly": 47513, "ĠNewport": 13704, "Ġallot": 29887, "ĠMek": 32511, "Ġupcoming": 2568, "Ġindistinguishable": 43599, "ĠEE": 27397, "ĥ": 862, "Ġmisunder": 49965, "ĠRenew": 19505, "ĠRod": 6816, "Ġrebell": 45874, "iron": 11680, "Ġcoil": 38843, "Ġirresistible": 36210, "Ġflexible": 9538, "Ġposed": 7444, "Ġeverywhere": 6128, "Ġdwelling": 28576, "esy": 43659, "ĠPuzzles": 48383, "ĠFund": 2896, "Ġplunder": 39757, "Ġrivers": 12323, "Ġsimplicity": 25342, "ĠKKK": 34829, "Ġplatoon": 38643, "ĠSports": 1847, "ĠDram": 32141, "iological": 35948, "Ġnecessarily": 4784, "ĠMeeting": 12776, "Ġbrigade": 28032, "Ġoverrun": 27403, "ĠDrivers": 16440, "é": 41907, "Ġattacker": 12082, "Streamer": 49508, "Ġwanting": 6923, "Ġanxiety": 6882, "ĠMEN": 29329, "Ġliberating": 38775, "ĠGovern": 22595, "Ġmascara": 36317, "Ġanti": 1475, "Ġpilot": 4792, "ulsive": 25170, "ĠTY": 39223, "ĠPag": 20306, "Ġminions": 44461, "ĠFair": 3896, "Ġheroic": 24666, "ĠIntel": 6869, "uminium": 41325, "cigarette": 36083, "Ġimpartial": 24283, "ĠIsle": 18930, "Ġconservatives": 9930, "ĠWei": 27080, "Ġvisually": 21545, "Ġeffort": 1351, "Ġstronghold": 22558, "Ġpref": 33284, "ormon": 46408, "Ġlivestock": 13945, "Ġregime": 4304, "Ġwardrobe": 18704, "Studio": 44407, "ĠOrbit": 39778, "Ġshale": 14352, "Ġnode": 37908, "ĠSar": 4701, "Ġrevolt": 25507, "Ġformulas": 37130, "Ġinfertility": 36694, "Zen": 27777, "Ġunrelated": 16354, "vd": 40311, "Ġingenious": 40579, "oned": 11469, "Ġpulses": 33274, "ĠBLACK": 34101, "Aaron": 29934, "ibaba": 44345, "Ġcoat": 9540, "topic": 45260, "ĠPBS": 24098, "VILLE": 9199, "Ġimpending": 18049, "ĠZen": 13985, "ĠSyl": 40604, "Ġpont": 29476, "Ġfatigue": 16069, "Ġnoise": 6496, "Ġfavorable": 9879, "breakers": 34691, "ĠMaker": 27253, "riched": 46129, "Ġprosecuting": 24243, "Ġze": 20025, "Ġcried": 16670, "Ġcybersecurity": 13468, "!,": 28114, "Everyone": 11243, "ĠMaking": 11102, "ĠSeal": 27303, "Ġskies": 12034, "tted": 32368, "Ġrespons": 29268, "ĠScriptures": 46320, "Ġvines": 37976, "Ġtransc": 27472, "Featured": 20877, "Ġreeling": 21589, "Ġyeah": 11380, "ĠDancing": 15387, "ĠGL": 12209, "Ġneglig": 45588, "Chest": 48351, "Ġ2011": 1466, "Ġtighter": 15976, "requisites": 44877, "ĠRudd": 22114, "Ġsow": 22600, "Ġovertake": 29163, "Ġlax": 30328, "Ġsinks": 34034, "Ġspeech": 1901, "inflammatory": 33824, "{\"": 49643, "Ġsneaking": 36596, "zech": 40516, "Ġwedd": 44398, "Ġdominated": 6235, "ĠPor": 7879, "ĠPros": 26590, "Ġinterrupted": 18525, "ĠDomestic": 17256, "Ġnarr": 33316, "Ġapples": 20150, "ĠProfession": 30452, "professional": 23878, "ĠRidley": 24266, "Ġobsessive": 36003, "ĠAlready": 14896, "Ġblasted": 14248, "ĠProspect": 15556, "Ġmatter": 948, "Ġarrest": 2237, "Ġbeasts": 39498, "alyses": 44965, "Captain": 35645, "ĠOwn": 19981, "ĠAward": 3683, "Ġvegetables": 8942, "Ġdemanding": 5783, "Ġng": 6094, "mA": 47602, "oing": 26856, "might": 35457, "Ġprivately": 9638, "Ġthreatens": 13546, "Ġconcentrated": 15450, "Ġconstituency": 12329, "Ġpublications": 16043, "aceutical": 18492, "REAM": 28057, "ĠGeek": 34301, "Ġhumili": 40490, "Ġpersonnel": 3775, "omore": 22961, "ĠKeyboard": 41132, "Ġpivot": 27475, "Ġinteraction": 10405, "Tal": 36812, "âĢ¦\"": 23962, "Ġswept": 8473, "rio": 12834, "ĠCharleston": 12118, "ĠConnecticut": 6520, "Ġcentral": 1353, "Ġview": 1217, "ĠÂ¯": 48465, "ĠGy": 11882, "ĠIG": 17374, "!!!!!!!!": 47038, "ĠPetra": 30077, "Ġrifles": 17509, "ĠNA": 8438, "ilver": 43206, "Ġactor": 2701, "ĠNish": 20486, "Ġinflict": 31343, "ĠFinnish": 21533, "Ġdelim": 45382, "ĠREM": 30199, "Ġstrongh": 35771, "Role": 47613, "ĠHF": 40519, "Ġfacets": 33504, "Ġforeclosure": 30838, "Ġ(@": 838, "Ġpractically": 15655, "Ġresolutions": 13781, "addon": 42246, "Ġportals": 39605, "actor": 24625, "Ġcrowded": 11138, "Ġinformant": 30154, "Ġspecifics": 16047, "Ġls": 47514, "ĠEstate": 9730, "Ġprosecute": 17749, "Ġportrayed": 15266, "Ġshepherd": 35234, "Ġpedigree": 30149, "adelphia": 45929, "Ġsubmarine": 20224, "Ġbulky": 35156, "ĠVij": 13444, "Ġslider": 29432, "acial": 27015, "uish": 46522, "Ġbiology": 18004, "ĠJackson": 2250, "ĠGuards": 26197, "Ġpneumonia": 23665, "angible": 44321, "Ġsubsection": 45845, "Ġconnectors": 40410, "Ġlimitations": 11948, "ĠFountain": 28632, "Ġbound": 8191, "Ġdaughters": 7172, "Ġjurors": 12588, "ĠBU": 17149, "ancers": 19859, "eming": 33303, "zzo": 23497, "Ġsprites": 48304, "Ġhostilities": 30519, "ĠLithuan": 39714, "ĠFour": 3759, "uctions": 38024, "Ġweak": 3953, "Ġcomprise": 22029, "ĠIII": 6395, "Ġva": 13205, "Ġcenters": 5228, "Ġtabs": 26249, "Further": 37666, "ĠObserv": 42231, "ĠVerb": 38132, "Ġlarge": 739, "Ġcur": 5350, "ĠSakuya": 49931, "Ġturkey": 15164, "Ġtoolbar": 47013, "oples": 46051, "Ġroutinely": 12880, "ĠKatherine": 16786, "Ġ1929": 32638, "ĠReprodu": 36435, "Ġflo": 27325, "Ġvested": 29994, "Ġundercover": 17814, "ãĤ¶": 49751, "chie": 17309, "Ġmixed": 4281, "ĠOuter": 34450, "ĠStri": 21836, "Ġ(%": 48086, "Ġrampant": 18898, "Ġdire": 10697, "Ġrotated": 39187, ").\"": 18456, "Ġredistributed": 3802, "Ġdisp": 11734, "puters": 43990, "ĠApril": 587, "racuse": 46385, "Ġlethal": 14326, "âĸĵ": 49082, "agh": 7669, "Ġ268": 37245, "Fourth": 46354, "ĠGOT": 42007, "isition": 39353, "bestos": 46698, "Ġdirt": 10667, "Ġbelts": 20252, "Ġadv": 34369, "Ġphp": 46817, "Ġequivalent": 6305, "Ġremembrance": 30611, "ĠShow": 2907, "ĠSussex": 11799, "THING": 42965, "Ġannoyance": 39341, "ĠApost": 40201, "Ġunab": 29491, "aming": 9708, "nuclear": 31242, "Ġmanip": 31208, "ĠGin": 23746, "Ġopened": 1357, "Ġhalftime": 7143, "price": 17212, "ĠDire": 24182, "ĠTail": 30222, "leground": 42300, "ĠCambridge": 6912, "Appearances": 49647, "Ġrotting": 39773, "avorite": 49669, "Ġmultip": 35675, "Ġelecting": 31839, "ĠTitans": 9642, "Lost": 40265, "intensity": 38454, "Ġeducating": 21582, "ĠStreaming": 34245, "Ġguns": 5013, "Ġtremend": 48578, "ops": 5090, "ĠResistance": 26839, "Blocks": 48217, "aba": 6412, "Ġtong": 45299, "ĠOverse": 26326, "ĠFord": 2493, "Ġsubst": 32493, "ĠHar": 2482, "Fran": 31418, "ĠLEDs": 37274, "Ġgra": 21797, "assion": 22947, "Come": 22817, "Ġdisagreements": 24461, "gencies": 45829, "earing": 10852, "ĠFantastic": 29655, "Ġsentence": 3645, "Ġnephew": 11884, "Ġfixes": 22347, "Ġmar": 4401, "Ġdenying": 12000, "ĠRx": 44681, "ĠCant": 10909, "Elf": 46700, "Ġindepend": 44913, "ĠHipp": 35332, "Ġcoroner": 16489, "hof": 27327, "ĠTray": 39908, "Ġprophets": 43346, "Ġsuit": 3235, "Ġliteracy": 18218, "oner": 9604, "Ġdisplaying": 18534, "ĠBris": 45147, "icz": 33630, "ĠStupid": 44462, "Ġfledgling": 31301, "Registered": 46864, "ĠPieces": 41924, "alions": 44029, "ĠTomorrow": 19681, "Ġaltogether": 11807, "Ġscary": 10222, "ĠWillow": 22096, "rolog": 34426, "ilk": 32832, "cup": 21033, "ĠYouTube": 4037, "Å": 1277, "ĠBeckham": 12317, "Ġdecorations": 22868, "Ġpurported": 23290, "ĠPeel": 26376, "Ġding": 33676, "Madison": 34570, "=-=-=-=-=-=-=-=-": 50024, "Ġbesieged": 30468, "Ġillustrates": 24130, "ĠMorocco": 13733, "ĠWhale": 34724, "International": 29743, "Î½": 47118, "Ġwhistleblowers": 38662, "Ġpuzzle": 18108, "Ġlessons": 7079, "Ġfellow": 2598, "Ġsignify": 40173, "nings": 9523, "Ġfal": 14848, "Ġperennial": 25551, "HEAD": 36696, "Ġdrinkers": 32571, "ĠLU": 38991, "ossession": 38030, "ĠKris": 11233, "ĠPall": 18612, "ĠMason": 7332, "ĠJS": 40305, "ĠNetanyahu": 8580, "Emb": 42578, "Ġburner": 35285, "Ġstrictly": 14657, "ĠAllied": 23086, "Ġpregnancies": 28303, "Ġsupers": 31716, "ãģĨ": 48718, "ĠChicken": 18201, "ĠMic": 8900, "Ġ)))": 49814, "ĠEucl": 36873, "ĠCU": 27700, "ĠSultan": 21283, "Ġrevered": 26652, "Ġmature": 11374, "dll": 48962, "ĠGob": 24541, "rase": 34338, "enos": 36048, "Ġtoll": 5831, "ĠMoral": 42822, "ĠSuns": 15884, "Ġdistribute": 12983, "ĠKat": 9075, "Ġcustod": 22790, "ĠGillespie": 25418, "venture": 33289, "ĠBlood": 11391, "ĠHomo": 42769, "Nar": 45787, "Ġaffidav": 41119, "Ġdorsal": 47152, "Resource": 47279, "ĠSouthern": 2944, "Government": 28747, "ĠSri": 6604, "Ġbombshell": 24332, "ĠDES": 24566, "ĠPension": 20740, "Ġstudios": 14991, "ĠLSU": 11099, ",,,,": 49563, "Ġastonishing": 19720, "Ġrearr": 37060, "Ġorgans": 16976, "Ġexpresses": 15994, "ĠQiao": 47990, "Ġtransporter": 44341, "Ġcherry": 20075, "ĠSuperintendent": 10313, "stats": 45579, "ĠSTL": 45539, "lists": 23583, "Ġembryonic": 43982, "Ġguitarist": 16792, "Twenty": 37703, "Ġhumane": 26899, "ĠVale": 14467, "Ġroster": 4459, "Ġbos": 41647, "ĠOrganizations": 30656, "ĠPubMed": 48851, "Ġdisguised": 31890, "Ġpastors": 31369, "Ġalgorith": 43448, "ĠSerge": 29732, "ĠSlov": 33458, "ĠBeverly": 13130, "Ġutopian": 43995, "ochemical": 43941, "Awesome": 47058, "Camp": 31990, "ĠKrugman": 45818, "ĠFitzpatrick": 20842, "Ġrevital": 17553, "ĠHenderson": 8400, "ricted": 40995, "ĠDong": 21570, "ĠUV": 22575, "Ġrift": 23708, "facing": 16891, "Ġub": 41099, "Justin": 29466, "Ġtc": 48965, "Ġdir": 19855, "ĠBastard": 47389, "ĠExpert": 26721, "ĠBalanced": 44752, "++": 42964, "daily": 16624, "Ġshielded": 33855, "Ġleaves": 3607, "Normal": 45647, "Ġsidebar": 44718, "stood": 31935, "weapon": 44538, "ampires": 47130, "first": 9502, "Ġvehicle": 1155, "Ġweave": 35810, "ĠOsama": 32731, "ĠParkinson": 18475, "Ġderived": 16934, "Ġ[*": 49097, "Ġresponsibly": 28118, "ĠKH": 30496, "sufficient": 33703, "ĠPanama": 12276, "ĠGa": 10160, "ĠHOT": 33466, "Ġreluctance": 25321, "Turkey": 33133, "ĠFAC": 26207, "Ġrecreation": 14579, "Ġhighs": 5487, "Basically": 34480, "uds": 23082, "ĠSince": 1773, "Ġsol": 9281, "endas": 44395, "Ġhydraulic": 29215, "Ġbulk": 8533, "Ġtabletop": 43519, "plementation": 45661, "Ġretri": 42730, "wings": 42932, "ond": 2832, "Ġefficacy": 22081, "ĠRadiation": 43209, "Ġpir": 36287, "pection": 46497, "Ġprotector": 32747, "avement": 34413, "ochemistry": 39917, "ĠConflict": 35856, "Ġhurt": 2581, "ĠBattle": 9846, "cone": 33666, "ĠTrin": 29388, "--------------": 41110, "Ġsummar": 39186, "Ġmultitude": 25180, "Ġgardening": 23230, "jamin": 39730, "ĠRon": 5529, "ĠVICE": 44833, "Ġburd": 32875, "uzz": 13299, "brother": 28638, "selling": 11393, "ĠPC": 4985, "Ġballistic": 11117, "elvet": 48127, "portation": 41067, "Ġcathedral": 28457, "Ġthresholds": 37817, "Ġcaffeine": 26604, "iflower": 35051, "Ġsweet": 4045, "Ġhawk": 36722, "Ġestimating": 31261, "à": 12798, "É": 35423, "addafi": 45808, "iest": 7098, "ĠAmbassador": 9175, "Â·Â·": 47485, "Ġarise": 16072, "ĠEco": 22594, "ĠXII": 43904, "ĠHPV": 33264, "Ġbrace": 15641, "ĠPrevent": 30331, "ĠCanary": 35326, "Haunted": 48434, "Ġshar": 29816, "Ġtwin": 9544, "('": 45803, "Ġscalable": 31909, "ĠSlave": 41180, "aning": 19266, "Ġexquisite": 30041, "Female": 45186, "cano": 38754, "assin": 42846, "ĠDive": 37954, "Ġantique": 28608, "comings": 47657, "Ġfaked": 38040, "Ġreality": 2015, "Ġspiral": 21300, "ris": 4663, "igenous": 39695, "ĠCincinnati": 6322, "rikes": 45086, "atten": 21739, "igon": 32410, "ĠWerewolf": 48388, "ĠMX": 27231, "Toronto": 30358, "ĠCLI": 45919, "HAM": 20241, "Ġoptimizing": 36226, "Ġassociates": 11904, "orial": 17707, "Ġconsiderable": 9712, "Ġneither": 5063, "Ġscanners": 35834, "ĠReds": 9269, "noticed": 47202, "unic": 26488, "Ġathlete": 8340, "astery": 42566, "Ġslippery": 25645, "elligence": 45852, "Ġprofound": 13960, "ĠDiversity": 25123, "Ġfateful": 34619, ",,": 38581, "Ġprofessional": 2038, "Ġtheir": 49, "000000": 33413, "ĠRealms": 47384, "Ðº": 41171, "ĠAgu": 11648, "ĠWorm": 40800, "Hardware": 48362, "ĠJoel": 8966, "nas": 22118, "Ġ413": 39898, "geoning": 45969, "ĠSal": 2575, "pee": 12084, "DoS": 41501, "Sometimes": 13624, "Ġsheriff": 5742, "Ġpassionate": 8840, "ĠWA": 9342, "Ward": 41627, "ĠOU": 38923, "3333": 46152, "ocyte": 45488, "Student": 43541, "ĠGrizzlies": 18710, "Ġholder": 14034, "Ġapolog": 23842, "ĠCros": 25858, "Ġleg": 2985, "Ġsedan": 15283, "Ġwow": 26388, "ĠTek": 28451, "ĠEN": 13245, "William": 33531, "endered": 36318, "IVERS": 30530, "Ġloved": 2638, "Ġpredecessors": 20193, "Constructed": 49671, "]\"": 44717, "Ġtownship": 19037, "ercise": 42118, "Ġauditor": 15279, "ĠAFTER": 29856, "Ġadapted": 15517, "Ġscreams": 26776, "ermott": 18737, "Ġsenseless": 28846, "ĠMLA": 16961, "ĠGry": 36157, "ĠArgent": 19041, "Ġfinally": 1747, "Ġmanaging": 4196, "ĠFAT": 39189, "Ġ1860": 39947, "Ġhorns": 24496, "ĠRebecca": 10808, "asket": 20997, "onge": 28879, "inois": 36001, "Ġgirlfriends": 34333, "Ġ-->": 48457, "omes": 9898, "ĠHim": 14003, "Ġeth": 25864, "Ġearth": 6872, "querade": 45501, "ĠElm": 21595, "ores": 4765, "ĠClash": 35168, "ĠTurns": 27271, "ĠADHD": 33286, "Ġcompetitive": 2695, "Ġguarantees": 12360, "ãĥ¼ãĥ³": 49866, "react": 44043, "Ġpropag": 31464, "Ġsack": 14072, "ĠHo": 5082, "ĠFare": 29035, "Ġretreating": 34709, "Ġseats": 3202, "Ġmultimedia": 15778, "Ġreperc": 47164, "idence": 17444, "Ġfolds": 40068, "Ġanybody": 5670, "Draw": 45941, "ĠBOOK": 39854, "Ġorth": 25691, "ĠPublications": 43487, "Ġrating": 691, "Ġanniversary": 4038, "Ġadjunct": 36038, "Ġignited": 23980, "Ġsuffering": 3606, "Kh": 30408, "Ġemb": 18484, "Merit": 48240, "Ġshameful": 26722, "Ġspent": 1240, "Ġvintage": 12669, "Ġperiod": 675, "Ġaddicted": 23311, "ĠSector": 15816, "Ġbubble": 12172, "ĠRoads": 21201, "igion": 43617, "icism": 24966, "Ġpresum": 42314, "Ġcervical": 29851, "Ġrecovered": 4609, "ĠCanaveral": 37050, "ĠTobias": 30659, "Ġlongstanding": 17908, "essential": 23693, "Ġfractions": 44807, "ivo": 9697, "Ġbrick": 11225, "Prim": 44015, "ibles": 13352, "ĠPD": 11707, "Ġnegotiators": 20762, "Ġfinance": 2879, "Ġclassroom": 8171, "ĠNorth": 369, "Ġ1996": 8008, "Ġafternoon": 1390, "Ġdoctrine": 26944, "feed": 18790, "ĠMelanie": 22607, "ĠDar": 5355, "ivia": 40978, "ĠProcedure": 40209, "olesc": 42612, "ĠIRC": 44756, "yout": 49297, "Ġheadache": 19344, "Ġfortunate": 10583, "Ġfermented": 39903, "pex": 25981, "vas": 20670, "ousy": 47482, "ĠTrophy": 10292, "Ġvalidate": 28754, "Ġghosts": 31932, "ĠRoots": 31475, "Anim": 46231, "ĠLouie": 34488, "Ġjustifies": 39665, "Ġ283": 39103, "forums": 48621, "============": 43613, "Ġtunes": 19764, "ĠGran": 9328, "ICES": 32870, "Ġamplifier": 42521, "ĠUriel": 48101, "ĠCanyon": 10500, "Ġconfront": 10749, "ĠLur": 36264, "Ġwhistlebl": 46454, "Ġ2021": 8835, "Ġcoaches": 4055, "Ġswung": 21372, "ĠEden": 14315, "ETS": 18827, "Ġresidence": 5238, "Ġapex": 19559, "Ġadvis": 33879, "Ġduty": 4053, "Ġband": 1971, "Ġsituated": 17949, "Ġexperiments": 15491, "Ġcr": 3977, "Ġsuggested": 2528, "Square": 44339, "Ġhitter": 14005, "Ġbelievers": 29446, "ĠNoir": 38747, "recent": 38696, "Saturday": 17643, "ĠSunni": 15014, "Muslim": 19952, "ĠTos": 17135, "iker": 17625, "ĠLIM": 30067, "Ġrelic": 39552, "ĠFalk": 21393, "Ġcraw": 36526, "ĠDunham": 25485, "Ġpeasant": 42657, "Ġfs": 48415, "ĠTRAN": 26933, "Ġappealing": 9364, "together": 31586, "Ġdj": 29831, "ĠReasons": 24776, "ĠWet": 20925, "Ġsexism": 26032, "ĠOmn": 33180, "Ġ224": 27546, "Ġslam": 11977, "ĠMarxism": 44760, "Ġcerts": 49112, "ĠIslamic": 2715, "else": 44617, "Ġcircle": 7922, "Ġmanagement": 1052, "Ġpermit": 6687, "cellaneous": 40988, "Ġimpro": 44354, "Ġhandy": 14732, "Ġphysicians": 13018, "ĠâĶĤ": 48925, "Ġbolts": 36668, "/?": 29482, "Ġwhip": 21285, "Ġhugging": 31164, "Ġdocumentary": 6717, "ĠHonor": 11403, "Ġcommittees": 11429, "Ġtherapists": 32464, "ĠBallard": 25748, "Ġsuggesting": 5542, "ĠUnfortunately": 6802, "ĠRipple": 35066, "ĠFol": 16479, "xon": 43903, "OLOG": 38054, "Ġfoc": 25284, "ĠMulcair": 46301, "Reddit": 47758, "Ġfare": 11031, "Ġusual": 4505, "ĠVog": 21723, "ellery": 16811, "Ġpersuasion": 40496, "teenth": 33326, "ForgeModLoader": 50156, "okes": 6568, "ĠPopular": 17242, "Ġriders": 7887, "mers": 12822, "mol": 37145, "Ġmitigate": 15292, "ĠRevelation": 44906, "ĠStore": 7248, "ĠHack": 14520, "Ġpeasants": 43496, "Ġgrap": 47660, "fashion": 36697, "Ġmaize": 28380, "ococ": 36240, "Ġpaycheck": 24288, "Ġdistinguishing": 41444, "\":-": 50000, "ĠYong": 22322, "lets": 10219, "Ġatrocities": 21692, "ĠRiver": 1995, "friend": 18028, "Ġfamilial": 38859, "Ġtechnologically": 35560, "ĠPaulo": 15333, "phil": 39142, "ĠGum": 32778, "ĠMild": 31426, "edly": 38441, "ĠAlec": 22767, "Former": 12815, "ĠLung": 23851, "Ġtubes": 25587, "Ġexplores": 17384, "Ġscenic": 25015, "OTUS": 24678, "ĠCompliance": 32611, "Ġselectively": 36944, "Ġrecommendations": 4664, "Ġcredential": 37440, "Ġanymore": 5988, "ensical": 48163, "Ġcling": 32645, "ĠThurs": 20074, "organic": 34098, "ĠWick": 18063, "ĠGuests": 21197, "Ġshouldn": 4395, "ington": 6598, "Ġcance": 21338, "esh": 4891, "Ġcelebrates": 8409, "inkle": 15673, "ĠSalon": 31941, "ĠVisit": 6252, "Ġinsurance": 1911, "Ġpreparing": 4568, "îĢ": 48466, "addons": 49645, "ĠGC": 18397, "Enlarge": 47094, "enabled": 23949, "ĠBarg": 28876, "Ġ().": 48989, "lasting": 25179, "Ġkits": 14506, "Ġlaunching": 6627, "Ġgoal": 724, "scribed": 31623, "ĠAds": 35461, "Ġmango": 32184, "Hung": 41416, "ĠKickstarter": 29202,
[...]
